{"<|endoftext|>":0,"<|user|>":1,"<|bot|>":2,"<|sys|>":3,"<|gab1|>":4,"<|gab2|>":5,"<|gab3|>":6,"<|gab4|>":7,"<|gab5|>":8,"!":9,"\"":10,"#":11,"$":12,"%":13,"&":14,"'":15,"(":16,")":17,"*":18,"+":19,",":20,"-":21,".":22,"/":23,"0":24,"1":25,"2":26,"3":27,"4":28,"5":29,"6":30,"7":31,"8":32,"9":33,":":34,";":35,"<":36,"=":37,">":38,"?":39,"@":40,"A":41,"B":42,"C":43,"D":44,"E":45,"F":46,"G":47,"H":48,"I":49,"J":50,"K":51,"L":52,"M":53,"N":54,"O":55,"P":56,"Q":57,"R":58,"S":59,"T":60,"U":61,"V":62,"W":63,"X":64,"Y":65,"Z":66,"[":67,"\\":68,"]":69,"^":70,"_":71,"`":72,"a":73,"b":74,"c":75,"d":76,"e":77,"f":78,"g":79,"h":80,"i":81,"j":82,"k":83,"l":84,"m":85,"n":86,"o":87,"p":88,"q":89,"r":90,"s":91,"t":92,"u":93,"v":94,"w":95,"x":96,"y":97,"z":98,"{":99,"|":100,"}":101,"~":102,"¡":103,"¢":104,"£":105,"¤":106,"¥":107,"¦":108,"§":109,"¨":110,"©":111,"ª":112,"«":113,"¬":114,"®":115,"¯":116,"°":117,"±":118,"²":119,"³":120,"´":121,"µ":122,"¶":123,"·":124,"¸":125,"¹":126,"º":127,"»":128,"¼":129,"½":130,"¾":131,"¿":132,"À":133,"Á":134,"Â":135,"Ã":136,"Ä":137,"Å":138,"Æ":139,"Ç":140,"È":141,"É":142,"Ê":143,"Ë":144,"Ì":145,"Í":146,"Î":147,"Ï":148,"Ð":149,"Ñ":150,"Ò":151,"Ó":152,"Ô":153,"Õ":154,"Ö":155,"×":156,"Ø":157,"Ù":158,"Ú":159,"Û":160,"Ü":161,"Ý":162,"Þ":163,"ß":164,"à":165,"á":166,"â":167,"ã":168,"ä":169,"å":170,"æ":171,"ç":172,"è":173,"é":174,"ê":175,"ë":176,"ì":177,"í":178,"î":179,"ï":180,"ð":181,"ñ":182,"ò":183,"ó":184,"ô":185,"õ":186,"ö":187,"÷":188,"ø":189,"ù":190,"ú":191,"û":192,"ü":193,"ý":194,"þ":195,"ÿ":196,"Ā":197,"ā":198,"Ă":199,"ă":200,"Ą":201,"ą":202,"Ć":203,"ć":204,"Ĉ":205,"ĉ":206,"Ċ":207,"ċ":208,"Č":209,"č":210,"Ď":211,"ď":212,"Đ":213,"đ":214,"Ē":215,"ē":216,"Ĕ":217,"ĕ":218,"Ė":219,"ė":220,"Ę":221,"ę":222,"Ě":223,"ě":224,"Ĝ":225,"ĝ":226,"Ğ":227,"ğ":228,"Ġ":229,"ġ":230,"Ģ":231,"ģ":232,"Ĥ":233,"ĥ":234,"Ħ":235,"ħ":236,"Ĩ":237,"ĩ":238,"Ī":239,"ī":240,"Ĭ":241,"ĭ":242,"Į":243,"į":244,"İ":245,"ı":246,"Ĳ":247,"ĳ":248,"Ĵ":249,"ĵ":250,"Ķ":251,"ķ":252,"ĸ":253,"Ĺ":254,"ĺ":255,"Ļ":256,"ļ":257,"Ľ":258,"ľ":259,"Ŀ":260,"ŀ":261,"Ł":262,"ł":263,"Ń":264,"Ġd":265,"Ã©":266,"es":267,"Ġl":268,"en":269,"on":270,"Ġde":271,"Ġp":272,"an":273,"Ġc":274,"re":275,"Ġs":276,"ti":277,"er":278,"is":279,"Ġa":280,"in":281,"ou":282,"ar":283,"qu":284,"et":285,"ent":286,"le":287,"Ġla":288,"it":289,"un":290,"or":291,"ur":292,"te":293,"Ġm":294,"Ġet":295,"om":296,"il":297,"ĠÃ":298,"tion":299,"Ġle":300,"Ġf":301,"al":302,"Ġen":303,"ra":304,"Ã¨":305,"ĠÃł":306,"Ġt":307,"que":308,"Ġdes":309,"ie":310,"rÃ©":311,"ĠL":312,"Ġ(":313,"us":314,"Ġdu":315,"Ġun":316,"est":317,"ment":318,"Ġn":319,"ĠC":320,"el":321,"our":322,"Ġ1":323,"ro":324,"ant":325,"ri":326,"au":327,"Ġpar":328,"Ġles":329,"ce":330,"ans":331,"ol":332,"ch":333,"ĠÃ©":334,"Ġv":335,"at":336,"ne":337,"ĠS":338,"Ġau":339,"as":340,"ont":341,"Ġcom":342,"ation":343,"me":344,"Ġest":345,"ĠM":346,"ĠP":347,"Ġqu":348,"Ġ:":349,"res":350,"ve":351,"si":352,"se":353,"Ġb":354,"Ã©e":355,"ĠdÃ©":356,"de":357,"Ġg":358,"ag":359,"ci":360,"ĠB":361,"ire":362,"ais":363,"âĢ":364,"li":365,"Ġdans":366,"ĠA":367,"tÃ©":368,"Ġ19":369,"ran":370,"Ġre":371,"20":372,"mp":373,"ain":374,"Ġcon":375,"ĠrÃ©":376,"Ġune":377,"ĠĊ":378,"âĢĻ":379,"ĠD":380,"Ġpl":381,"ĠR":382,"Ġpour":383,"Ġse":384,"di":385,"ĠÂ":386,"ers":387,"les":388,"Ġin":389,"ĠF":390,"ir":391,"ĠG":392,"ĠT":393,"Ġch":394,"Ġsur":395,"ta":396,"os":397,"Ġ20":398,"Ġe":399,"ac":400,"une":401,"ale":402,"itÃ©":403,"Ġqui":404,"Ġcomm":405,"ul":406,"Ġpro":407,"ig":408,"tu":409,"ux":410,"op":411,"Ġj":412,"og":413,"Ġr":414,"Ġh":415,"elle":416,"tre":417,"ic":418,"Ã©r":419,"ĠI":420,"Ã¨re":421,"Ġque":422,"ĠE":423,"ff":424,"am":425,"ab":426,"ĠJ":427,"ut":428,"ot":429,"ort":430,"),":431,"Ã¨s":432,"ait":433,"ille":434,"ique":435,"Ãª":436,"ques":437,"ist":438,"urs":439,"ouv":440,"Ġplus":441,"oc":442,"pe":443,"end":444,"ĠN":445,"Ġsu":446,"iv":447,"vec":448,"ois":449,"ĠH":450,"ite":451,"Ġil":452,"ion":453,"ue":454,"Ã©s":455,"Ã©es":456,"ge":457,"ter":458,"ĠLe":459,"aire":460,"mi":461,"Ġavec":462,"ĠV":463,"ap":464,"ine":465,"Ġson":466,"ces":467,"ction":468,"and":469,"ph":470,"ai":471,"Ġou":472,"onn":473,").":474,"age":475,"ĠLa":476,"ens":477,"ill":478,"Ã§":479,"Ġan":480,"Ġsont":481,"Ġex":482,"st":483,"ĠÂ»":484,"Ġpe":485,"par":486,"Ã©n":487,"ĠÂ«":488,"Ġo":489,"Ġ,":490,"ĠprÃ©":491,"pr":492,"im":493,"uis":494,"aux":495,"ĠCh":496,"Ġtr":497,"vi":498,"ous":499,"che":500,"Ġparti":501,"mb":502,"Ġ;":503,"Ġpr":504,"ure":505,"Ã©ri":506,"tique":507,"ord":508,"Ġcommune":509,"lle":510,"ad":511,"ond":512,"um":513,"ors":514,"ub":515,"ui":516,"ert":517,"ette":518,"Ġ.":519,"ise":520,"ard":521,"Ġnom":522,"ay":523,"Ġpas":524,"Ġsa":525,"ĠIl":526,"ons":527,"Ġ201":528,"Ġ200":529,"entre":530,"oire":531,"Ġcomp":532,"ance":533,"Ġmo":534,"Ã´":535,"teur":536,"ier":537,"Ġra":538,"19":539,"tes":540,"nes":541,"Ġce":542,"Ġaux":543,"Ġ%":544,"oi":545,"du":546,"pp":547,"Ġtra":548,"ĠĠ":549,"Ġav":550,"oir":551,"Ġac":552,"lÃ©":553,"ence":554,"ranÃ§":555,"Le":556,"ru":557,"remi":558,"Ã¢":559,"Ã©ra":560,"Ġte":561,"tin":562,"Ġfor":563,"ations":564,"Ġdi":565,"enne":566,"Ġar":567,"Ġal":568,"Ġter":569,"av":570,"ĠK":571,"ĠLes":572,"rit":573,"ins":574,"iste":575,"Ã©c":576,"Ġdeux":577,"ments":578,"bre":579,"iÃ¨":580,"Ġne":581,"Ġcar":582,"raph":583,"aint":584,"ĠO":585,"ĠW":586,"mes":587,"Ġpremi":588,"imp":589,"Ġ199":590,"ture":591,"Ġ18":592,"Ã©g":593,"Ġ2":594,"La":595,"Ġcont":596,"Ġcomme":597,"ranÃ§ais":598,"Ã©t":599,"Ġses":600,"la":601,"ĠPar":602,"olog":603,"ĠÃ©tÃ©":604,"tif":605,"sent":606,"Ġmar":607,"id":608,"tres":609,"ib":610,"Ġcommun":611,"Ã©m":612,"he":613,"Ġfait":614,"Ġmais":615,"ĠfranÃ§ais":616,"oit":617,"Ãī":618,"ograph":619,"rou":620,"Ġentre":621,"En":622,"ob":623,"ĠEn":624,"ants":625,"ĠFran":626,"Ã®":627,"all":628,"ien":629,"cip":630,"Ġtou":631,"Ã©d":632,"ass":633,"Un":634,"ĠMar":635,"ang":636,"Ġ-":637,"erm":638,"cu":639,"aine":640,"sion":641,"ours":642,"ec":643,"Ġcons":644,"ing":645,"ales":646,"ĠÃ©ta":647,"oy":648,"ts":649,"Ġmon":650,"ĠdÃ©c":651,"po":652,"oci":653,"rand":654,"ussi":655,"onne":656,"omm":657,"alis":658,"lis":659,"tat":660,"iques":661,"alement":662,"ace":663,"Ġdis":664,"ĠrÃ©g":665,"ences":666,"Ãªme":667,"ĠÃī":668,"aires":669,"co":670,"Ġann":671,"tement":672,"ĠSaint":673,"ign":674,"Ġcl":675,"ss":676,"ouve":677,"ex":678,"rois":679,"fÃ©r":680,"Ġaussi":681,"ubli":682,"prÃ¨s":683,"amp":684,"ante":685,"tions":686,"ĠFrance":687,"Ġfin":688,"Ġ198":689,"erv":690,"min":691,"Ġ3":692,"ati":693,"des":694,"Ġdont":695,"Ġelle":696,"ong":697,"ct":698,"lement":699,"Ġont":700,"alitÃ©":701,"Ġcette":702,"ĠAn":703,"oli":704,"ĠÃ©c":705,"orm":706,"erre":707,"Ã©tÃ©":708,"ĠJe":709,"Ãł":710,"Ġsous":711,"rie":712,"itu":713,"Ġfil":714,"tra":715,"titu":716,"18":717,"ĠÃ©g":718,"Ġor":719,"Ġes":720,"ĠgÃ©n":721,"ven":722,"sid":723,"ures":724,"igne":725,"ann":726,"Ġpo":727,"elles":728,"Ġpeu":729,"Ġinter":730,"Ġpuis":731,"Ġti":732,"ari":733,"ographie":734,"Ġcol":735,"Ġam":736,"Ġimp":737,"Ġro":738,"Ġpartie":739,"tiv":740,"insi":741,"int":742,"Ġlui":743,"tis":744,"stru":745,"Ġapp":746,"Les":747,"Ġdiff":748,"Ġ197":749,"Ġad":750,"Ġnombre":751,"ate":752,"Ġleur":753,"puis":754,"Ġme":755,"use":756,"Ã©rie":757,"Ġat":758,"uti":759,"Ġno":760,"ersonn":761,"lan":762,"ĠdÃ©par":763,"Ġph":764,"Ã¹":765,"ourn":766,"Ġche":767,"if":768,"Ġsol":769,"Ġma":770,"Ã¨res":771,"ĠmÃªme":772,"ieu":773,"Ġtrav":774,"Ar":775,"Ġrec":776,"iens":777,"ĠÃª":778,"Ã©v":779,"ouver":780,"ĠParis":781,"eu":782,"Ġprin":783,"ages":784,"eau":785,"ode":786,"th":787,"ĠÃªtre":788,"00":789,"endant":790,"ble":791,"gl":792,"Ġtemp":793,"ich":794,"lÃ¨":795,"Ġpeut":796,"emp":797,"Ġalors":798,"ric":799,"otes":800,"ĠDe":801,"agne":802,"Ġob":803,"Ġser":804,"ron":805,"cien":806,"Ġ4":807,"ays":808,"od":809,"ern":810,"able":811,"Ġpos":812,"fÃ©rences":813,"Ġmil":814,"Ġres":815,"anis":816,"Ġrep":817,"fin":818,"ivers":819,"Ġainsi":820,"tic":821,"ĠoÃ¹":822,"An":823,"Ġperm":824,"riv":825,"Åĵ":826,"Ġnation":827,"lu":828,"ĠÃ©galement":829,"agn":830,"ĊĠ":831,"Ġy":832,"ĠrÃ©gion":833,"Ã©p":834,"Ġlors":835,"Ġst":836,"ĠcrÃ©":837,"ix":838,"ges":839,"ĠJean":840,"ĠAl":841,"Ġpubli":842,"Ġsitu":843,"onc":844,"Ġgrand":845,"Ġtrois":846,"aiss":847,"ten":848,"ains":849,"Ġjus":850,"Ã©di":851,"iss":852,"mbre":853,"ution":854,"Ġsy":855,"Ġsec":856,"oup":857,"Ġtrans":858,"ient":859,"qui":860,"Ġ17":861,"enti":862,"Ġ5":863,"Ġprop":864,"ĠÃ©tait":865,"oul":866,"yp":867,"ĠdÃ©partement":868,"ĠaprÃ¨s":869,"ĠU":870,"ĊĊ":871,"are":872,"hÃ©":873,"roupe":874,"Ġces":875,"lim":876,"ieux":877,"Ġfut":878,"ature":879,"ov":880,"its":881,"Ġsp":882,"urop":883,"Ġterrit":884,"ĠtrÃ¨s":885,"aut":886,"rn":887,"erg":888,"Ġcontre":889,"ĠÂ»,":890,"istoire":891,"Ġbas":892,"ris":893,"Ġville":894,"Ġ196":895,"ath":896,"ues":897,"ud":898,"orte":899,"utilis":900,"Ġans":901,"ieurs":902,"jet":903,"ents":904,"tiques":905,"Ġexp":906,"Ġap":907,"Ã¯":908,"Ġsc":909,"Ġpoli":910,"tant":911,"Notes":912,"ĠdÃ©b":913,"Ã©ric":914,"ĠdÃ©p":915,"Ġdepuis":916,"ente":917,"Ġpremier":918,"ia":919,"cup":920,"ies":921,"tive":922,"Ġmus":923,"Ġoc":924,"ologie":925,"mment":926,"cher":927,"ls":928,"man":929,"ĠĠĠĠ":930,"Ġ|":931,"Ġsoci":932,"itÃ©s":933,"Ġprodu":934,"ĠElle":935,"omp":936,"lo":937,"Ġz":938,"one":939,"In":940,"Ġmin":941,"ĠY":942,"Ġcommunes":943,"ĠÃ©v":944,"ĠpremiÃ¨re":945,"Ġgu":946,"Ġvers":947,"ctions":948,"uv":949,"Ġacc":950,"ĠnÃ©":951,"sement":952,"Ã¨ne":953,"opul":954,"Ġab":955,"Ġcour":956,"ĠQ":957,"Ġeff":958,"az":959,"illes":960,"Ġren":961,"ug":962,"Ġpersonn":963,"em":964,"lig":965,"ĠannÃ©es":966,"Ġcor":967,"Ã©rÃ©":968,"rim":969,"ĠAr":970,"Ġsou":971,"oue":972,"ulture":973,"Ġsuiv":974,"ĠGu":975,"omme":976,"Ġon":977,"Âł":978,"ĠIn":979,"aient":980,"Ġcel":981,"Ġprincip":982,"Ã©ral":983,"ines":984,"iÃ¨me":985,"Ã©lÃ©":986,"ĠprÃ©sent":987,"aille":988,"aÃ®":989,"rib":990,"cl":991,"ĠCe":992,"Ġdern":993,"Ġag":994,"Ã¨me":995,"elon":996,"Ġpermet":997,"Ġ6":998,"ĠÃ©le":999,"Ġpays":1000,"omb":1001,"rÃ©sent":1002,"ĠdiffÃ©r":1003,"Ġaut":1004,"ches":1005,"ĠâĢ":1006,"ateur":1007,"Ġexter":1008,"ierre":1009,"ĠĊĠĊ":1010,"aissance":1011,"ats":1012,"ĠX":1013,"Ġplusieurs":1014,"ĠUn":1015,"Ġman":1016,"Ġjusqu":1017,"Ġconn":1018,"ĠfranÃ§aise":1019,"ole":1020,"cep":1021,"ive":1022,"Ġutilis":1023,"istor":1024,"Ã©ta":1025,"ĠpÃ©ri":1026,"aines":1027,"Ġass":1028,"Ġdonn":1029,"aison":1030,"vel":1031,"ĠĊĊ":1032,"tr":1033,"Ġfilm":1034,"ision":1035,"Ġsoit":1036,"Ã»":1037,"Ġconc":1038,"Ġcin":1039,"ĠsiÃ¨":1040,"to":1041,"ind":1042,"ĠrÃ©fÃ©rences":1043,"oph":1044,"ĠÃ©p":1045,"semb":1046,"Ġnature":1047,"ici":1048,"Ġli":1049,"Ġconf":1050,"Ġnota":1051,"teurs":1052,"Ġpopul":1053,"ites":1054,"enn":1055,"Ġlong":1056,"rent":1057,"ak":1058,"Ġcert":1059,"port":1060,"Ġconstru":1061,"ĠJo":1062,"rig":1063,"ili":1064,"ell":1065,"ĠreprÃ©sent":1066,"Ġmort":1067,"ĠrÃ©s":1068,"Ġ195":1069,"tats":1070,"rande":1071,"Ġmoy":1072,"Ġexternes":1073,"vient":1074,"Ġcap":1075,"Ġavant":1076,"Ġ15":1077,"Ġtout":1078,"fic":1079,"out":1080,"Liens":1081,"Ġloc":1082,"Ġfond":1083,"ĠÂ».":1084,"ĠZ":1085,"onom":1086,"antes":1087,"art":1088,"Ġju":1089,"ret":1090,"ĠRe":1091,"Ġnouv":1092,"Ġsans":1093,"Ġper":1094,"uc":1095,"Ġform":1096,"Ġrou":1097,"anc":1098,"Ġ194":1099,"Il":1100,"Ġ7":1101,"Ġdire":1102,"onde":1103,"Ġmont":1104,"Ãªte":1105,"ĠMont":1106,"ĠsÃ©":1107,"form":1108,"Ġoff":1109,"Ġclim":1110,"ĠrÃ©alis":1111,"Ġterritoire":1112,"tionn":1113,"Ġ16":1114,"Ġgroupe":1115,"ĠamÃ©ric":1116,"aul":1117,"Ġesp":1118,"Ġco":1119,"olution":1120,"ĠCar":1121,"Ġfam":1122,"Ġenv":1123,"ĠChar":1124,"vent":1125,"cle":1126,"Ã¢te":1127,"abit":1128,"Ġremp":1129,"iÃ¨re":1130,"Ġje":1131,"17":1132,"Ġnotamment":1133,"ourg":1134,"ma":1135,"iti":1136,"Ġpeti":1137,"Ġprof":1138,"ones":1139,"su":1140,"Ġappar":1141,"Ġvol":1142,"tÃ©s":1143,"istra":1144,"Ġfois":1145,"Ġautres":1146,"ĠCl":1147,"rer":1148,"nex":1149,"Ġ8":1150,"core":1151,"ry":1152,"sition":1153,"ach":1154,"Ġ||":1155,"Ġmonde":1156,"per":1157,"iel":1158,"ĠTh":1159,"Ġbien":1160,"Ġrom":1161,"Ġsols":1162,"Ã©ration":1163,"asse":1164,"Ġdev":1165,"erie":1166,"uses":1167,"ĠQu":1168,"Ġdro":1169,"Ġent":1170,"ah":1171,"Ġnouve":1172,"ĠrÃ©p":1173,"cupation":1174,"Ã´le":1175,"Ġins":1176,"nement":1177,"Al":1178,"ade":1179,"Ġmat":1180,"Ġpass":1181,"ĠCon":1182,"lier":1183,"oles":1184,"Ġquat":1185,"Ġmoins":1186,"ves":1187,"endre":1188,"velop":1189,"Ġcours":1190,"Ġnon":1191,"ministra":1192,"ĠCette":1193,"ver":1194,"uss":1195,"Ġimport":1196,"Ġsuc":1197,"ze":1198,"Ġfon":1199,"assi":1200,"Ġcan":1201,"pi":1202,"ils":1203,"Ġof":1204,"Ġnord":1205,"ame":1206,"chÃ©":1207,"Ġvill":1208,"Ã©ro":1209,"ampion":1210,"Ġdom":1211,"Ġsud":1212,"ganis":1213,"Ġquel":1214,"fois":1215,"ĠmÃ©t":1216,"istes":1217,"ĠÃĢ":1218,"Ġcou":1219,"Ġaff":1220,"Ġtemps":1221,"ĠdÃ©velop":1222,"Ã©b":1223,"Ġplace":1224,"llem":1225,"entes":1226,"ĠdÃ©m":1227,"ĠpÃ©riode":1228,"nation":1229,"Ġ193":1230,"ables":1231,"yn":1232,"Ġemp":1233,"chn":1234,"rÃ©e":1235,"ton":1236,"Ġpolitique":1237,"Ġcelle":1238,"Ch":1239,"Ġri":1240,"esse":1241,"lie":1242,"ĠThe":1243,"ĠdÃ©but":1244,"ourd":1245,"Ġvie":1246,"Ġnational":1247,"ouvent":1248,"Ġ9":1249,"aur":1250,"ice":1251,"lise":1252,"Ġ\"":1253,"Ġcas":1254,"lles":1255,"riÃ¨re":1256,"ĠdÃ©f":1257,"Ġencore":1258,"ony":1259,"ouis":1260,"lus":1261,"Ġop":1262,"Ġconstitu":1263,"200":1264,"app":1265,"Ġsite":1266,"Ġpart":1267,"ĠlÃ©g":1268,"Ġleurs":1269,"Ġmod":1270,"Ġfa":1271,"quipe":1272,"Ġ2018":1273,"Ġrapp":1274,"II":1275,"Ġguerre":1276,"Ġsuite":1277,"ĠPh":1278,"ĠCor":1279,"ĠgÃ©nÃ©ral":1280,"rix":1281,"ellement":1282,"Ġcant":1283,"Ġtour":1284,"ĠÃ©tu":1285,"seau":1286,"ane":1287,"Ġnive":1288,"amb":1289,"ange":1290,"ler":1291,"Ġpartir":1292,"isme":1293,"ĠSe":1294,"uropÃ©":1295,"Ġâ":1296,"rÃª":1297,"Ġavoir":1298,"els":1299,"Ġtitre":1300,"ow":1301,"Ġgrande":1302,"Ġavait":1303,"ore":1304,"10":1305,"Ġparticu":1306,"Ġvari":1307,"ĠprÃ©c":1308,"tifs":1309,"Ġchar":1310,"Ġhistor":1311,"ibli":1312,"ule":1313,"Ġ%),":1314,"Ġpouv":1315,"Ġcompte":1316,"urb":1317,"ĠprÃ©sid":1318,"tier":1319,"Ġpat":1320,"Ġlieu":1321,"rÃ©s":1322,"ori":1323,"nexes":1324,"ĠthÃ©":1325,"Ġmal":1326,"bles":1327,"Ġgr":1328,"oires":1329,"Ġret":1330,"Ġver":1331,"Ġcompos":1332,"Ġdou":1333,"tel":1334,"ome":1335,"ission":1336,"Ã©ci":1337,"Ġfaire":1338,"..":1339,"Ġtous":1340,"tie":1341,"Ġsign":1342,"Ġselon":1343,"Ġcent":1344,"Ġcelui":1345,"Ġpublic":1346,"Ġrest":1347,"Ã¢teau":1348,"iers":1349,"ram":1350,"Ġk":1351,"land":1352,"ĠNe":1353,"bum":1354,"cul":1355,"ast":1356,"ĠDans":1357,"ĠUne":1358,"ande":1359,"ologique":1360,"Ġdur":1361,"yant":1362,"Ġjoue":1363,"Ġhabit":1364,"ital":1365,"mar":1366,"aque":1367,"gu":1368,"Ġfer":1369,"ĠtÃ©lÃ©":1370,"autres":1371,"Ġ10":1372,"tÃ©g":1373,"itaire":1374,"ĠÃītats":1375,"Ġbat":1376,"ĠSt":1377,"uni":1378,"ets":1379,"alle":1380,"cid":1381,"ense":1382,"ile":1383,"Ġdonc":1384,"Ġport":1385,"mÃ©e":1386,"Ġbi":1387,"ennes":1388,"Åĵuv":1389,"ĠgÃ©nÃ©ra":1390,"serv":1391,"uit":1392,"ust":1393,"Ġgouver":1394,"Ġroi":1395,"Ġniveau":1396,"ax":1397,"Ġmen":1398,"ĠeuropÃ©":1399,"Ãªtre":1400,"Ġind":1401,"16":1402,"Ġsep":1403,"Ġfamille":1404,"Ġca":1405,"hui":1406,"ticles":1407,"Ġnouveau":1408,"Ġinf":1409,"Ġappel":1410,"gn":1411,"ĠJac":1412,"Ġforme":1413,"Ġ12":1414,"rip":1415,"Ġinc":1416,"oth":1417,"lex":1418,"15":1419,"rop":1420,"ĠsÃ©rie":1421,"ises":1422,"ĠcÃ´":1423,"ĠsituÃ©e":1424,"oris":1425,"Ġlim":1426,"poque":1427,"Ġprov":1428,"Ġindi":1429,"aud":1430,"Ġsi":1431,"rÃ¨s":1432,"Ġplan":1433,"aill":1434,"Ġcarac":1435,"ances":1436,"Ġquatre":1437,"Ġ14":1438,"Voir":1439,"sp":1440,"ict":1441,"Ġtrouve":1442,"Ġtoute":1443,"ĠÃ©t":1444,"tÃ©rie":1445,"ke":1446,"rice":1447,"pec":1448,"ditions":1449,"rique":1450,"ĠspÃ©ci":1451,"Ġreg":1452,"ĠSh":1453,"ail":1454,"hn":1455,"occupation":1456,"Ġfem":1457,"pes":1458,"enc":1459,"acc":1460,"RÃ©":1461,"Ġ).":1462,"ose":1463,"Ġligne":1464,"urent":1465,"Ġcanton":1466,"assin":1467,"lic":1468,"tient":1469,"ĠAu":1470,"Ġvis":1471,"ĠCol":1472,"Mar":1473,"emple":1474,"Ġtechn":1475,"aume":1476,"Ġlang":1477,"Ġdevient":1478,"Ġpendant":1479,"ĠBar":1480,"ĠMe":1481,"199":1482,"ess":1483,"sur":1484,"Ġayant":1485,"jourd":1486,"ĠOn":1487,"Ġsor":1488,"Ġgra":1489,"Ġ13":1490,"14":1491,"Ġpres":1492,"Ġdiv":1493,"Ġconsid":1494,"exp":1495,"Ġvillage":1496,"be":1497,"ys":1498,"Ġas":1499,"Ã¨de":1500,"rage":1501,"lection":1502,"Au":1503,"ĠâĶ":1504,"adi":1505,"ilm":1506,"ienne":1507,"Ġouv":1508,"Ġim":1509,"Ġclub":1510,"ĠPierre":1511,"Ġfonction":1512,"Ġfr":1513,"Ġcompr":1514,"ĠgÃ©":1515,"Ġ2010":1516,"semble":1517,"ĠâĢĵ":1518,"ĠdÃ©s":1519,"istre":1520,"cteur":1521,"Ġmarqu":1522,"sions":1523,"Ġnouvelle":1524,"ros":1525,"Ġadministra":1526,"Ġquelques":1527,"iter":1528,"rog":1529,"aise":1530,"Ġils":1531,"Ġsub":1532,"Par":1533,"ps":1534,"Naissance":1535,"vice":1536,"DÃ©c":1537,"aÃ¯":1538,"Ġpopulation":1539,"Ġmet":1540,"rain":1541,"Ġ()":1542,"ĠMich":1543,"tiÃ¨re":1544,"Unis":1545,"ranÃ§ois":1546,"Ġprog":1547,"temp":1548,"Ġpra":1549,"Ġinternation":1550,"Ġmoyenne":1551,"Ġmeille":1552,"Ġlib":1553,"igine":1554,"Ġmaj":1555,"De":1556,"Ġlog":1557,"Ġmondi":1558,"val":1559,"autÃ©":1560,"Ġ(),":1561,"cole":1562,"Ġsyst":1563,"Ã©l":1564,"ype":1565,"Ġmise":1566,"Ġconse":1567,"iversitÃ©":1568,"ommun":1569,"enant":1570,"Ġcommer":1571,"Ġautre":1572,"ĠLouis":1573,"oine":1574,"urope":1575,"Articles":1576,"Ġculture":1577,"yd":1578,"Ġbase":1579,"Ġconnexes":1580,"ĠGe":1581,"12":1582,"ĠsociÃ©tÃ©":1583,"mÃ©":1584,"Ġactu":1585,"cienne":1586,"Ġdess":1587,"Ġ192":1588,"Ġzones":1589,"ison":1590,"oix":1591,"Ġfils":1592,"ox":1593,"alitÃ©s":1594,"position":1595,"iron":1596,"oly":1597,"Ġdisp":1598,"Ġrepr":1599,"ville":1600,"Ġtourn":1601,"rier":1602,"ĠâĶĤ":1603,"avi":1604,"ysi":1605,"ivre":1606,"Ġdernier":1607,"Ġposs":1608,"ition":1609,"ok":1610,"Ġvi":1611,"Ġnombreux":1612,"lac":1613,"pendant":1614,"Ġpeuvent":1615,"Ġsouvent":1616,"ĠamÃ©ricain":1617,"rait":1618,"ime":1619,"tent":1620,"ĠrÃ©v":1621,"mer":1622,"Ġplu":1623,"Ġsaison":1624,"50":1625,"Ġeffet":1626,"Ġcat":1627,"cont":1628,"ĠGrand":1629,"Ġcomb":1630,"Ġlit":1631,"Ã¨g":1632,"Ġthe":1633,"Dans":1634,"Ãītat":1635,"13":1636,"nÃ©":1637,"lin":1638,"Ġroy":1639,"Histoire":1640,"ĠCan":1641,"Ġsecond":1642,"Ġth":1643,"ouse":1644,"Ġmuni":1645,"ĠDes":1646,"son":1647,"ĠPro":1648,"Ġfort":1649,"ĠRob":1650,"Ġenf":1651,"Ġsup":1652,"fs":1653,"illi":1654,"Ã©li":1655,"aÃ®t":1656,"oot":1657,"oie":1658,"aute":1659,"Ġmouve":1660,"arch":1661,"ĠtempÃ©ra":1662,"era":1663,"crip":1664,"ras":1665,"Ġ1990":1666,"ĠsiÃ¨cle":1667,"Ã¨te":1668,"Ġsucc":1669,"vers":1670,"Ġ2000":1671,"ordre":1672,"for":1673,"Ġtyp":1674,"origine":1675,"alie":1676,"Ġcentre":1677,"ĠrÃ´le":1678,"ki":1679,"DÃ©cÃ¨s":1680,"aff":1681,"Ġservice":1682,"Ġsens":1683,"ĠrÃ©c":1684,"ouest":1685,"cs":1686,"Ã¨rent":1687,"Ġmonu":1688,"suite":1689,"iles":1690,"ae":1691,"ĠprÃ¨s":1692,"cess":1693,"oin":1694,"Ġfl":1695,"Ġcontin":1696,"Ġdist":1697,"ÃĢ":1698,"Ġid":1699,"ĠÃ©tab":1700,"histoire":1701,"ilitÃ©":1702,"Ġaujourd":1703,"ĠPe":1704,"Ġsupp":1705,"Ġcir":1706,"ress":1707,"Ġchez":1708,"Or":1709,"uli":1710,"pose":1711,"Ġ%).":1712,"ĠPour":1713,"rang":1714,"iÃ©":1715,"Ġcri":1716,"Ã©volution":1717,"Personn":1718,"Ġclimat":1719,"ĠSon":1720,"ĠchÃ¢teau":1721,"Â°":1722,"Ġjourn":1723,"Ġdeven":1724,"ĠmÃ©":1725,"Ġchampion":1726,"Ã¢ti":1727,"ĠÃ©tant":1728,"Ġ202":1729,"Ġnationale":1730,"io":1731,"ĠmÃ©di":1732,"aliste":1733,"Ġmunicip":1734,"ĠdÃ©si":1735,"Ġserv":1736,"Ġangl":1737,"rance":1738,"Ġexemple":1739,"ibliographie":1740,"Ġoffic":1741,"ĠÃ©lect":1742,"Ġfran":1743,"Ġprob":1744,"Ġcal":1745,"Ã¢tre":1746,"ith":1747,"Ġprojet":1748,"ĠdÃ©veloppe":1749,"Ġcro":1750,"vier":1751,"ĠCes":1752,"llemand":1753,"Ã¨le":1754,"ĠCharles":1755,"ĠBr":1756,"ball":1757,"Ã©glise":1758,"Ġorig":1759,"dic":1760,"uel":1761,"esp":1762,"roph":1763,"Ġbar":1764,"vis":1765,"ritann":1766,"Ġpouvoir":1767,"Ġjeu":1768,"Ġris":1769,"cture":1770,"Ġorganis":1771,"ĠdÃ©fin":1772,"Ġhabitants":1773,"rimoine":1774,"ĠMon":1775,"Ã»t":1776,"Ġess":1777,"usion":1778,"Ġtravers":1779,"ĠVal":1780,"ĠÃ©taient":1781,"anti":1782,"Ġdoit":1783,"Ġcinq":1784,"Ġancien":1785,"ateurs":1786,"sionn":1787,"Ġgouvernement":1788,"Ġcamp":1789,"Ġdens":1790,"Ġcad":1791,"jours":1792,"illet":1793,"dition":1794,"Ġreste":1795,"Ġ2014":1796,"oise":1797,"Ġcarte":1798,"Ã´t":1799,"lace":1800,"Ã¨nes":1801,"ĠCou":1802,"198":1803,"ĠListe":1804,"Ġress":1805,"Ġafin":1806,"lant":1807,"Ġmois":1808,"Ġatt":1809,"ires":1810,"Ã¨se":1811,"annÃ©e":1812,"ppe":1813,"Ġtard":1814,"ck":1815,"ote":1816,"ĠsystÃ¨me":1817,"ĠannÃ©e":1818,"Ġparc":1819,"ars":1820,"rin":1821,"issement":1822,"inter":1823,"ĠforÃª":1824,"Ã¨tres":1825,"Ġcertains":1826,"ĠprÃ©sident":1827,"rag":1828,"Ġagric":1829,"ik":1830,"Ġsour":1831,"RÃ©fÃ©rences":1832,"erne":1833,"Ġjou":1834,"pond":1835,"Ġtype":1836,"ĠNord":1837,"Ġface":1838,"oll":1839,"ll":1840,"atique":1841,"Ġrapport":1842,"anique":1843,"Ġurb":1844,"Ġcoup":1845,"mbres":1846,"Ġmer":1847,"ĠFranÃ§ois":1848,"Bibliographie":1849,"tition":1850,"con":1851,"ication":1852,"cident":1853,"ĠAm":1854,"Ġaur":1855,"Ġphot":1856,"tivitÃ©":1857,"ian":1858,"Ã¨rement":1859,"isse":1860,"quel":1861,"Ġpoint":1862,"ĠcaractÃ©":1863,"Ġprend":1864,"Ã«":1865,"Ġgrands":1866,"apon":1867,"alif":1868,"Åĵuvre":1869,"ennent":1870,"Ġ2008":1871,"ht":1872,"ĠdiffÃ©rentes":1873,"tien":1874,"Ġchef":1875,"ĠAnd":1876,"Ġdoc":1877,"Ġpor":1878,"Ġmilli":1879,"Ġjour":1880,"=\"":1881,"auv":1882,"Ġsix":1883,"ographique":1884,"ublique":1885,"up":1886,"ĠJohn":1887,"Ġensuite":1888,"Ġgar":1889,"traction":1890,"Ġparticip":1891,"Ġmes":1892,"Åĵur":1893,"Ġcontra":1894,"ration":1895,"oute":1896,"ĠdÃ¨s":1897,"illeurs":1898,"mont":1899,"ĠdeuxiÃ¨me":1900,"jo":1901,"duit":1902,"Ġreconn":1903,"urÃ©":1904,"ommes":1905,"Ġchaque":1906,"ĠMan":1907,"Ã©ch":1908,"eur":1909,"Ġrencont":1910,"ĠIls":1911,"ĠSch":1912,"mande":1913,"erb":1914,"mon":1915,"Ġdurant":1916,"tives":1917,"Ġ/":1918,"ribu":1919,"ustrie":1920,"ota":1921,"Ġmot":1922,"Ġrelig":1923,"Ġlar":1924,"ĠĠĠĠĠĠĠĠ":1925,"Ġcul":1926,"ĠBe":1927,"ĠsupÃ©rie":1928,"Ġ2005":1929,"Ġw":1930,"Ġpersonnes":1931,"tÃ©ra":1932,"Ġzone":1933,"Ġtoujours":1934,"ĠÃ©crit":1935,"respond":1936,"Ġ2006":1937,"ĠÃ©conom":1938,"Ġ190":1939,"ĠHen":1940,"Ġtant":1941,"oud":1942,"Ġand":1943,"arg":1944,"anisme":1945,"Ġtransport":1946,"isc":1947,"Ġroman":1948,"ĠBel":1949,"ĠGeor":1950,"oss":1951,"ĠbÃ¢ti":1952,"Ġorigin":1953,"eng":1954,"quer":1955,"Ġporte":1956,"tit":1957,"Ġsimp":1958,"yl":1959,"Ã©lÃ¨":1960,"voir":1961,"duction":1962,"Ġmis":1963,"ĠRo":1964,"ĠpÃ¨re":1965,"ĠMal":1966,"inc":1967,"Ġ2015":1968,"yle":1969,"Ġcapit":1970,"ĠreÃ§":1971,"ĠSa":1972,"ĠNo":1973,"ĠNew":1974,"Ġ2004":1975,"leur":1976,"Ġquar":1977,"sence":1978,"Ġrecher":1979,"Ã©rique":1980,"Ġref":1981,"sible":1982,"Ġseul":1983,"Ġconserv":1984,"Ã¢ce":1985,"lor":1986,"Ã©quipe":1987,"ĠII":1988,"Ġtoutes":1989,"mis":1990,"Ġnombreuses":1991,"Ġ1999":1992,"aprÃ¨s":1993,"Ġagricoles":1994,"ock":1995,"ĠrÃ©par":1996,"Ã©ma":1997,"Ġmondiale":1998,"Ġprovin":1999,"Ġ(âĢ":2000,"Ġbeau":2001,"ative":2002,"Ã§on":2003,"Ġ2007":2004,"grÃ©":2005,"Ġmusique":2006,"Ġtaux":2007,"ĠSud":2008,"Ġcorrespond":2009,"Ġprix":2010,"Ġsuivante":2011,"Ġsyn":2012,"Ġailleurs":2013,"Ġpropri":2014,"Ġhum":2015,"ĠRen":2016,"ĠÃ©ch":2017,"ĠPaul":2018,"Ġjours":2019,"ĠdÃ©ta":2020,"ainte":2021,"ĠespÃ¨":2022,"ĠeuropÃ©enne":2023,"alisation":2024,"ĠRoy":2025,"Ġallemand":2026,"ĠMais":2027,"urg":2028,"utÃ©":2029,"Ã©qu":2030,"Ġcoll":2031,"Comm":2032,"ĠscÃ¨ne":2033,"Ġpers":2034,"Ġassoci":2035,"ĠAd":2036,"ĠdonnÃ©es":2037,"aye":2038,"Ġbritann":2039,"rale":2040,"Ġhistorique":2041,"dement":2042,"Ġrel":2043,"ĠJacques":2044,"197":2045,"Ġsera":2046,"Ġrend":2047,"Ã©poque":2048,"odes":2049,"ĠcommunautÃ©":2050,"reg":2051,"Ġmembres":2052,"Â«":2053,"rom":2054,"Ġbut":2055,"ĠGuerre":2056,"xim":2057,"cription":2058,"ards":2059,"tivement":2060,"Ġseigne":2061,"Ġcath":2062,"jec":2063,"Ã©tique":2064,"Ġpein":2065,"Ġ(âĢł":2066,"Ġfoot":2067,"France":2068,"ysique":2069,"Ġdroit":2070,"Ġbois":2071,"Ġchange":2072,"Ġvale":2073,"bert":2074,"agit":2075,"Ġdit":2076,"Ac":2077,"ĠtempÃ©rature":2078,"ada":2079,"prÃ©":2080,"rond":2081,"GÃ©":2082,"asion":2083,"ĠRobert":2084,"iÃ¨res":2085,"Ġmatch":2086,"oins":2087,"Ġfais":2088,"ĠĊĠ":2089,"gment":2090,"lev":2091,"aces":2092,"Ġsta":2093,"Ġatte":2094,"rist":2095,"raÃ®":2096,"ĠDi":2097,"Ġtex":2098,"11":2099,"onomie":2100,"Ġpatrimoine":2101,"oÃ»t":2102,"Ġinst":2103,"Ġlongue":2104,"Ġpoin":2105,"Ġrue":2106,"ĠRÃ©p":2107,"pl":2108,"Ġ2003":2109,"Ġgen":2110,"ression":2111,"atiques":2112,"Ġclassi":2113,"ĠrÃ©seau":2114,"Ġdim":2115,"Ġ2020":2116,"autre":2117,"ner":2118,"ĠrÃ¨g":2119,"Ġchap":2120,"Ġ189":2121,"ĠdÃ©veloppement":2122,"allÃ©e":2123,"66":2124,"env":2125,"Ãīc":2126,"glise":2127,"onnement":2128,"Ġ2009":2129,"Ġital":2130,"Ġ0":2131,"Ġstation":2132,"ork":2133,"Ġtravail":2134,"tivitÃ©s":2135,"cipe":2136,"ĠSu":2137,"stitu":2138,"Ġsal":2139,"ute":2140,"Ġproduction":2141,"tiste":2142,"Ġloi":2143,"Ġfai":2144,"yc":2145,"old":2146,"ril":2147,"lÃ©ment":2148,"dio":2149,"att":2150,"tern":2151,"Ġpriv":2152,"Ġnum":2153,"ĠprÃ©sente":2154,"Ġvict":2155,"oritÃ©":2156,"off":2157,"Ġpremiers":2158,"Ġfont":2159,"aude":2160,"reur":2161,"Ġblan":2162,"ĠsituÃ©":2163,"lec":2164,"Ġhomme":2165,"Ġ2002":2166,"estion":2167,"ĠsuccÃ¨s":2168,"Ġrapi":2169,"Ã´ne":2170,"auteur":2171,"Ã¼":2172,"rant":2173,"Ġproche":2174,"Ã¡":2175,"rÃªt":2176,"Ġobserv":2177,"Ġvoit":2178,"Ġceux":2179,"ĠPhili":2180,"Ġclass":2181,"Film":2182,"ĠcrÃ©ation":2183,"ĠMus":2184,"Saint":2185,"Ġ)":2186,"Ġseu":2187,"alais":2188,"Ġroute":2189,"dit":2190,"ices":2191,"ase":2192,"ĠÃ¢":2193,"ĠdiffÃ©rents":2194,"Ġconstruction":2195,"Ġcorps":2196,"osÃ©":2197,"iment":2198,"ĠMichel":2199,"Ġsus":2200,"quelle":2201,"Ġproc":2202,"iller":2203,"nat":2204,"action":2205,"tation":2206,"mÃªme":2207,"quÃ©":2208,"Ġmembre":2209,"sy":2210,"Ġsein":2211,"Ġmonuments":2212,"olu":2213,"usse":2214,"act":2215,"org":2216,"uf":2217,"vision":2218,"Ġten":2219,"erc":2220,"ible":2221,"Ġterme":2222,"inf":2223,"Ġva":2224,"ries":2225,"orie":2226,"ara":2227,"Ġmaison":2228,"Ġparticuli":2229,"Ġ2013":2230,"Ġ188":2231,"ctures":2232,"Ġlaquelle":2233,"coup":2234,"ĠpiÃ¨":2235,"ĠâĢĶ":2236,"tembre":2237,"Ġ187":2238,"ĠHe":2239,"Ġcet":2240,"idÃ©":2241,"ĠPl":2242,"Je":2243,"Ġsignif":2244,"ĠAprÃ¨s":2245,"Ġ2001":2246,"ick":2247,"crit":2248,"Ġ2011":2249,"import":2250,"Ġ2012":2251,"Aut":2252,"cide":2253,"Ġdivers":2254,"Ġsuper":2255,"ions":2256,"Ġparfois":2257,"by":2258,"Ġsemb":2259,"ĠrÃ©sul":2260,"Ġbou":2261,"Ġsci":2262,"ĠprÃ©f":2263,"ĠgrÃ¢ce":2264,"ĠsiÃ¨ge":2265,"air":2266,"attraction":2267,"Ġjuin":2268,"hi":2269,"neur":2270,"Europe":2271,"Ġlangue":2272,"Ġlarge":2273,"Commune":2274,"Ã©tat":2275,"ĠMarie":2276,"Ġalbum":2277,"see":2278,"Ġcartes":2279,"titude":2280,"ĠRÃ©publique":2281,"aw":2282,"ouss":2283,"tÃ©rieur":2284,"Ġ&":2285,"tiers":2286,"ide":2287,"ĠcaractÃ©ris":2288,"Ġcontr":2289,"fÃ©rence":2290,"ĠSal":2291,"opony":2292,"Ġretour":2293,"Ġanim":2294,"Ġparticulier":2295,"Ġciv":2296,"Ġraison":2297,"Ġmilitaire":2298,"Ġbord":2299,"Ġentrepr":2300,"ourt":2301,"abor":2302,"ieur":2303,"rec":2304,"Ġrev":2305,"ĠtÃªte":2306,"Ġmai":2307,"Ġvoy":2308,"tobre":2309,"lÃ©e":2310,"mie":2311,"ĠtroisiÃ¨me":2312,"once":2313,"ĠdÃ©n":2314,"Ġanglais":2315,"oun":2316,"Ġmars":2317,"Ġfeu":2318,"Ġjeune":2319,"Ġpetit":2320,"ĠdÃ©j":2321,"Â»":2322,"Ġenfants":2323,"ulaire":2324,"Ġparmi":2325,"eff":2326,"|-":2327,"ignement":2328,"ogne":2329,"ira":2330,"Ġempl":2331,"ĠCom":2332,"indre":2333,"unes":2334,"ĠfrÃ©":2335,"ĠGal":2336,"Ġstat":2337,"Emp":2338,"ĠaÃ©ri":2339,"ly":2340,"Ġchans":2341,"Ġtot":2342,"ĠOr":2343,"Ġseptembre":2344,"tor":2345,"armÃ©e":2346,"Ġenviron":2347,"ĠDan":2348,"Ġeffec":2349,"Ã©on":2350,"Ġhuit":2351,"anvier":2352,"der":2353,"Ġsorti":2354,"ley":2355,"duc":2356,"Ġprom":2357,"tait":2358,"ĠLand":2359,"ĠIs":2360,"ĠlittÃ©ra":2361,"Ġbr":2362,"Ġjuillet":2363,"ocra":2364,"abb":2365,"ĠAb":2366,"ĠnÃ©cess":2367,"auche":2368,"ano":2369,"Ġrela":2370,"dique":2371,"llemagne":2372,"Ġdevant":2373,"tures":2374,"Ġbritannique":2375,"part":2376,"ilos":2377,"ĠPremi":2378,"Ġrisque":2379,"han":2380,"ĠGr":2381,"ensemble":2382,"ĠSur":2383,"ĠMarc":2384,"ĠdÃ©t":2385,"iographie":2386,"oux":2387,"orn":2388,"talie":2389,"ules":2390,"Ġfemme":2391,"Ġministre":2392,"Ġpasse":2393,"Ġversion":2394,"Ã©mie":2395,"ĠconsidÃ©rÃ©":2396,"uelle":2397,"ha":2398,"asc":2399,"Ã´me":2400,"Ġrur":2401,"Ġfig":2402,"Ġprogram":2403,"tout":2404,"iver":2405,"Ġauc":2406,"ĠCoupe":2407,"loit":2408,"igue":2409,"ĠprÃ©v":2410,"Ġpol":2411,"bourg":2412,"ologiques":2413,"Am":2414,"ĠdÃ©jÃł":2415,"ĠnommÃ©":2416,"iz":2417,"Ġqualif":2418,"Ġdispar":2419,"ĠdÃ©couv":2420,"rich":2421,"ĠSp":2422,"temps":2423,"itaires":2424,"Ġ2017":2425,"Car":2426,"ĠTour":2427,"iteur":2428,"ĠSc":2429,"Ġfille":2430,"Ġseigneur":2431,"Ġfac":2432,"Ġ179":2433,"ĠGar":2434,"avant":2435,"Ġdistin":2436,"ĠSte":2437,"196":2438,"cembre":2439,"Ġcolon":2440,"och":2441,"ina":2442,"sc":2443,"Ġdate":2444,"eux":2445,"ende":2446,"Ġcr":2447,"rondissement":2448,"Ġlet":2449,"ĠHar":2450,"Une":2451,"universitÃ©":2452,"Ġmari":2453,"Ġdo":2454,"Ã¨ve":2455,"Ġdessin":2456,"Ġ1998":2457,"Ġjanvier":2458,"ĠÃ©tudes":2459,"umi":2460,"Ġarch":2461,"lign":2462,"Ġcadre":2463,"Ã¨mes":2464,"gÃ©":2465,"Ġautour":2466,"30":2467,"fication":2468,"GÃ©ographie":2469,"Ġtu":2470,"194":2471,"ĠPays":2472,"Elle":2473,"Ġtelle":2474,"ied":2475,"Ġmag":2476,"isation":2477,"cientif":2478,"Ã©tab":2479,"lit":2480,"Ã©tu":2481,"ument":2482,"Ġdirection":2483,"Ġcommerci":2484,"Ġdonne":2485,"Ġconnu":2486,"Ã®le":2487,"ignes":2488,"erve":2489,"Ġjoueur":2490,"atur":2491,"Insee":2492,"Ġ1981":2493,"Ã©bec":2494,"ĠBer":2495,"ĠÃ©pis":2496,"ana":2497,"ulti":2498,"Ġmouvement":2499,"Ġhe":2500,"ĠmaÃ®":2501,"ĠSec":2502,"ĠBern":2503,"ielle":2504,"endance":2505,"Ġbeaucoup":2506,"Ġproduit":2507,"Ġmilieu":2508,"dess":2509,"rans":2510,"Ġpropre":2511,"Ġvilles":2512,"ral":2513,"Ġcompagn":2514,"Ġhommes":2515,"ĠderniÃ¨re":2516,"Ġpuiss":2517,"ĠcarriÃ¨re":2518,"Ġfurent":2519,"uve":2520,"ĠPat":2521,"sive":2522,"dif":2523,"ĠcÃ´tÃ©":2524,"Pour":2525,"Ġparois":2526,"ĠrÃ©sid":2527,"rages":2528,"ĠCas":2529,"olitique":2530,"Ġrejo":2531,"Ġimm":2532,"Ġ1991":2533,"ettes":2534,"Ġint":2535,"Ġ1980":2536,"tine":2537,"Ã©vrier":2538,"ception":2539,"Ġaugment":2540,"DÃ©m":2541,"ĠSoci":2542,"Ġquit":2543,"rite":2544,"andis":2545,"Ġstyle":2546,"erts":2547,"ĠdÃ©cembre":2548,"ĠcrÃ©Ã©":2549,"ed":2550,"aj":2551,"ĠprÃ©sence":2552,"Ġtravaux":2553,"urt":2554,"ĠÃ©quipe":2555,"Ġ[":2556,"Ġsaint":2557,"Ġdirec":2558,"ĠdÃ©cl":2559,"mand":2560,"anne":2561,"Ġressort":2562,"ini":2563,"ĠutilisÃ©":2564,"Oc":2565,"Ġmeilleur":2566,"oz":2567,"Ġoctobre":2568,"Ġdix":2569,"Ġ30":2570,"Ġretra":2571,"Ġscientif":2572,"atoire":2573,"Ġdat":2574,"dec":2575,"Ġpris":2576,"ĠpossÃ¨de":2577,"Ġprofes":2578,"vembre":2579,"Ãªque":2580,"ĠHenri":2581,"estre":2582,"Ġetc":2583,"Ġsurtout":2584,"olique":2585,"Ġhaut":2586,"lique":2587,"Ġpetite":2588,"ĠBou":2589,"Ġ(Â°":2590,"af":2591,"Ġcertaines":2592,"...":2593,"ords":2594,"Ġara":2595,"ivent":2596,"Ġord":2597,"ciens":2598,"vention":2599,"yon":2600,"Ġprot":2601,"quent":2602,"ticle":2603,"Ġaurait":2604,"Ġbataille":2605,"ĠRou":2606,"ĠChe":2607,"Ġdestin":2608,"enir":2609,"Ġmor":2610,"Ġ1997":2611,"Ġexiste":2612,"Ã¶":2613,"ka":2614,"ĠcatÃ©g":2615,"Ġpa":2616,"ĠÃ©lections":2617,"Ġ1971":2618,"intÃ©":2619,"aÃ®tre":2620,"ancien":2621,"Ã©nÃ©":2622,"ditionn":2623,"Ġsept":2624,"Ġseulement":2625,"Ġ2019":2626,"DÃ©mographie":2627,"ames":2628,"Ġ186":2629,"Ġreven":2630,"Ġprovince":2631,"Ġviol":2632,"Ġcart":2633,"Ã©ment":2634,"Pierre":2635,"ĠNic":2636,"ociation":2637,"Ġsort":2638,"omin":2639,"Ġ11":2640,"Ġplupart":2641,"las":2642,"cier":2643,"ip":2644,"inst":2645,"Ġis":2646,"Ġstru":2647,"resse":2648,"Ġcrois":2649,"ĠMor":2650,"ront":2651,"tival":2652,"casion":2653,"âĢ¦":2654,"Ġ=":2655,"ĠRÃ©":2656,"Ġelles":2657,"ĠPhilippe":2658,"Ġ2016":2659,"ardin":2660,"Ġformation":2661,"ficie":2662,"ym":2663,"ĠQuÃ©bec":2664,"ĠprÃ©cÃ©d":2665,"Ġ1996":2666,"Ġiss":2667,"Ġfaible":2668,"Ġcependant":2669,"Ġactuelle":2670,"Ġatta":2671,"Ġcommunale":2672,"Ġlimit":2673,"oyen":2674,"abord":2675,"ĠĠĠ":2676,"ĠmÃ©tro":2677,"ĠRich":2678,"Ġmusic":2679,"Ġfinale":2680,"olymp":2681,"lande":2682,"pos":2683,"ald":2684,"ĠforÃªts":2685,"otte":2686,"Ġtomb":2687,"Ġ1995":2688,"ĠcinÃ©ma":2689,"Ġloge":2690,"Ġterre":2691,"ĠfÃ©vrier":2692,"Ġmoyen":2693,"Ġdomaine":2694,"Ġ184":2695,"Esp":2696,"Ġconseil":2697,"ablement":2698,"Ġlocale":2699,"Ġliv":2700,"Ġinternational":2701,"ĠBeau":2702,"estival":2703,"ouverte":2704,"ĠpubliÃ©":2705,"Ġolymp":2706,"arn":2707,"Ġancienne":2708,"eterre":2709,"urant":2710,"Ġeux":2711,".,":2712,"ĠPer":2713,"tienne":2714,"ĠSainte":2715,"ber":2716,"ormais":2717,"ĠGen":2718,"Ã¨que":2719,"Ġunivers":2720,"||":2721,"Ġmom":2722,"importance":2723,"Ġnovembre":2724,"tÃ©e":2725,"ergie":2726,"Ġlivre":2727,"dam":2728,"ĠgÃ©nÃ©rale":2729,"Ġsau":2730,"ographiques":2731,"let":2732,"Ġcause":2733,"AprÃ¨s":2734,"Ġtable":2735,"ĠliÃ©es":2736,"Ġfra":2737,"Ġni":2738,"rastru":2739,"met":2740,"ĠComm":2741,"Ġtandis":2742,"Ġus":2743,"time":2744,"Ġvariables":2745,"ĠFin":2746,"ĠamÃ©ricaine":2747,"Ġ1970":2748,"ĠEd":2749,"lam":2750,"Ou":2751,"Ġcouv":2752,"yth":2753,"face":2754,"ĠdensitÃ©":2755,"Ġtypes":2756,"Ġcelles":2757,"ĠaoÃ»t":2758,"ĠPrix":2759,"Ã©min":2760,"Ġalign":2761,"Ġnorm":2762,"As":2763,"ĠConse":2764,"On":2765,"ovi":2766,"Ġavril":2767,"rivain":2768,"aly":2769,"Ġpoints":2770,"ĠmaniÃ¨re":2771,"ironnement":2772,"ompagn":2773,"Ġimportant":2774,"Ġfemmes":2775,"ÃŃ":2776,"Ġ25":2777,"Ġjam":2778,"ĠÃ©qui":2779,"ĠCel":2780,"Ġpolitiques":2781,"ĠespÃ¨ces":2782,"'s":2783,"roche":2784,"Ġremplac":2785,"ĠthÃ©Ã¢tre":2786,"Biographie":2787,"ĠÃ©lev":2788,"Ġsuff":2789,"ĠDu":2790,"anie":2791,"bilitÃ©":2792,"iff":2793,"gleterre":2794,"ĠYork":2795,"ĠdÃ©sign":2796,"dre":2797,"Ġprote":2798,"leurs":2799,"rad":2800,"Ġ1994":2801,"Ġduc":2802,"Ġrapidement":2803,"ĠgÃ©nÃ©ralement":2804,"Ġeng":2805,"ĠBen":2806,"ĠFor":2807,"Ġgauche":2808,"taire":2809,"Ġaccue":2810,"rb":2811,"Ġfootball":2812,"lexand":2813,"Ġ24":2814,"Ġrecherche":2815,"icile":2816,"frique":2817,"ĠtÃ©lÃ©vis":2818,"rid":2819,"Ce":2820,"ĠdÃ©partemental":2821,"Ġunique":2822,"Ġgrandes":2823,"ĠNouv":2824,"ham":2825,"pole":2826,"Ġnav":2827,"antÃ©":2828,"Ġlequel":2829,"Ġ1992":2830,"ĠdÃ©sormais":2831,"sych":2832,"dire":2833,"Ġcollec":2834,"Ġtrop":2835,"Ġcombat":2836,"ĠXV":2837,"stitut":2838,"Ġgenre":2839,"album":2840,"Ġpeup":2841,"ĠentraÃ®":2842,"Ġcommand":2843,"Ġretr":2844,"Ġcomte":2845,"ĠRom":2846,"Ã³":2847,"ca":2848,"Ġtravaill":2849,"Ġregroupe":2850,"ĠParti":2851,"Ġcommence":2852,"Ġindustrie":2853,"Politique":2854,"formation":2855,"commun":2856,"Ġcher":2857,"Ġpropos":2858,"ĠTra":2859,"Ġjamais":2860,"ĠrÃ©f":2861,"Ġterritoires":2862,"Ġservices":2863,"nÃ©es":2864,"ĠvallÃ©e":2865,"Ġoccup":2866,"ĠThÃ©":2867,"ĠrÃ©alisÃ©":2868,"ity":2869,"ĠpremiÃ¨res":2870,"Ġnouvelles":2871,"orth":2872,"Ã«l":2873,"ĠrÃ©un":2874,"organis":2875,"ives":2876,"Ġseule":2877,"Jean":2878,"uy":2879,"ĠCour":2880,"Ġcy":2881,"Ġprincipalement":2882,"ĠTe":2883,"avid":2884,"ĠmarquÃ©e":2885,"Ġphilos":2886,"Ġclimats":2887,"ĠDel":2888,"prise":2889,"ades":2890,"ĠCap":2891,"Sur":2892,"Ġdra":2893,"Ġ1993":2894,"tta":2895,"Ġprofessionn":2896,"ĠmÃ©tÃ©":2897,"195":2898,"ĠdÃ©taill":2899,"ĠBo":2900,"ĠmÃ¨re":2901,"ĠJose":2902,"ĠintÃ©g":2903,"Ġ1988":2904,"Ġnaturels":2905,"agement":2906,"Ã©rit":2907,"Ġ183":2908,"Ġfab":2909,"Ġseconde":2910,"ĠSi":2911,"ublic":2912,"omÃ©t":2913,"ĠConseil":2914,"ĠLond":2915,"ĠdÃ©rou":2916,"Ã¢ge":2917,"Ġconsac":2918,"ĠMi":2919,"ĠÃ©d":2920,"Ġliste":2921,"Ġdisc":2922,"Ġobten":2923,"aite":2924,"ĠdÃ©velopp":2925,"Ġterres":2926,"ĠmÃ©d":2927,"ares":2928,"rastructures":2929,"ĠCo":2930,"ailles":2931,"rÃ©es":2932,"ĠRh":2933,"ume":2934,"enf":2935,"Ġmesure":2936,"roup":2937,"ribution":2938,"ĠÃ©conomique":2939,"Ġsucces":2940,"Ġve":2941,"Ġdemande":2942,"raine":2943,"Ġmain":2944,"quant":2945,"bres":2946,"ereur":2947,"onneur":2948,"ost":2949,"Ã©dition":2950,"ĠrÃ©partition":2951,"cons":2952,"oupes":2953,"jets":2954,"Ã©cole":2955,"ĠCal":2956,"ĠnÃ©g":2957,"arc":2958,"ĠMo":2959,"Ġrencontre":2960,"ĠCanada":2961,"Ġtota":2962,"ĠÃ©tudi":2963,"oile":2964,"Ġtrouv":2965,"berg":2966,"orde":2967,"ĠRome":2968,"ĠproblÃ¨":2969,"empl":2970,"tÃ©es":2971,"vin":2972,"ĠEx":2973,"ingt":2974,"Ġadministration":2975,"eter":2976,"Ġconst":2977,"Ġdomin":2978,"Ġnaturel":2979,"Ġsource":2980,"ĠdonnÃ©":2981,"adÃ©mie":2982,"Ġessenti":2983,"Ġimportante":2984,"Ġpersonnage":2985,"ĠMad":2986,"PersonnalitÃ©s":2987,"gue":2988,"ĠÃ©qu":2989,"Ġdroite":2990,"tÃ¨re":2991,"ott":2992,"sitions":2993,"hum":2994,"over":2995,"ĠÅĵuvre":2996,"Ġmillions":2997,"olas":2998,"Ġtotal":2999,"Ġmulti":3000,"Empire":3001,"ĠEurope":3002,"Ġprincipales":3003,"Ġiniti":3004,"ĠmÃ©tÃ©or":3005,"Ġeu":3006,"Ġnaturelle":3007,"Ġ22":3008,"ĠBl":3009,"quis":3010,"Ġruis":3011,"ĠCro":3012,"ĠmÃ©dec":3013,"lÃ¨ve":3014,"IG":3015,"ĠLors":3016,"Ġmoment":3017,"Ad":3018,"ica":3019,"Ġremar":3020,"ĠmusÃ©e":3021,"Ġtent":3022,"Ġvictoire":3023,"ĠLu":3024,"Ġgrec":3025,"Ġmaire":3026,"alog":3027,"gique":3028,"âĢĵ":3029,"ĠLib":3030,"Ã©cur":3031,"nom":3032,"ĠfrÃ¨re":3033,"Ġ185":3034,"Ġterrain":3035,"Ġmarque":3036,"did":3037,"ministration":3038,"Ġrivi":3039,"Ġ?":3040,"Pro":3041,"ĠSan":3042,"ĠappelÃ©":3043,"Union":3044,"Ġmouvements":3045,"moins":3046,"ĠĊĠĊĠĊĠĊ":3047,"eth":3048,"Cl":3049,"ige":3050,"rige":3051,"ĠChampion":3052,"sements":3053,"Ġtrib":3054,"2000":3055,"tice":3056,"ĠWe":3057,"ger":3058,"less":3059,"ĠÃ©lÃ©":3060,"ĠFer":3061,"Ġeffectu":3062,"tex":3063,"Ġinfrastructures":3064,"ĠfÃ©d":3065,"Ġcela":3066,"ĠÃ©poque":3067,"ĠCependant":3068,"Ġserait":3069,"Ġtermin":3070,"itations":3071,"ĠAc":3072,"atta":3073,"ĠlÃ©gis":3074,"jor":3075,"retagne":3076,"Ġdivision":3077,"ĠnumÃ©ro":3078,"ĠcÃ©lÃ¨":3079,"ĠpropriÃ©tÃ©":3080,"Ġofficiel":3081,"Ġsortie":3082,"Ġphotos":3083,"Ġprincipal":3084,"ĠHaute":3085,"Ġquand":3086,"Ġfourn":3087,"Ġposition":3088,"ĠÃ©trang":3089,"rouve":3090,"Åĵuvres":3091,"Ġvoix":3092,"ĠChris":3093,"Ġchamp":3094,"Ġvic":3095,"Ġlorsque":3096,"Ġpossible":3097,"ouverture":3098,"Ġpu":3099,"ood":3100,"Ġrurale":3101,"ĠDavid":3102,"Ġretrouve":3103,"Liste":3104,"Ġnoir":3105,"Ġinv":3106,"red":3107,"ĠGra":3108,"homme":3109,"Ġfav":3110,"ĠÃ©m":3111,"ker":3112,"aix":3113,"Ġtroupes":3114,"ĠmÃ©c":3115,"Ġtoutefois":3116,"Topony":3117,"Ġespagn":3118,"ĠBro":3119,"Ã©tait":3120,"ĠVill":3121,"ĠJoseph":3122,"Ġvue":3123,"ĠAinsi":3124,"Ġconcern":3125,"Ġpied":3126,"ĠEl":3127,"Cette":3128,"ĠvidÃ©":3129,"22":3130,"ĠÃ©tablis":3131,"Ġci":3132,"ĠMaur":3133,"ĠintÃ©":3134,"Ġchois":3135,"bes":3136,"Ġ1989":3137,"yr":3138,"vant":3139,"Est":3140,"iÃ©e":3141,"illiam":3142,"jou":3143,"ĠÃ©pouse":3144,"Ġspor":3145,"ĠRuss":3146,"roupes":3147,"Lieux":3148,"Ġban":3149,"itiÃ©":3150,"ĠAng":3151,"Ġder":3152,"Ġsem":3153,"Ġmati":3154,"ĠVer":3155,"Ġ1960":3156,"ustr":3157,"uer":3158,"Ġitalien":3159,"Ġposte":3160,"Des":3161,"uri":3162,"Ġpeintre":3163,"ĠIII":3164,"Ġval":3165,"gne":3166,"ĠSer":3167,"ĠmÃ©th":3168,"Ġsuivant":3169,"193":3170,"Ġrelie":3171,"Ġchapelle":3172,"ĠAs":3173,"Ġchampionnat":3174,"Ġanti":3175,"luence":3176,"aug":3177,"sez":3178,"Ġarg":3179,"Ġappr":3180,"anmoins":3181,"veur":3182,"Ġtechnique":3183,"don":3184,"limat":3185,"21":3186,"alisme":3187,"ĠPlus":3188,"major":3189,"Ġiden":3190,"right":3191,"vre":3192,"stes":3193,"arrondissement":3194,"ark":3195,"Ġorient":3196,"Ġadap":3197,"ario":3198,"ĠreprÃ©sentations":3199,"Institut":3200,"Ġvaleur":3201,"ĠdÃ©cide":3202,"itement":3203,"ĠMac":3204,"ĠÃ©tat":3205,"CL":3206,"Ġpratique":3207,"ĠGeorges":3208,"Ġviv":3209,"Ex":3210,"Ġvoie":3211,"Ġvoir":3212,"landais":3213,"ĠinfÃ©r":3214,"Ġsuperficie":3215,"pons":3216,"mine":3217,"Ġbassin":3218,"Ġpont":3219,"inÃ©":3220,"trice":3221,"ĠBas":3222,"25":3223,"ĠscÃ©n":3224,"ĠdÃ©g":3225,"Ġhistoriques":3226,"ĠsupÃ©rieur":3227,"ĠindÃ©p":3228,"cles":3229,"ĠocÃ©":3230,"ĠCentre":3231,"2010":3232,"ĠcontrÃ´le":3233,"Ġplate":3234,"ĠJapon":3235,"Ġlatin":3236,"ney":3237,"Ġbande":3238,"PersonnalitÃ©":3239,"Ġsecteur":3240,"Ã©cu":3241,"ydrog":3242,"ĠNouvelle":3243,"aide":3244,"dÃ©":3245,"Ġlaiss":3246,"rive":3247,"Ġ23":3248,"ĠFranc":3249,"ĠClaude":3250,"cte":3251,"Ġnous":3252,"fort":3253,"ĠÃ©volu":3254,"pecta":3255,"ĠprÃ©cip":3256,"forme":3257,"termin":3258,"000":3259,"oque":3260,"ĠvÃ©":3261,"Ġtraditionn":3262,"Ġpsych":3263,"utes":3264,"esti":3265,"Ġlibre":3266,"Ġchemin":3267,"Ġremporte":3268,"ager":3269,"Ġconstruit":3270,"Ġ1982":3271,"Ġquartier":3272,"Ġgrille":3273,"ĠMartin":3274,"Ġoutre":3275,"ĠcomposÃ©":3276,"Ġobtient":3277,"ĠaÃ©riennes":3278,"ung":3279,"Ġ180":3280,"ĠBourg":3281,"ancienne":3282,"Ġcouronne":3283,"emb":3284,"ĠTur":3285,"illon":3286,"Con":3287,"ĠGi":3288,"Ġenreg":3289,"lect":3290,"Ġpropor":3291,"Ġinform":3292,"Ġrestaur":3293,"rÃ©al":3294,"ĠparticuliÃ¨rement":3295,"Ġpopulaire":3296,"esseur":3297,"Is":3298,"Ġjournal":3299,"Ã¨ce":3300,"ult":3301,"Ġsemble":3302,"ĠfaÃ§on":3303,"Ġlut":3304,"Ã©die":3305,"ensi":3306,"ĠGrande":3307,"aisse":3308,"pect":3309,"Ġdesc":3310,"Ġfilms":3311,"Urb":3312,"olf":3313,"chev":3314,"Ġbel":3315,"Ġarm":3316,"lir":3317,"Ġsymb":3318,"Ġeaux":3319,"Ġvend":3320,"ĠSite":3321,"Ġacteur":3322,"Ġfinalement":3323,"Ġcomprend":3324,"lections":3325,"Ġgroupes":3326,"Ġproduits":3327,"Ġindivi":3328,"ino":3329,"ky":3330,"Ġmaint":3331,"Ġroyaume":3332,"Ġruisseau":3333,"ides":3334,"Ġofficielle":3335,"ĠrÃ©fÃ©rence":3336,"Ġjeunes":3337,"ĠRÃ©volution":3338,"matique":3339,"Ġtri":3340,"Ġrespons":3341,"Ĥge":3342,"Ġvit":3343,"duis":3344,"Ġpermettant":3345,"Ġclasse":3346,"IGN":3347,"arde":3348,"1950":3349,"ambre":3350,"Ġcommunal":3351,"Ġple":3352,"Ġparties":3353,"anche":3354,"ĠrÃ©guli":3355,"rivÃ©e":3356,"ani":3357,"quÃ©e":3358,"ĠSta":3359,"Ġcheval":3360,"ĠÃ©lu":3361,"ĠWilliam":3362,"Ġassez":3363,"Ġprise":3364,"ĠAw":3365,"uil":3366,"istance":3367,"ĠCassin":3368,"ĠarrÃª":3369,"bil":3370,"Ġali":3371,"Typ":3372,"ĠgÃ©ographique":3373,"Ġparticipe":3374,"Ġ50":3375,"mond":3376,"Ġprotection":3377,"Ġvois":3378,"ura":3379,"Ġtels":3380,"23":3381,"ĠJeux":3382,"my":3383,"80":3384,"Ġpoursu":3385,"ĠMc":3386,"lication":3387,"40":3388,"Ġsurface":3389,"Ġpersonne":3390,"ĠcrÃ©Ã©e":3391,"Ġplac":3392,"Culture":3393,"Ġ(Â«":3394,"ĠsÃ©par":3395,"Ġjapon":3396,"Ġlanc":3397,"Ġsit":3398,"Ġsac":3399,"Ãīglise":3400,"Ġavaient":3401,"glom":3402,"ene":3403,"Ġpermis":3404,"Ġfaisant":3405,"Ġartis":3406,"omas":3407,"Ġdemi":3408,"60":3409,"orÃ©":3410,"Ġbl":3411,"Com":3412,"Ġvingt":3413,"ĠdÃ©pend":3414,"odi":3415,"da":3416,"itre":3417,"ĠCassini":3418,"Ġuti":3419,"Ġhors":3420,"Ġchanson":3421,"Ġdirige":3422,"ots":3423,"Ġfix":3424,"ĠrÃ©volution":3425,"Ġhab":3426,"Ġend":3427,"Ġdenses":3428,"ĠdÃ©taillÃ©e":3429,"Ã¨tre":3430,"uisse":3431,"Ġfusion":3432,"acitÃ©":3433,"ĠtÃ©lÃ©visÃ©e":3434,"ailleurs":3435,"ension":3436,"ault":3437,"Occupation":3438,"ĠrÃ©gionales":3439,"Ġsituation":3440,"Ġdroits":3441,"ĠChine":3442,"alisÃ©":3443,"ĠdÃ©part":3444,"Ġgl":3445,"ĠSociÃ©tÃ©":3446,"toine":3447,"Ġcapitale":3448,"je":3449,"Ġbon":3450,"Ġdispon":3451,"ĠToul":3452,"Ġlesque":3453,"Ġgare":3454,"ĠÃ®":3455,"Urbanisme":3456,"Ġprendre":3457,"Ġpetits":3458,"til":3459,"Ġconv":3460,"ĠBal":3461,"Ã©lection":3462,"Ã¨ge":3463,"Ġperd":3464,"of":3465,"Ġvoyage":3466,"Ġcit":3467,"Xe":3468,"ĠalÃ©":3469,"ĠLondres":3470,"Ġpil":3471,"ĠchaÃ®":3472,"chi":3473,"ĠreÃ§oit":3474,"Ġensemble":3475,"nements":3476,"Ġlongueur":3477,"ĠdÃ©fini":3478,"inte":3479,"ĠdÃ©tru":3480,"ĠMil":3481,"tempor":3482,"cal":3483,"Ġfaut":3484,"Ġgal":3485,"ĠWal":3486,"Ġvites":3487,"24":3488,"ĠPal":3489,"ĠDou":3490,"quet":3491,"Ġrouge":3492,"ĠactivitÃ©s":3493,"osc":3494,"anim":3495,"Ġnouveaux":3496,"antin":3497,"Ġpublique":3498,"oies":3499,"Ġ2021":3500,"ĠLoire":3501,"Ġcommerce":3502,"ĠutilisÃ©e":3503,"Ġ1986":3504,"Re":3505,"oÃ¯":3506,"ĠcompÃ©":3507,"Ã©curitÃ©":3508,"ates":3509,"ĠvidÃ©o":3510,"Ġinternationale":3511,"cent":3512,"ĠprotÃ©g":3513,"roit":3514,"Typologie":3515,"Ġpal":3516,"ting":3517,"ĠRÃ©g":3518,"rains":3519,"Ġlogements":3520,"ĠtÃ©lÃ©vision":3521,"ĠCover":3522,"ĠconsÃ©qu":3523,"Ġdirecteur":3524,"ĠSim":3525,"aie":3526,"Ġant":3527,"illers":3528,"Ġcaus":3529,"ĠtÃ©m":3530,"ĠentiÃ¨re":3531,"iblioth":3532,"ĠopÃ©ra":3533,"ĠbÃ©nÃ©":3534,"unis":3535,"Ã©rer":3536,"Toponymie":3537,"Ġlance":3538,"oient":3539,"onyme":3540,"appar":3541,"Ġmeurt":3542,"Ġcritique":3543,"ĠNotre":3544,"Ġven":3545,"ĠÃīditions":3546,"ĠRichard":3547,"Ġfranc":3548,"ĠĠĊ":3549,"anger":3550,"ĠBernard":3551,"Ġsitue":3552,"ĠChrist":3553,"ĠriviÃ¨re":3554,"Ġ21":3555,"Ġmanif":3556,"Ġcandid":3557,"Ġpens":3558,"bel":3559,"Ġdirig":3560,"ael":3561,"ulp":3562,"ĠCorine":3563,"ĠDeux":3564,"arm":3565,"ĠforÃªt":3566,"ĠSes":3567,"onie":3568,"Ġplut":3569,"ophysique":3570,"Ãªmes":3571,"1866":3572,"ata":3573,"Ġmontagne":3574,"honneur":3575,"ĠAndrÃ©":3576,"Ġdocument":3577,"Ġurbaine":3578,"Ġkil":3579,"Ġautom":3580,"ortÃ©":3581,"Ġtaille":3582,"Ġ27":3583,"Ġcampagne":3584,"ĠmodÃ¨le":3585,"col":3586,"intÃ©rÃªt":3587,"Ġhauteur":3588,"ainque":3589,"ĠdÃ©fense":3590,"Italie":3591,"Ġrecon":3592,"ĠSam":3593,"ĠMin":3594,"ĠÃ©lÃ©ments":3595,"ources":3596,"ricole":3597,"Ġformes":3598,"Ġratta":3599,"arts":3600,"1820":3601,"III":3602,"onnes":3603,"Ġscientifique":3604,"Ġcompagnie":3605,"ĠBelgique":3606,"Ġred":3607,"objet":3608,"semblÃ©e":3609,"Ġmaje":3610,"quÃªte":3611,"Ġsciences":3612,"ĠmÃ©m":3613,"ophie":3614,"ĠcitÃ©":3615,"ĠMoyen":3616,"ĠprÃ©cipitations":3617,"Ġemb":3618,"ĠAg":3619,"Ġorg":3620,"ash":3621,"ĠGre":3622,"ĠÅĵuvres":3623,"Ġtrou":3624,"alyse":3625,"chÃ©e":3626,"Åį":3627,"Ġbiophysique":3628,"onge":3629,"Ġpassage":3630,"ds":3631,"pt":3632,"ola":3633,"ĠPrÃ©":3634,"Ġforte":3635,"CLC":3636,"Ġnaissance":3637,"ĠÃ©ditions":3638,"Ã´tel":3639,"ks":3640,"Ġlac":3641,"issent":3642,"activitÃ©":3643,"ols":3644,"ĠtraitÃ©":3645,"ĠqualitÃ©":3646,"Ġlimitroph":3647,"ĠmÃ©tropole":3648,"ĠÃ©n":3649,"chet":3650,"ĠInter":3651,"ĠMontrÃ©al":3652,"ĠÃ©l":3653,"Ġ1987":3654,"Ġtransf":3655,"isÃ©":3656,"lacement":3657,"Ãªtes":3658,"ĠdÃ©mocra":3659,"ĠobservÃ©e":3660,"ĠGuill":3661,"Dame":3662,"ĠmarchÃ©":3663,"Ag":3664,"bon":3665,"ĠSelon":3666,"Ġcanadi":3667,"ĠocÃ©anique":3668,"omÃ©trie":3669,"Ġdyn":3670,"Allemagne":3671,"Ġ26":3672,"Ġsim":3673,"Ġcontempor":3674,"At":3675,"Ġ!":3676,"ĠLor":3677,"ĠchrÃ©":3678,"Ġdimin":3679,"ĠsÃ©lection":3680,"osse":3681,"Ġagricole":3682,"ĠpÃ©n":3683,"ĠRoyaume":3684,"ĠRec":3685,"ĠPort":3686,"Ã´te":3687,"Ġprincipaux":3688,"Ġannuelle":3689,"Ġadop":3690,"ĠAt":3691,"Ġprogramme":3692,"aisons":3693,"Ġreli":3694,"rot":3695,"ĠTerre":3696,"Ouest":3697,"Ġspecta":3698,"ĠfÃ©min":3699,"uste":3700,"cy":3701,"cepti":3702,"\",":3703,"Ãīconomie":3704,"ĠLyon":3705,"ĠÃĤge":3706,"atif":3707,"Espagne":3708,"ĠSav":3709,"Ġ().":3710,"Ġ1985":3711,"Ġsculp":3712,"rÃ©g":3713,"Me":3714,"riculture":3715,"ĠplutÃ´t":3716,"ival":3717,"run":3718,"Ġcharge":3719,"ĠVict":3720,"Ġaband":3721,"ĠrÃ©gions":3722,"Ġ28":3723,"ports":3724,"archite":3725,"ĠvÃ©g":3726,"nÃ©e":3727,"ĠBon":3728,"ĠbÃ¢timents":3729,"Ġdiffus":3730,"glomÃ©ration":3731,"Ġchac":3732,"Ġ1984":3733,"na":3734,"Ġmoderne":3735,"190":3736,"lÃ©g":3737,"Ġsources":3738,"Ġcav":3739,"Ġcommunication":3740,"Ġvra":3741,"Ġcomplex":3742,"Qu":3743,"ĠreprÃ©sente":3744,"Ġcatholique":3745,"Ġlieux":3746,"ulÃ©":3747,"Ġsimple":3748,"dien":3749,"oueur":3750,"Ġmettre":3751,"Ġbourg":3752,"yrÃ©":3753,"ĠBour":3754,"ĠBra":3755,"entin":3756,"ĠCons":3757,"Ġlangues":3758,"ĠComp":3759,"Ġmassi":3760,"Ġaccord":3761,"Ġmarch":3762,"ĠapparaÃ®t":3763,"Ġcommenc":3764,"ertes":3765,"onnÃ©":3766,"Ġjoueurs":3767,"26":3768,"Ġdemand":3769,"cit":3770,"ĠCam":3771,"Ġfinan":3772,"Ã©dÃ©":3773,"ĠauprÃ¨s":3774,"Ġannonce":3775,"dy":3776,"Ġ100":3777,"Ġjeux":3778,"ĠmoitiÃ©":3779,"fique":3780,"ommages":3781,"Lors":3782,"men":3783,"Ġvient":3784,"Ã¨les":3785,"27":3786,"avec":3787,"entrÃ©e":3788,"habit":3789,"irie":3790,"Ġchin":3791,"Ġconsomm":3792,"Ph":3793,"Ġstra":3794,"Ġtexte":3795,"hic":3796,"Ġfron":3797,"rat":3798,"Ġ),":3799,"ĠSeconde":3800,"Ġcentrale":3801,"rir":3802,"avoir":3803,"ieuse":3804,"ĠEsp":3805,"ses":3806,"tim":3807,"Ġchangement":3808,"ĠmajoritÃ©":3809,"Ġproxim":3810,"Ġcer":3811,"aste":3812,"AcadÃ©mie":3813,"reux":3814,"Ġsuscepti":3815,"Ġconditions":3816,"ĠSeine":3817,"ĠGl":3818,"Ġcircons":3819,"Ġtypologie":3820,"Ġchan":3821,"Ġprim":3822,"Ġmultip":3823,"The":3824,"agÃ©":3825,"Ġinstitu":3826,"ydrograph":3827,"29":3828,"Ġstructure":3829,"iries":3830,"oti":3831,"Ġatteint":3832,"pital":3833,"ĠcomtÃ©":3834,"ĠphÃ©n":3835,"Ġvolont":3836,"ophe":3837,"Ġdouble":3838,"ĠdÃ©termin":3839,"ĠhÃ©tÃ©":3840,"Ġmeilleure":3841,"Ġcommande":3842,"ĠCommun":3843,"Ġdipl":3844,"Angleterre":3845,"Ġkilom":3846,"Ġ1983":3847,"Selon":3848,"ĠdÃ©clar":3849,"assement":3850,"89":3851,"iche":3852,"Ġlignes":3853,"oule":3854,"Ġbes":3855,"AS":3856,".)":3857,"ĠAlexand":3858,"we":3859,"ĠMag":3860,"Ġ2022":3861,"Louis":3862,"jectif":3863,"FF":3864,"ĠproximitÃ©":3865,"ĠÃ©tude":3866,"ventaire":3867,"Ġalli":3868,"olue":3869,"Ġradio":3870,"roy":3871,"tisme":3872,"Ġblanc":3873,"Ġaire":3874,"Ġvitesse":3875,"Ġpersonnages":3876,"ĠrÃ©sultats":3877,"Ġnor":3878,"log":3879,"Ãªche":3880,"Ġminist":3881,"Ġessentiellement":3882,"Ġcartographiques":3883,"dessus":3884,"ulation":3885,"Ġprince":3886,"Ġmorts":3887,"oign":3888,"oni":3889,"Ġsomm":3890,"ĠDire":3891,"ĠÃ©cologique":3892,"illy":3893,"Ġcontinu":3894,"lent":3895,"Ass":3896,"Ġmas":3897,"ĠDepuis":3898,"ĠmalgrÃ©":3899,"Ġregroup":3900,"Ġentreprises":3901,"Ġlimite":3902,"28":3903,"ducation":3904,"Avec":3905,"entiel":3906,"Ġnuit":3907,"ĠFranÃ§ais":3908,"ĠAut":3909,"Ġautor":3910,"ĠTer":3911,"ren":3912,"Ġoccident":3913,"Ġsocial":3914,"Ġsalle":3915,"riques":3916,"ranche":3917,"ĠdÃ©crit":3918,"Ã¤":3919,"ĠChamp":3920,"ĠNation":3921,"Ġaccep":3922,"ĠpropriÃ©ta":3923,"tudi":3924,"Ġinscrit":3925,"ĠSar":3926,"ĠdÃ©cor":3927,"abbaye":3928,"Ġarchite":3929,"189":3930,"Marie":3931,"seur":3932,"ĠSy":3933,"tug":3934,"Ġanciens":3935,"vie":3936,"range":3937,"ĠexpÃ©ri":3938,"cteurs":3939,"ĠrÃ©alisÃ©e":3940,"ĠpassÃ©":3941,"Ġpri":3942,"Ãīv":3943,"ope":3944,"Ġillus":3945,"70":3946,"rick":3947,"ĠSuisse":3948,"ologne":3949,"occasion":3950,"Ġdoivent":3951,"Ġparoisse":3952,"Ã§ant":3953,"Ġsex":3954,"ĠJames":3955,"Ġaucun":3956,"Ġtotale":3957,"guer":3958,"Ġprincipale":3959,"za":3960,"ĠVi":3961,"ack":3962,"ĠmÃ¨tres":3963,"Ġvaleurs":3964,"ĠLuc":3965,"ĠStra":3966,"Ġ1950":3967,"Ġrusse":3968,".-":3969,"Ġferm":3970,"ĠpiÃ¨ces":3971,"ĠDis":3972,"Ġforce":3973,"Ġrespec":3974,"Ġforces":3975,"ĠDon":3976,"ronique":3977,"Ġsold":3978,"ĠVille":3979,"Ġcollabor":3980,"ueil":3981,"Depuis":3982,"Ġmonument":3983,"Ġcondam":3984,"duire":3985,"Ġtitres":3986,"Ġterrains":3987,"ĠcÃ©rÃ©":3988,"ĠÂ»)":3989,"Ġenc":3990,"Ġpot":3991,"argent":3992,"ĠThomas":3993,"rise":3994,"ainqueur":3995,"Ġmaxim":3996,"ĠMa":3997,"ĠcÃ©lÃ¨bre":3998,"gÃ©n":3999,"Ġterritori":4000,"Ġpierre":4001,"ĠDÃ©":4002,"Uni":4003,"Ġense":4004,"ĠPont":4005,"Ġnot":4006,"aritÃ©":4007,"ĠLigue":4008,"Ġlorsqu":4009,"Ġgestion":4010,"Ġderniers":4011,"Ġfit":4012,"actu":4013,"Ġliber":4014,"Ġproportion":4015,"ĠÃīglise":4016,"Ġpoly":4017,"orisÃ©e":4018,"Ġsujet":4019,"Ġstatut":4020,"tific":4021,"Se":4022,"urÃ©e":4023,"Ġemploy":4024,"ĠTrois":4025,"del":4026,"Ġfisc":4027,"Ġpub":4028,"Ãīcole":4029,"ĠRos":4030,"Ġ%,":4031,"Ġto":4032,"ĠrÃ¨gne":4033,"Ġnoms":4034,"espace":4035,"abilitÃ©":4036,"ĠXI":4037,"Ġhistoire":4038,"Ã©sie":4039,"Ġmode":4040,"Ġinstru":4041,"Ġexploit":4042,"Ġrendre":4043,"Ġalle":4044,"ĠNicolas":4045,"Ġpossi":4046,"tistes":4047,"Ġtechniques":4048,"ld":4049,"Ġpap":4050,"Ġdispose":4051,"ĠFre":4052,"Ġdiffic":4053,"ĠRussie":4054,"ĠcÅĵur":4055,"ĠChÃ¢teau":4056,"Ġ40":4057,"alise":4058,"Ġclassique":4059,"oug":4060,"Ġextra":4061,"Ġ29":4062,"ama":4063,"Ġ+":4064,"Ġir":4065,"-),":4066,"ĠÃ©lector":4067,"ĠRog":4068,"ĠsÃ©curitÃ©":4069,"ĠBri":4070,"mph":4071,"ĠPremiÃ¨re":4072,"Ġheures":4073,"viennent":4074,"ĠBu":4075,"Ġpresque":4076,"ĠÃ©pisode":4077,"ĠClub":4078,"Ġimportants":4079,"cÃ©":4080,"ĠPor":4081,"ĠsantÃ©":4082,"Ġhame":4083,"table":4084,"athÃ©m":4085,"Ġcime":4086,"ĠdÃ©cision":4087,"ĠAug":4088,"Ġpropose":4089,"Ġ1973":4090,"Joueur":4091,"ariste":4092,"Ġcollection":4093,"ty":4094,"trÃ©":4095,"ĠfrÃ©qu":4096,"Ġapparten":4097,"yrÃ©nÃ©es":4098,"bus":4099,"Ġgros":4100,"Ġmission":4101,"Ġcouleur":4102,"ĠAvec":4103,"Ġmieux":4104,"Ġphysique":4105,"ologue":4106,"Ġfro":4107,"Ġquestion":4108,"Ġlettres":4109,"Ġbless":4110,"Ġpluvi":4111,"Ġ1978":4112,"Ġcompar":4113,"ĠMat":4114,"Ġ1975":4115,"ĠMer":4116,"ĠBlan":4117,"positions":4118,"Ġchasse":4119,"exist":4120,"Ġparticipation":4121,"ĠMax":4122,"ĠGeorge":4123,"ĠMÃ©tÃ©":4124,"ĠrÃ©gime":4125,"ĠthÃ©orie":4126,"Ġmariage":4127,"ĠCa":4128,"ĠKe":4129,"Ġ1968":4130,"ĠNap":4131,"ury":4132,"ĠvÃ©gÃ©t":4133,"este":4134,"ĠhÃ©tÃ©rog":4135,"riÃ¨me":4136,"Ġactrice":4137,"ĠcomplÃ¨":4138,"Ġinstall":4139,"Ġhaute":4140,"ĠGau":4141,"Ġcroiss":4142,"oble":4143,"ĠJu":4144,"ĠvÃ©hic":4145,"enis":4146,"Ġsemi":4147,"car":4148,"empereur":4149,"Ġexist":4150,"Ġtransform":4151,"ĠEm":4152,"ĠPo":4153,"ĠappelÃ©e":4154,"ĠinterprÃ©":4155,"Ġaffir":4156,"tiqu":4157,"ĠKar":4158,"ĠLang":4159,"Ġdevenu":4160,"adie":4161,"ortent":4162,"aune":4163,"por":4164,"und":4165,"Ġprofesseur":4166,"unesse":4167,"lÃ¨ge":4168,"ĠCent":4169,"Ġ1979":4170,"ĠpiÃ¨ce":4171,"Ġallemande":4172,"exploit":4173,"ĠFC":4174,"Ġ1976":4175,"ĠlÃł":4176,"Ġarriv":4177,"Ġgaz":4178,"Ġmilieux":4179,"ĠFont":4180,"ĠRay":4181,"Ġrefus":4182,"Ġall":4183,"Ġpresse":4184,"Ġolympiques":4185,"Ġ1977":4186,"ĠMÃ©tÃ©o":4187,"orts":4188,"ĠHistoire":4189,"arer":4190,"ĠfondÃ©e":4191,"ibliothÃ¨que":4192,"Ġcircul":4193,"Ġmaisons":4194,"Afrique":4195,"Ġmilitaires":4196,"Ġconcep":4197,"Ġlois":4198,"erse":4199,"Ġconfir":4200,"opÃ©ration":4201,"com":4202,"prit":4203,"Ġtransports":4204,"Ab":4205,"ĠNorm":4206,"ĠVol":4207,"ĠmÃ©tÃ©orologique":4208,"axe":4209,"ĠkilomÃ¨tres":4210,"Ris":4211,"Bas":4212,"osph":4213,"mÃ©di":4214,"aci":4215,"Aire":4216,"ĠfranÃ§aises":4217,"ĠJuli":4218,"mann":4219,"duite":4220,"Ġattribu":4221,"Ġsang":4222,"Entre":4223,"And":4224,"Ġtableau":4225,"cel":4226,"ĠprÃª":4227,"ĠAss":4228,"istorique":4229,"pin":4230,"ĠChap":4231,"ĠLo":4232,"Ġ1974":4233,"ĠvÃ©rit":4234,"Gar":4235,"ester":4236,"ĠGuillaume":4237,"oÃ¹":4238,"aissent":4239,"ĠrÃ©serv":4240,"atrice":4241,"ĠnÃ©anmoins":4242,"ugby":4243,"ĠÃ©dition":4244,"Ã©nagement":4245,"ĠmaÃ®tre":4246,"ĠhÃ©tÃ©rogÃ¨nes":4247,"Ġ1972":4248,"lieu":4249,"rict":4250,"ĠeuropÃ©en":4251,"andes":4252,"Ġanciennes":4253,"organisation":4254,"Ġdevenir":4255,"ray":4256,"Ġreligieux":4257,"Ġaires":4258,"Ġindividu":4259,"sh":4260,"ĠVictor":4261,"rÃ©d":4262,"Ġenfin":4263,"Ġmand":4264,"ĠGuy":4265,"Ġdommages":4266,"Ġfonctions":4267,"dou":4268,"ĠMaurice":4269,"ĠFl":4270,"Ġi":4271,"Ġprobablement":4272,"rement":4273,"Ġmontre":4274,"nent":4275,"estations":4276,"cule":4277,"Ġaucune":4278,"Ġcertain":4279,"icier":4280,"Ġsavoir":4281,"ary":4282,"Ġconsul":4283,"environ":4284,"Ġinspi":4285,"ĠAir":4286,"ĠVan":4287,"autes":4288,"Ġsociale":4289,"Ġriv":4290,"Ġamb":4291,"Autres":4292,"balle":4293,"ament":4294,"sident":4295,"agnes":4296,"Ã©rant":4297,"Ġrejoint":4298,"ciÃ¨re":4299,"ĠAlbert":4300,"Ġconstitue":4301,"Ġfigure":4302,"ĠMet":4303,"ĠConst":4304,"Ġurbanis":4305,"Ġmodif":4306,"Ġras":4307,"Ġintit":4308,"ĠphÃ©nom":4309,"ĠcimetiÃ¨re":4310,"Ġdeme":4311,"roduction":4312,"ĠbÃ¢timent":4313,"intÃ©rieur":4314,"Ġcourant":4315,"Ã©rÃ©e":4316,"atis":4317,"Ġsites":4318,"Ġru":4319,"Ġsovi":4320,"ĠRenÃ©":4321,"Ġpartis":4322,"Ġcode":4323,"ĠLi":4324,"urr":4325,"sis":4326,"Ġpermettent":4327,"uration":4328,"ight":4329,"ĠTrans":4330,"tell":4331,"riche":4332,"texte":4333,"yra":4334,"Ã©tend":4335,"Ġami":4336,"Ġtextes":4337,"ĠPi":4338,"Ġchiff":4339,"NI":4340,"oyer":4341,"tig":4342,"rient":4343,"ĠDieu":4344,"ĠsupÃ©rieure":4345,"35":4346,"ĠPas":4347,"Ġmi":4348,"ĠCert":4349,"Ġreti":4350,"Ġcirconscription":4351,"ĠfondÃ©":4352,"Ġsouten":4353,"sivement":4354,"Ġarables":4355,"her":4356,"verse":4357,"ena":4358,"appel":4359,"tian":4360,"ĠsÃ©cher":4361,"Ġlyc":4362,"Ġguit":4363,"Ġaliment":4364,"Ã©bÃ©c":4365,"ES":4366,"ĠdÃ©ch":4367,"ĠBretagne":4368,"ĠchaÃ®ne":4369,"Ġcla":4370,"Ġpeuple":4371,"Ġcourse":4372,"ureau":4373,"Ġmunicipal":4374,"uclÃ©":4375,"Ġdel":4376,"utilisation":4377,"Ġprincipe":4378,"tements":4379,"Ġsuit":4380,"riture":4381,"ĠthÃ©or":4382,"ombre":4383,"Ġcli":4384,"iser":4385,"Ġretrait":4386,"Ġchant":4387,"Ġminutes":4388,"ommÃ©":4389,"Ġrelations":4390,"Ġrais":4391,"ĠrÃ©gional":4392,"Ġtermine":4393,"ĠCont":4394,"Ġimpos":4395,"Ġbelge":4396,"tiÃ¨res":4397,"rÃ©sil":4398,"Ġprairies":4399,"ĠSou":4400,"ĠMÃ©d":4401,"opulation":4402,"85":4403,"Ġdirectement":4404,"Ġinond":4405,"Ġbal":4406,"ĠÃ©crivain":4407,"Paul":4408,"Ġpron":4409,"issant":4410,"dier":4411,"ĠPrin":4412,"Ġdispos":4413,"indi":4414,"ĠMichael":4415,"azz":4416,"Ġpuissance":4417,"endu":4418,"industrie":4419,"75":4420,"ĠlittÃ©rature":4421,"Ġgagn":4422,"ination":4423,"trÃªme":4424,"Ġpublie":4425,"Ġdite":4426,"ĠcaractÃ¨re":4427,"Ġdiverses":4428,"ĠWh":4429,"ĠmathÃ©m":4430,"Ġrang":4431,"ÅĴ":4432,"oncÃ©":4433,"ĠÃ©glise":4434,"Ġcommunau":4435,"Ġpourrait":4436,"Ġchoix":4437,"limin":4438,"oÃ®":4439,"Ġrac":4440,"orb":4441,"Son":4442,"ĠFestival":4443,"Ġintercommun":4444,"ĠconstituÃ©":4445,"onique":4446,"iÃ©s":4447,"entielle":4448,"uk":4449,"rÃ©taire":4450,"Ġconnue":4451,"Ġrisques":4452,"Ġpaix":4453,"ĠpluviomÃ©trie":4454,"anes":4455,"Ġguer":4456,"ĠlÃ©gisla":4457,"Ġaccompagn":4458,"chant":4459,"ĠCong":4460,"itaine":4461,"Ġconstruite":4462,"ague":4463,"Commun":4464,"administration":4465,"Ġprogres":4466,"ĠJack":4467,"Ġble":4468,"Ġproven":4469,"heim":4470,"bor":4471,"ĠToulouse":4472,"Th":4473,"ĠmatiÃ¨re":4474,"Ġtel":4475,"Ġlimitrophes":4476,"itz":4477,"ĠcomplÃ©":4478,"ather":4479,"ĠreprÃ©sentant":4480,"Ġreconstru":4481,"atre":4482,"Ġappro":4483,"Ġromaine":4484,"Ġdonner":4485,"ala":4486,"Ġclassification":4487,"ico":4488,"Ġoblig":4489,"Ġmic":4490,"luent":4491,"Ġvir":4492,"ĠBat":4493,"Ġlivres":4494,"Sa":4495,"ĠrÃ©alisateur":4496,"ĠElles":4497,"ĠsÃ©cheresse":4498,"Ġvo":4499,"ibles":4500,"Ġtradition":4501,"oulin":4502,"clus":4503,"ĠactivitÃ©":4504,"UniversitÃ©":4505,"Ġaffec":4506,"Ã©lect":4507,"Ġsoutien":4508,"Ġpape":4509,"tein":4510,"Ġ1940":4511,"Ġmatchs":4512,"itation":4513,"Ġ1967":4514,"ĠMusÃ©e":4515,"Ġlongtemps":4516,"Ġcinqu":4517,"Ġsignifie":4518,"balleur":4519,"Ã¨tes":4520,"gyp":4521,"uments":4522,"Ã©tablis":4523,"ĠPremier":4524,"Annexes":4525,"ĠÃ©cole":4526,"Ġquitte":4527,"ĠFrancis":4528,"naire":4529,"Ġcroix":4530,"altitude":4531,"Ã©rable":4532,"reuve":4533,"Ġscience":4534,"AC":4535,"ĠAllemagne":4536,"ĠprÃ©voit":4537,"Ã©ros":4538,"ĠtempÃ©ratures":4539,"iant":4540,"Ġroyale":4541,"blement":4542,"urer":4543,"entreprise":4544,"Ġlargement":4545,"ĠprÃ©par":4546,"gÃ©e":4547,"Ġquant":4548,"ĠLÃ©g":4549,"FranÃ§ois":4550,"orer":4551,"Ġcivil":4552,"auss":4553,"Ġsigne":4554,"Pat":4555,"Ġappartient":4556,"Ã©tro":4557,"auts":4558,"ĠSm":4559,"Ġdisponible":4560,"iterran":4561,"Ġreprend":4562,"miques":4563,"ĠmatÃ©ri":4564,"atives":4565,"seaux":4566,"Ġreprises":4567,"48":4568,"Ã©nergie":4569,"ĠIV":4570,"Ġjuge":4571,"bi":4572,"Ġtraitement":4573,"ĠBre":4574,"va":4575,"Ġ1969":4576,"Ġvon":4577,"AN":4578,"irs":4579,"ĠNÃ©":4580,"Loire":4581,"umes":4582,"ĠquÃ©bÃ©c":4583,"Ġculturel":4584,"ĠespÃ¨ce":4585,"main":4586,"Ġsyndic":4587,"astroph":4588,"Ġmur":4589,"Ġrelativement":4590,"Ġmine":4591,"itant":4592,"Ġx":4593,"Ġjaponais":4594,"elli":4595,"Ġclassement":4596,"Ġcontinue":4597,"Ã©roport":4598,"ĠÃ®les":4599,"Ġcomporte":4600,"ĠVers":4601,"unitÃ©":4602,"Ġpasser":4603,"Ġutilise":4604,"oiseau":4605,"Ġloin":4606,"Ġpublics":4607,"key":4608,"bo":4609,"ĠTou":4610,"Ġscol":4611,"ĠtournÃ©e":4612,"ko":4613,"ĠdÃ©cla":4614,"arie":4615,"ĠÃ©vÃ©":4616,"ommage":4617,"Ã©tude":4618,"Mont":4619,"ĠnÃ©cessaire":4620,"Climat":4621,"hiver":4622,"euve":4623,"ĠÃ©lÃ©ment":4624,"astique":4625,"ĠcatÃ©gorisÃ©e":4626,"ER":4627,"Ġvu":4628,"Ġconcent":4629,"36":4630,"ĠTor":4631,"ĠBert":4632,"Ã©dÃ©ration":4633,"İle":4634,"ĠcÃ´tÃ©s":4635,"arque":4636,"ft":4637,"Ġbour":4638,"umb":4639,"Ġsing":4640,"ĠMay":4641,"Ġcentral":4642,"phe":4643,"ĠquatriÃ¨me":4644,"Ġmaires":4645,"Ġcherche":4646,"arrivÃ©e":4647,"Ġ60":4648,"onf":4649,"unal":4650,"ĠconnaÃ®t":4651,"ousse":4652,"Ġpolice":4653,"Ġstade":4654,"ĠÃ©quipes":4655,"Ġsouver":4656,"ita":4657,"Ġbasse":4658,"isÃ©e":4659,"environnement":4660,"tiens":4661,"Risques":4662,"Ġcontraire":4663,"Ġcalcul":4664,"idÃ©e":4665,"ĠcompÃ©tition":4666,"ĠdÃ©cid":4667,"90":4668,"cessus":4669,"enseignement":4670,"ago":4671,"oupage":4672,"ĠdÃ©signe":4673,"Ġremarqu":4674,"onse":4675,"Ã©z":4676,"sbourg":4677,"Ġprotest":4678,"fric":4679,"Ġbomb":4680,"Ġsection":4681,"oleil":4682,"Ġpalais":4683,"SS":4684,"Ã©raldique":4685,"ĠItalie":4686,"Ġgrav":4687,"yg":4688,"olÃ©on":4689,"Ġsauv":4690,"ĠCet":4691,"Ġsuisse":4692,"ĠnÃ©e":4693,"Ġbonne":4694,"orter":4695,"ĠGab":4696,"mor":4697,"ĠOu":4698,"alisÃ©e":4699,"ĠderniÃ¨res":4700,"sier":4701,"Ġsimplement":4702,"ave":4703,"nov":4704,"rac":4705,"Martin":4706,"ĠÃ©volue":4707,"ĠnuclÃ©":4708,"Ġsouh":4709,"ĠcrÃ©er":4710,"Ġhyp":4711,"Ġcrise":4712,"iennes":4713,"Ġdoute":4714,"Ġnos":4715,"ĠHug":4716,"ĠAntoine":4717,"utÃ©s":4718,"ĠMaison":4719,"Ġtrouver":4720,"Ġvillages":4721,"ĠAnne":4722,"ĠdÃ©putÃ©":4723,"ye":4724,"Ġvia":4725,"Ġvisite":4726,"Ã©val":4727,"Ġcompris":4728,"Ġmondial":4729,"ĠPol":4730,"Ġparam":4731,"33":4732,"Ġauteur":4733,"Ġfront":4734,"oirs":4735,"Ġquelque":4736,"ĠcomposÃ©e":4737,"inaire":4738,"Ġexc":4739,"Ġcontinent":4740,"ington":4741,"Ġrive":4742,"Ġcourt":4743,"Ġchante":4744,"uxelles":4745,"Ġmach":4746,"igu":4747,"Ġhom":4748,"ube":4749,"ĠappelÃ©s":4750,"ĠDaniel":4751,"tention":4752,"ĠcapacitÃ©":4753,"Ġnormale":4754,"ĠdurÃ©e":4755,"ĠLim":4756,"Ġenvoy":4757,"igny":4758,"ĠBul":4759,"Ġreb":4760,"till":4761,"Ġconnaissance":4762,"ĠMel":4763,"dia":4764,"ĠmatÃ©rie":4765,"Ġperman":4766,"rire":4767,"ings":4768,"tionnaire":4769,"Ġfle":4770,"ĠrÃ©pond":4771,"Ġcam":4772,"ĠSol":4773,"aves":4774,"ĠmÃ©moire":4775,"65":4776,"ographe":4777,"ĠstratÃ©g":4778,"ĠHam":4779,"umiÃ¨re":4780,"ĠOc":4781,"Ġcatastroph":4782,"Ġquoti":4783,"ford":4784,"Ġsuivi":4785,"ondation":4786,"ĠCrÃ©":4787,"Ġpassant":4788,"ĠutilisÃ©s":4789,"ĠBien":4790,"ĠMarcel":4791,"illÃ©":4792,"ctes":4793,"aure":4794,"ĠLÃ©on":4795,"Ġconstat":4796,"Ġcab":4797,"ĠinfÃ©rieur":4798,"chestre":4799,"Ġ%.":4800,"45":4801,"ĠRoger":4802,"itt":4803,"Ġauteurs":4804,"ĠproblÃ¨mes":4805,"ĠurbanisÃ©es":4806,"ultÃ©":4807,"ĠAngel":4808,"eb":4809,"Ġfru":4810,"ya":4811,"Ã©der":4812,"37":4813,"ĠMarse":4814,"Ġprocessus":4815,"Ġlocaux":4816,"Ġcapitaine":4817,"azine":4818,"ĠBois":4819,"ĠÃ©pisodes":4820,"ĠMeille":4821,"ĠWar":4822,"ĠVen":4823,"Loc":4824,"Ġcomment":4825,"ĊĠĊ":4826,"ider":4827,"Ġpian":4828,"Ġrelation":4829,"Ġ35":4830,"ĠTr":4831,"eries":4832,"67":4833,"ĠAwards":4834,"ĠEs":4835,"ĠÃ©quip":4836,"Ġintro":4837,"Ġgraph":4838,"ĠchargÃ©":4839,"Ġdevrait":4840,"ett":4841,"Mich":4842,"Ġvoire":4843,"ĠJus":4844,"lem":4845,"iale":4846,"endi":4847,"Ġ1962":4848,"Ġ1964":4849,"Ġterr":4850,"ĠGir":4851,"Ġseront":4852,"Ġcouleurs":4853,"ĠSant":4854,"88":4855,"Ġromain":4856,"Ġfamilles":4857,"\".":4858,"Ġperform":4859,"rass":4860,"ĠAll":4861,"Ġjouer":4862,"outefois":4863,"Ġprovo":4864,"ĠconÃ§":4865,"Ġchangements":4866,"dent":4867,"Ġprol":4868,"Ġfortes":4869,"Ġattest":4870,"Ġinaug":4871,"ĠPic":4872,"reuse":4873,"Ġ1930":4874,"ĠEst":4875,"Ġcontrat":4876,"ek":4877,"ski":4878,"Ġgerm":4879,"aptiste":4880,"Ġ1945":4881,"agriculture":4882,"tÃ¨res":4883,"Ġlettre":4884,"ory":4885,"ĠarrÃªtÃ©":4886,"ĠBru":4887,"ĠrÃ©uss":4888,"Ã©ries":4889,"Ġrenfor":4890,"ĠMur":4891,"ĠderriÃ¨re":4892,"install":4893,"van":4894,"icitÃ©":4895,"enses":4896,"amille":4897,"ĠBan":4898,"Ġemploi":4899,"Ġmoteur":4900,"77":4901,"ĠdÃ©couverte":4902,"Ġsoldats":4903,"enz":4904,"ĠLac":4905,"rovi":4906,"ordeaux":4907,"Char":4908,"Rh":4909,"rome":4910,"Ġabs":4911,"irent":4912,"Ġquanti":4913,"Population":4914,"Ġproches":4915,"Ġtelles":4916,"ga":4917,"lÃ©gu":4918,"Ġplateau":4919,"ĠdÃ©di":4920,"Ġcomptait":4921,"Ġmasse":4922,"Ġ1966":4923,"Ġfabric":4924,"ĠCamp":4925,"ores":4926,"51":4927,"ĠÃ©coles":4928,"alli":4929,"ĠTar":4930,"vence":4931,"obile":4932,"Ġcontribu":4933,"ĠMas":4934,"Ġphase":4935,"ĠBerlin":4936,"oman":4937,"ji":4938,"ny":4939,"ĠPeter":4940,"ĠBur":4941,"tudio":4942,"ensement":4943,"din":4944,"sÃ©rie":4945,"Ã©rard":4946,"ĠdessinÃ©e":4947,"Ġhui":4948,"ĠrÃ©giment":4949,"Communes":4950,"Ġnour":4951,"Ã®tre":4952,"Jac":4953,"lantique":4954,"Ġsouff":4955,"get":4956,"andie":4957,"Ġdesserv":4958,"ĠFrank":4959,"Ġbret":4960,"tÃ©rieure":4961,"Ġgarde":4962,"Ġretrouv":4963,"obles":4964,"Ġfortement":4965,"tionnel":4966,"Ġveut":4967,"riers":4968,"Ġeffets":4969,"ĠLou":4970,"itch":4971,"sons":4972,"Ã©conomie":4973,"ĠThÃ©Ã¢tre":4974,"ĠFe":4975,"ĠremplacÃ©":4976,"Ġsenti":4977,"Ġsert":4978,"exposition":4979,"can":4980,"Ġvoc":4981,"Ġfaisait":4982,"ctu":4983,"Ġ1965":4984,"ĠimpÃ©ri":4985,"usta":4986,"ĠVe":4987,"Ġfavor":4988,"Ġsensi":4989,"Ġsouter":4990,"ĠOli":4991,"agglomÃ©ration":4992,"gg":4993,"Ġordre":4994,"Ġphysi":4995,"Ġespaces":4996,"HÃ©raldique":4997,"igh":4998,"Ġpersonnel":4999,"Ġgard":5000,"nel":5001,"Ġcertaine":5002,"Ġjournaliste":5003,"Ġapproche":5004,"Ġchinois":5005,"Ġbiens":5006,"Ġconseillers":5007,"ciers":5008,"ĠÃ©tablie":5009,"Ġjui":5010,"sif":5011,"Ġminim":5012,"Ġneuf":5013,"gin":5014,"ĠdÃ©clare":5015,"Ġfant":5016,"Ġcompo":5017,"acteur":5018,"Ġlocal":5019,"Ġ31":5020,"Ġchansons":5021,"Ġfutur":5022,"Ġdoll":5023,"ĠWil":5024,"existence":5025,"Ġarrive":5026,"Ġchim":5027,"Ġclo":5028,"Ġdevait":5029,"ĠAlain":5030,"Ġbe":5031,"Ġtest":5032,"Ġquin":5033,"cer":5034,"Ġfu":5035,"ĠNor":5036,"Ġmairie":5037,"onnÃ©e":5038,"ĠsystÃ¨mes":5039,"ĠJÃ©r":5040,"Ġfaci":5041,"39":5042,"Ġdos":5043,"Ġ48":5044,"ĠFilm":5045,"58":5046,"Ġdiss":5047,"Ġpois":5048,"dis":5049,"Ġmol":5050,"64":5051,"titution":5052,"ĠCat":5053,"Ġmaladie":5054,"Ġlutte":5055,"lÃ©ans":5056,"Ġvoul":5057,"Ġreine":5058,"Ġmusical":5059,"Ġcompositeur":5060,"Ġobjets":5061,"ĠXXe":5062,"Ġnaturelles":5063,"gypte":5064,"ĠBruxelles":5065,"ĠarchÃ©":5066,"tru":5067,"Åĵurs":5068,"information":5069,"''":5070,"Ã©tiques":5071,"ĠrÃ©alitÃ©":5072,"Ġrugby":5073,"yrami":5074,"Ġdifficile":5075,"ĠsÃ©n":5076,"Ġcu":5077,"Ġrock":5078,"PS":5079,"Ġ1914":5080,"ister":5081,"Garonne":5082,"kin":5083,"Ġfou":5084,"inventaire":5085,"endra":5086,"Ġ80":5087,"Ġexplo":5088,"tionnelle":5089,"ĠAli":5090,"Ġcontient":5091,"dir":5092,"rime":5093,"Ã©drale":5094,"tal":5095,"fer":5096,"ĠfaÃ§":5097,"Ġsauf":5098,"Ġsuivantes":5099,"Ġcop":5100,"Ġbron":5101,"Ġparle":5102,"Ġmagn":5103,"Ġtraverse":5104,"Ġtermes":5105,"etÃ©":5106,"Äģ":5107,"ĠgÃ©nÃ©raux":5108,"ĠdÃ©riv":5109,"CI":5110,"ĠAnn":5111,"ĠproblÃ¨me":5112,"ĠpoÃ¨te":5113,"ĠBrun":5114,"do":5115,"Ġmajor":5116,"hors":5117,"Ġplantes":5118,"atherine":5119,"ĠSÃ©n":5120,"47":5121,"Ġchacun":5122,"Ġouvert":5123,"ĠPetit":5124,"Ang":5125,"Ġmots":5126,"ross":5127,"ĠsecrÃ©taire":5128,"Ġrien":5129,"ĠComme":5130,"Ġreconnue":5131,"ova":5132,"association":5133,"ĠmunicipalitÃ©":5134,"ceau":5135,"ustralie":5136,"ĠHol":5137,"ĠConc":5138,"har":5139,"tiennent":5140,"Ġpression":5141,"ban":5142,"ommÃ©e":5143,"Ġpouvant":5144,"auc":5145,"Ġinflu":5146,"Ġorth":5147,"ĠrÃ©alise":5148,"AmÃ©rique":5149,"ĠLar":5150,"Ã©sar":5151,"ĠsoviÃ©tique":5152,"Ġtient":5153,"ĠÃ©levÃ©":5154,"mise":5155,"ĠMarseille":5156,"ĠBay":5157,"Ġpetites":5158,"ĠJules":5159,"Ġidentique":5160,"orme":5161,"ĠlibertÃ©":5162,"Ġremont":5163,"Ġimportantes":5164,"ĠBourgogne":5165,"go":5166,"Ġfootballeur":5167,"orld":5168,"vaux":5169,"ĠÃ©limin":5170,"Ġdistribution":5171,"ĠcrÃ©e":5172,"ÅĴuv":5173,"Ġfestival":5174,"2020":5175,"ĠreÃ§u":5176,"Ġ%)":5177,"Mari":5178,"ĠCin":5179,"actifs":5180,"ĠbÃ©nÃ©f":5181,"55":5182,"Ġvice":5183,"Ġportant":5184,"lack":5185,"Ġbuts":5186,"emploi":5187,"Ġouvrage":5188,"Ġvul":5189,"Ġconduit":5190,"rÃ©dÃ©ric":5191,"Ġparlement":5192,"ĠrÃ©aliser":5193,"exploitation":5194,"Ã´pital":5195,"Ġolympique":5196,"aliser":5197,"incent":5198,"Ġsommet":5199,"Ġrecensement":5200,"Ġnouvel":5201,"ĠArt":5202,"GM":5203,"Orient":5204,"Ġspati":5205,"ĠformÃ©":5206,"34":5207,"Ġmentionn":5208,"Ġrevue":5209,"inet":5210,"ĠUnivers":5211,"Ġdistance":5212,"ĠPet":5213,"Ġrevient":5214,"Ġdiscip":5215,"Ġcellu":5216,"ius":5217,"ĠLong":5218,"SA":5219,"AssemblÃ©e":5220,"tiÃ¨me":5221,"rup":5222,"ĠcaractÃ©rise":5223,"Ġcritiques":5224,"ĠcÃ´te":5225,"ling":5226,"Ġvariations":5227,"Ãªt":5228,"ĠdÃ©cret":5229,"agu":5230,"Ġjustice":5231,"Ġjuri":5232,"Ġtrouvent":5233,"Ġoriginale":5234,"Ġespagnol":5235,"ĠdÃ©v":5236,"quie":5237,"cience":5238,"ĠNeu":5239,"Ġconflit":5240,"ĠvÃ©ritable":5241,"ĠNotes":5242,"otion":5243,"ĠfrontiÃ¨re":5244,"Ġlie":5245,"32":5246,"ĠCela":5247,"ĠrÃ©public":5248,"68":5249,"ĠprÃ©cis":5250,"Ġvin":5251,"31":5252,"Ġait":5253,"ĠMy":5254,"Ġray":5255,"Ġferrovi":5256,"Hen":5257,"Ġglob":5258,"opÃ©ra":5259,"lat":5260,"ĠGo":5261,"cia":5262,"ĠBerg":5263,"Ġeut":5264,"Ġphilosophie":5265,"Ġtours":5266,"Ġcanal":5267,"Ġmauv":5268,"Ġ1963":5269,"ĠrÃ©guliÃ¨rement":5270,"ize":5271,"ĠBordeaux":5272,"ĠCant":5273,"ĠMos":5274,"den":5275,"ĠGren":5276,"Ġferme":5277,"estation":5278,"istant":5279,"ĠEmp":5280,"Ã©lev":5281,"ĠindÃ©pend":5282,"ĠmÃ©thode":5283,"Ã©mission":5284,"Ã©tablir":5285,"Ġanimaux":5286,"84":5287,"ĠfrÃ¨res":5288,"Ġenregist":5289,"ĠKh":5290,"Jacques":5291,"Ġarmes":5292,"Inter":5293,"Ġdisque":5294,"cupe":5295,"Ġparis":5296,"78":5297,"Ġconcernant":5298,"icien":5299,"ĠPress":5300,"film":5301,"arre":5302,"imm":5303,"Ġadministrative":5304,"ĠSuper":5305,"Ġoffre":5306,"Ġofficiellement":5307,"cesse":5308,"ĠÃ©vÃªque":5309,"Ġ1944":5310,"Ġtre":5311,"PrÃ©":5312,"way":5313,"ket":5314,"Ġpages":5315,"Ġperdu":5316,"ĠcÃ©lÃ©":5317,"Ġ1958":5318,"76":5319,"ĠDirection":5320,"aptis":5321,"ĠdÃ©faite":5322,"ancer":5323,"amÃ©nagement":5324,"Ġchanteur":5325,"ragon":5326,"Ã©rÃ©s":5327,"Ġoccasion":5328,"Ġuniquement":5329,"Ġfroid":5330,"ĠlycÃ©e":5331,"geois":5332,"zz":5333,"ĠcontrÃ´":5334,"ĠChristian":5335,"ĠBi":5336,"59":5337,"ami":5338,"ĠdÃ©partementale":5339,"Ġvoies":5340,"Ã©pendance":5341,"times":5342,"71":5343,"Ġformer":5344,"Ġparents":5345,"ernes":5346,"heure":5347,"intÃ©g":5348,"die":5349,"ondes":5350,"44":5351,"rien":5352,"oids":5353,"Ġbout":5354,"Ġparf":5355,"ignon":5356,"omes":5357,"ĠGold":5358,"Ġsimil":5359,"Av":5360,"astie":5361,"Ã©rale":5362,"Ġriches":5363,"Ġconseiller":5364,"Historique":5365,"Ġhon":5366,"chement":5367,"uls":5368,"Ġfranch":5369,"pro":5370,"seignement":5371,"ĠalÃ©a":5372,"ĠfÃªte":5373,"tab":5374,"Ġoppos":5375,"Ġrecord":5376,"Ġ1920":5377,"Ġgouverneur":5378,"Ġsurv":5379,"tissement":5380,"ĠentiÃ¨rement":5381,"Ġargile":5382,"quÃ©s":5383,"ĠSil":5384,"Ġdollars":5385,"quin":5386,"Ġfleuve":5387,"ĠÃ©quival":5388,"ardi":5389,"Ġaction":5390,"ĠdÃ©signer":5391,"ĠministÃ¨re":5392,"ĠqualifiÃ©":5393,"Ġartistes":5394,"ĠAp":5395,"ĠCos":5396,"Ġsorte":5397,"49":5398,"Ġclimatiques":5399,"ĠFlor":5400,"Ġmarchand":5401,"Ġtraduit":5402,"ĠapprÃ©":5403,"38":5404,"Ġcoupe":5405,"ionn":5406,"Ġsch":5407,"ĠcompÃ©t":5408,"Ġbesoin":5409,"anth":5410,"ĠVienne":5411,"Ġlic":5412,"Ã³n":5413,"ĠBos":5414,"ĠBarb":5415,"mil":5416,"Ã©th":5417,"iction":5418,"ĠDomin":5419,"ĠHenry":5420,"Ġtribunal":5421,"ĠTre":5422,"Ġajou":5423,"Ġ1961":5424,"Ġcatastrophe":5425,"Cartes":5426,"Ġcra":5427,"ja":5428,"ĠprÃ©fec":5429,"anges":5430,"ĠNational":5431,"Ġprofit":5432,"Ġcorrespondent":5433,"Ġpopulations":5434,"hab":5435,"69":5436,"Ġfus":5437,"Ġalg":5438,"72":5439,"yme":5440,"iciens":5441,"ĠLet":5442,"ĠEt":5443,"ĠlumiÃ¨re":5444,"ĠArch":5445,"179":5446,"Ġfaveur":5447,"Ã©lÃ¨ve":5448,"Ġconstruire":5449,"ĠHer":5450,"iÃ¨ge":5451,"ĠimmÃ©di":5452,"cession":5453,"63":5454,"Ġclimatique":5455,"Ġproduire":5456,"Ġdatant":5457,"uts":5458,"Ġmesures":5459,"Ġquas":5460,"liers":5461,"peau":5462,"line":5463,"Ġcos":5464,"Ġtrain":5465,"Michel":5466,"Ġpuisque":5467,"Oise":5468,"Ġparall":5469,"Ġposi":5470,"ĠAlexandre":5471,"EP":5472,"Ġpermettre":5473,"Ġconten":5474,"ĠunitÃ©":5475,"Ġfonde":5476,"fred":5477,"telle":5478,"Ġorgan":5479,"Ġ1939":5480,"Ġcomplexe":5481,"Ġartistique":5482,"ieuses":5483,"Ġactuel":5484,"ali":5485,"ĠmÃ¢":5486,"ĠÃ©voluÃ©":5487,"Ã©chal":5488,"Ġculte":5489,"Es":5490,"62":5491,"Ġvont":5492,"ĠFab":5493,"Ġbate":5494,"ĠBÃ©":5495,"Ġmention":5496,"mission":5497,"ĠpÃ©riodes":5498,"Ã©ritÃ©":5499,"yz":5500,"ĠÃ©conomiques":5501,"accord":5502,"ref":5503,"Ġcoul":5504,"jon":5505,"ĠCamb":5506,"chÃ©s":5507,"Ġcivile":5508,"Ġarts":5509,"ĠTom":5510,"Ġdistrict":5511,"influence":5512,"alistes":5513,"87":5514,"ĠÃ©tablissements":5515,"Ġexpos":5516,"Ġidentif":5517,"ĠHong":5518,"ĠarmÃ©es":5519,"ĠÃ©lus":5520,"Ġautant":5521,"Ġchute":5522,"Ġrapide":5523,"Ġconcert":5524,"Ġfamili":5525,"FA":5526,"ĠGÃ©rard":5527,"Ġreligion":5528,"alogue":5529,"Ġ1959":5530,"Ġinondations":5531,"Ġcroissance":5532,"Ġjeunesse":5533,"accÃ¨s":5534,"ĠsÅĵur":5535,"ulÃ©e":5536,"ĠCarl":5537,"Ġpuisqu":5538,"Ġmoyens":5539,"Ġconsommation":5540,"Ġcycl":5541,"utenant":5542,"article":5543,"ĠNi":5544,"ouveau":5545,"Ġax":5546,"ĠWest":5547,"Ġtombe":5548,"ĠcaractÃ©ristiques":5549,"usage":5550,"\"|":5551,"uves":5552,"Ġnu":5553,"79":5554,"onnÃ©es":5555,"Ġappare":5556,"Ã»te":5557,"itime":5558,"Ġbureau":5559,"Ġpropres":5560,"ennis":5561,"ĠamÃ©li":5562,"ĠprivÃ©e":5563,"ĠrÃ©sultat":5564,"Ġfondateur":5565,"Baptiste":5566,"onnais":5567,"Ġpi":5568,"riel":5569,"mique":5570,"Ã©lo":5571,"43":5572,"venir":5573,"Ġclubs":5574,"61":5575,"amin":5576,"ĠPlan":5577,"dici":5578,"roix":5579,"Ġfondation":5580,"illa":5581,"Ġmassif":5582,"ora":5583,"ĠAfrique":5584,"Ġmess":5585,"rs":5586,"Ġactuellement":5587,"ĠOp":5588,"ĠJeanne":5589,"tur":5590,"Arg":5591,"Plus":5592,"ĠEntre":5593,"Ġtopony":5594,"ĠGÃ©n":5595,"Ġdiffusion":5596,"marÃ¨s":5597,"architecture":5598,"52":5599,"74":5600,"Ġassi":5601,"Ġbronze":5602,"gÃ©rie":5603,"Ville":5604,"VF":5605,"Ġsoient":5606,"lises":5607,"Ġressources":5608,"ĠRiv":5609,"Che":5610,"Ġlesquelles":5611,"86":5612,"Ġtor":5613,"EFF":5614,"Ġexcep":5615,"ĠAnton":5616,"Ġ2023":5617,"onflement":5618,"ĠÃ©lectrique":5619,"omie":5620,"own":5621,"kh":5622,"83":5623,"ritÃ©":5624,"Ġgall":5625,"ĠFrÃ©dÃ©ric":5626,"raient":5627,"ophone":5628,"Ã§a":5629,"Ġtit":5630,"ĠcollÃ¨ge":5631,"tt":5632,"Ġespace":5633,"wood":5634,"ĠRoche":5635,"mile":5636,"ĠNav":5637,"riÃ¨res":5638,"iels":5639,"ĠtÃ©moign":5640,"ĠmÃ©decin":5641,"Ã©ron":5642,"ĠLille":5643,"53":5644,"ĠdÃ»":5645,"Ġhumaine":5646,"Ġprofonde":5647,"NIEFF":5648,"rey":5649,"ĠparamÃ¨tres":5650,"42":5651,"Ġcollaboration":5652,"inv":5653,"Ġvictoires":5654,"Ġmanque":5655,"ĠCÃ©sar":5656,"Ã©si":5657,"ĠPatrick":5658,"oiseaux":5659,"Ġach":5660,"Ġmyth":5661,"lais":5662,"ĠToutefois":5663,"Ġmandat":5664,"analyse":5665,"82":5666,"Ġhyd":5667,"lÃ¨ves":5668,"Ġ1956":5669,"aris":5670,"AR":5671,"ĠsiÃ¨cles":5672,"anterie":5673,"Ġpeine":5674,"auff":5675,"ĠPhil":5676,"ydrographie":5677,"orient":5678,".),":5679,"54":5680,"Ġcouple":5681,"dont":5682,"Ġstand":5683,"ection":5684,"Ġaccueille":5685,"mation":5686,"ĠGui":5687,"Ġlogic":5688,"ĠjouÃ©":5689,"Ġenvironnement":5690,"avait":5691,"isode":5692,"Ġarticle":5693,"ĠmÃªmes":5694,"side":5695,"olte":5696,"ĠexÃ©c":5697,"ium":5698,"Ces":5699,"Ġincl":5700,"Ġdange":5701,"Ġbras":5702,"Ġcommuniste":5703,"Ġcanadien":5704,"Ġtravaille":5705,"ĠBR":5706,"Ġvent":5707,"Ġpauv":5708,"57":5709,"ocÃ¨se":5710,"ĠBob":5711,"Ġprojets":5712,"ĠrÃ©seaux":5713,"ĠlittÃ©raire":5714,"ĠVir":5715,"Ġrecherches":5716,"criptions":5717,"Ġscientifiques":5718,"Ġnobles":5719,"CF":5720,"ĠTim":5721,"Ġimplant":5722,"align":5723,"ĠMex":5724,"Ġcomportent":5725,"Ġpatron":5726,"chen":5727,"ĠParlement":5728,"Ġfid":5729,"ĠRadi":5730,"ĠpÃªche":5731,"Ġparvient":5732,"ainc":5733,"Ġdon":5734,"ications":5735,"Art":5736,"Ġargileux":5737,"Ġsemaines":5738,"vue":5739,"ĠÎ":5740,"Ġfour":5741,"ĠrÃ©alisation":5742,"Ġbloc":5743,"alys":5744,"Album":5745,"ĠBoul":5746,"Ġ70":5747,"Autriche":5748,"Ġdevenue":5749,"ĠcathÃ©drale":5750,"ĠrÃ©sistance":5751,"Ġast":5752,"Ġdanse":5753,"douard":5754,"ĠliÃ©":5755,"ĠBrÃ©sil":5756,"Ã©ti":5757,"ĠJourn":5758,"fr":5759,"ignant":5760,"ĠNormandie":5761,"oh":5762,"Gu":5763,"aliforn":5764,"acte":5765,"56":5766,"indÃ©pendance":5767,"erson":5768,"ĠLÃ©":5769,"image":5770,"lÃł":5771,"ĠForm":5772,"arb":5773,"Ġvesti":5774,"180":5775,"Ġlesquels":5776,"ĠLos":5777,"Ġstatis":5778,"national":5779,"ĠsupplÃ©ment":5780,"amour":5781,"ĠPan":5782,"Ġreten":5783,"orges":5784,"ĠintÃ©ress":5785,"Ġmass":5786,"Ġparce":5787,"Ġ1948":5788,"ĠÃ©dif":5789,"Ġjuste":5790,"ĠLaurent":5791,"Ġitalienne":5792,"ĠPyrÃ©nÃ©es":5793,"ĠsituÃ©es":5794,"nats":5795,"Ġprison":5796,"abeth":5797,"ouvre":5798,"Ġvert":5799,"ĠPr":5800,"paravant":5801,"Ġaltern":5802,"ĠDie":5803,"ĠDr":5804,"ical":5805,"ĠVie":5806,"ĠConstantin":5807,"73":5808,"ĠclassÃ©":5809,"entraÃ®":5810,"center":5811,"ĠRecords":5812,"ĠdÃ©veloppÃ©":5813,"eck":5814,"Ġsh":5815,"81":5816,"ĠÃ©criv":5817,"Ġhos":5818,"Ge":5819,"Ġdirect":5820,"Ġmusul":5821,"actÃ©":5822,"Ġdevint":5823,"onner":5824,"ĠdÃ©putÃ©s":5825,"Ġpartage":5826,"ĠĊĠĊĠĊ":5827,"Ġ1946":5828,"Ġvente":5829,"Ġrejoindre":5830,"ĠnÃ©er":5831,"vid":5832,"atoires":5833,"olÃ©":5834,"Ġfilles":5835,"ĠpossÃ©d":5836,"ortant":5837,"Ġparten":5838,"inn":5839,"Ġvieux":5840,"Ġentou":5841,"Ġmains":5842,"ĠPologne":5843,"Ġsuivants":5844,"Ġplein":5845,"delÃł":5846,"ĠpÃ©d":5847,"ierge":5848,"ĠliÃ©e":5849,"Ã¨che":5850,"thur":5851,"Ġenregistre":5852,"ĠPortug":5853,"Ġvall":5854,"Si":5855,"ĠPuis":5856,"Ġvolume":5857,"ĠSavoie":5858,"ĠpropriÃ©tÃ©s":5859,"Ġexterne":5860,"Ġaccident":5861,"ĠĠĠĠĠĠĠĠĠĠĠĠĠĠĠĠ":5862,"ĠlocalitÃ©":5863,"Ġneige":5864,"Ġmascul":5865,"ĠquÃ©bÃ©cois":5866,"Pal":5867,"ĠmÃ©n":5868,"Ġregroupant":5869,"ĠRol":5870,"Ġvaste":5871,"ĠpropriÃ©taire":5872,"Ġinhum":5873,"Ġherb":5874,"Ġabb":5875,"ĠfrÃ©quent":5876,"Ġprisonn":5877,"Ġguerres":5878,"Localisation":5879,"Ã¡n":5880,"Ġouvrages":5881,"Ġbaiss":5882,"wn":5883,"esc":5884,"Ġpay":5885,"Ġconcours":5886,"ĠGas":5887,"Mus":5888,"hou":5889,"Cert":5890,"Membre":5891,"dits":5892,"Ancien":5893,"Ġtend":5894,"zon":5895,"ĠGrÃ¨ce":5896,"Ġnote":5897,"tension":5898,"ĠhÃ©ros":5899,"entine":5900,"ĠHaut":5901,"Comp":5902,"ĠCD":5903,"ĠphÃ©nomÃ¨ne":5904,"Ġpeinture":5905,"ĠPau":5906,"Ġling":5907,"uter":5908,"AndrÃ©":5909,"Ġlocales":5910,"chec":5911,"aro":5912,"ĠRoyal":5913,"Ġtransition":5914,"Ġpoids":5915,"Ġchambre":5916,"ĠscÃ©nario":5917,"ĠtraversÃ©e":5918,"Ġlaisse":5919,"Ãīt":5920,"Mal":5921,"ĠÃ©tabli":5922,"ĠLorraine":5923,"ĠRÃ©s":5924,"OrlÃ©ans":5925,"ĠSimon":5926,"ĠStar":5927,"41":5928,"Ġconver":5929,"Ġdomicile":5930,"ON":5931,"bl":5932,"Ġjardin":5933,"Ġhameau":5934,"ĠconsÃ©quence":5935,"ĠprÃ©sentÃ©es":5936,"ĠBelle":5937,"ĠÃ¢ge":5938,"idae":5939,"Ã©en":5940,"Val":5941,"ĠarmÃ©e":5942,"ĠdÃ©lÃ©gu":5943,"dessous":5944,"ĠDom":5945,"airement":5946,"Ġsouverain":5947,"ield":5948,"ĠCelui":5949,"ermain":5950,"ief":5951,"Ġfonctionnement":5952,"uxemb":5953,"Ġtournoi":5954,"ĠmÃ©daille":5955,"ĠmÃ©decine":5956,"ĠConf":5957,"agÃ©e":5958,"entitÃ©":5959,"Ġ1957":5960,"Ġreprise":5961,"ĠclassÃ©e":5962,"ĠprÃ©cÃ©dent":5963,"Ġroyal":5964,"oses":5965,"ics":5966,"olis":5967,"Ġcantons":5968,"Ġ1949":5969,"Ġstudio":5970,"monie":5971,"diction":5972,"Ġrelief":5973,"ĠCroix":5974,"ĠDur":5975,"ĠvÃ©gÃ©tation":5976,"nexe":5977,"Ġprofessionnel":5978,"Ġhommage":5979,"autom":5980,"the":5981,"Ġappli":5982,"ĠCommunautÃ©":5983,"Hydrographie":5984,"Ġ32":5985,"Ġnotre":5986,"ĠDisney":5987,"ĠnÃ©goci":5988,"Ġjug":5989,"Ġradi":5990,"ĠsÃ©p":5991,"Ġhiver":5992,"cht":5993,"Ġsecondaires":5994,"Ġmagazine":5995,"ĠPlusieurs":5996,"ĠRaymond":5997,"Ġissu":5998,"ĠWorld":5999,"ĠnommÃ©e":6000,"ĠintitulÃ©":6001,"Ġportes":6002,"olie":6003,"Alpes":6004,"Ã©ry":6005,"Ġsomme":6006,"tir":6007,"Ġaj":6008,"Ġenne":6009,"Ġconcl":6010,"oliques":6011,"ĠMass":6012,"Ġenvir":6013,"Ġ90":6014,"ulaires":6015,"Ġfrag":6016,"oristique":6017,"Ġinconn":6018,"Ġouest":6019,"alem":6020,"Ġ1954":6021,"46":6022,"seud":6023,"Ġbass":6024,"Ġprati":6025,"Ġ000":6026,"ĠÃīc":6027,"ao":6028,"Ġconcerne":6029,"Ġsuffis":6030,"Ġproduis":6031,"avires":6032,"dom":6033,"Ġ1955":6034,"Ġproducteur":6035,"ĠÃ©vo":6036,"ictionnaire":6037,"ĠÃītat":6038,"Ġtente":6039,"ustral":6040,"VD":6041,"Ġcultiv":6042,"Ġeau":6043,"ĠNapolÃ©on":6044,"DÃ©p":6045,"net":6046,"ĠvariÃ©tÃ©":6047,"Ġriche":6048,"Ġaccus":6049,"toral":6050,"Ġhabitu":6051,"Ġinves":6052,"Ġpouss":6053,"ĠmodÃ¨les":6054,"alerie":6055,"Ġbud":6056,"lore":6057,"ĠEnfin":6058,"US":6059,"Ġsusceptible":6060,"alisÃ©s":6061,"ĠÃ©lÃ¨ves":6062,"Ġresponsable":6063,"Ġutilisant":6064,"ĠMonde":6065,"Ġjudici":6066,"Trans":6067,"istique":6068,"ĠBill":6069,"Ġconcurr":6070,"ĠDÃ©c":6071,"tÃ©rÃ©":6072,"ĠconsidÃ¨re":6073,"ĠdÃ©partementales":6074,"adrÃ©":6075,"rices":6076,"Ġdouze":6077,"Henri":6078,"Ġretraite":6079,"Ġanglaise":6080,"Ġnoire":6081,"ergne":6082,"Ġsocialiste":6083,"avantage":6084,"Ġcontexte":6085,"oto":6086,"ĠdÃ©cÃ¨s":6087,"Ġdiz":6088,"ĠParmi":6089,"micitÃ©":6090,"Ġsemaine":6091,"ĠCop":6092,"ortement":6093,"Ġfonctionn":6094,"ĠcÃ©lÃ©b":6095,"ĠprocÃ¨s":6096,"Ġcomposition":6097,"Ġdomaines":6098,"Ġexprim":6099,"ster":6100,"Ġrepro":6101,"utation":6102,"Ġ'":6103,"ĠrÃ©cup":6104,"Ġexplique":6105,"uÃ©":6106,"Ġcultures":6107,"Ġindique":6108,"ĠdÃ©mont":6109,"Ġang":6110,"km":6111,"ĠdÃ©mographique":6112,"ĠmarquÃ©":6113,"ĠBlack":6114,"ulle":6115,"Ġmix":6116,"ĠrÃ©comp":6117,"Mon":6118,"Ġpublication":6119,"Ã©ducation":6120,"ĠautoritÃ©s":6121,"ĠthÃ¨me":6122,"ww":6123,"Ġrenouv":6124,"Ġcarb":6125,"Ġsusp":6126,"ouch":6127,"non":6128,"Ġcong":6129,"ho":6130,"ĠCatherine":6131,"istan":6132,"ĠGil":6133,"Ġcru":6134,"Ġenfant":6135,"ĠlÃ©gislatives":6136,"Groupe":6137,"Marne":6138,"ĠAmer":6139,"ockey":6140,"Ġsynth":6141,"Ġlangage":6142,"Ġatti":6143,"Ġrece":6144,"Ġconcept":6145,"ĠdÃ©buts":6146,"terie":6147,"Ġ45":6148,"Ġdestru":6149,"Ġpeint":6150,"Ġtal":6151,"Ã´les":6152,"Ġtemple":6153,"AD":6154,"Ġvivant":6155,"Ġsignal":6156,"Ġrevanche":6157,"erman":6158,"Ġsurn":6159,"ĠCertains":6160,"histor":6161,"IN":6162,"absence":6163,"ellation":6164,"gar":6165,"hÃ´tel":6166,"ĠAv":6167,"ader":6168,"ĠvolontÃ©":6169,"ĠGÃ©":6170,"Ġdynastie":6171,"Ġmy":6172,"ĠrÃ©publique":6173,"dific":6174,"ardinal":6175,"Ġfun":6176,"Ġdemeure":6177,"Ġmunicipale":6178,"Ġprogressivement":6179,"Ġ1947":6180,"olo":6181,"ĠBRGM":6182,"actions":6183,"ĠNantes":6184,"Ġsoi":6185,"ĠCra":6186,"ĠÂ»),":6187,"Ġsociales":6188,"mÃ©t":6189,"ĠRod":6190,"auph":6191,"Ġdescend":6192,"Ġaffaires":6193,"Ãīn":6194,"erce":6195,"Ġamis":6196,"Ġobtenu":6197,"Ġliaison":6198,"ĠcomÃ©die":6199,"Ġroutes":6200,"Ġmorte":6201,"ĠDun":6202,"agon":6203,"Ġpilote":6204,"Op":6205,"Ġnavires":6206,"tue":6207,"Ġobjet":6208,"clam":6209,"Ġseigneurie":6210,"agent":6211,"Ġcuis":6212,"Ġprivil":6213,"Ã¨dent":6214,"Ġraisons":6215,"ipp":6216,"mÃ©diaire":6217,"ignÃ©e":6218,"Ġfrom":6219,"ĠrÃ¨gles":6220,"ermont":6221,"ĠÃ©vÃ©nements":6222,"Ġrares":6223,"ĠLab":6224,"Ġsaisons":6225,"ĠsÃ©ries":6226,"Ã©criture":6227,"Ġoriginaire":6228,"2005":6229,"Ġmatern":6230,"Ġfonds":6231,"AT":6232,"Ġprimaire":6233,"rlande":6234,"cin":6235,"2006":6236,"Ġconsiste":6237,"Ġbru":6238,"oser":6239,"lav":6240,"amment":6241,"Ġpost":6242,"ĠArn":6243,"uz":6244,"Ġmeilleurs":6245,"archie":6246,"Ġmour":6247,"ĠDiv":6248,"Ġpouvait":6249,"ultan":6250,"ĠLeur":6251,"Ġtrente":6252,"animation":6253,"mage":6254,"ish":6255,"ĠcatÃ©gorie":6256,"ĠorganisÃ©":6257,"iner":6258,"amÃ©ric":6259,"ĠidÃ©":6260,"MP":6261,"Ġvan":6262,"allÃ©":6263,"ĠsociÃ©tÃ©s":6264,"Ġactifs":6265,"ultÃ©s":6266,"ĠAngleterre":6267,"Ġsubst":6268,"Ġtherm":6269,"Ġobjectif":6270,"Ġmaintenant":6271,"CO":6272,"Ġdisparu":6273,"umel":6274,"Ġbot":6275,"vey":6276,"Ġpati":6277,"Ġposses":6278,"expression":6279,"ĠĊĊĠ":6280,"ĠjournÃ©e":6281,"ĠKing":6282,"ĠCer":6283,"ĠPendant":6284,"Ġfeuilles":6285,"ĠliÃ©s":6286,"angle":6287,"Ġconception":6288,"lications":6289,"pel":6290,"2004":6291,"Ġcandidat":6292,"vet":6293,"ĠprÃ©sidentielle":6294,"Ġstatue":6295,"Comme":6296,"Ġcontact":6297,"ĠMath":6298,"Ġdramatique":6299,"roÃ¯":6300,"Ġnavig":6301,"ĠÂ»).":6302,"ĠLÃ©gion":6303,"asser":6304,"Tra":6305,"Ã©an":6306,"Ã¨lement":6307,"Ġmobil":6308,"ĠlÃ©gisl":6309,"teau":6310,"oxe":6311,"Ġcommercial":6312,"Ġaltitude":6313,"Ġsav":6314,"union":6315,"Ġbil":6316,"ser":6317,"ater":6318,"ĠGenÃ¨ve":6319,"Ġobs":6320,"Ġ1953":6321,"ĠprocÃ©d":6322,"'Â«":6323,"Ġacces":6324,"ĠcausÃ©s":6325,"Ġpolon":6326,"Ġassassin":6327,"Ġeffic":6328,"Ġtraduction":6329,"issue":6330,"Ã±":6331,"Jeu":6332,"Claude":6333,"Ġfabrication":6334,"Ġforment":6335,"Ġoriginal":6336,"ĠmatÃ©riel":6337,"ĠDÃ¨s":6338,"Ġ1952":6339,"ĠamÃ©ricains":6340,"Ġmajeurs":6341,"ake":6342,"ĠdÃ©cenn":6343,"veill":6344,"illage":6345,"ĠrÃ©d":6346,"ĠdiffÃ©rence":6347,"Ġpla":6348,"ĠEspagne":6349,"rons":6350,"Ġradic":6351,"ĠredÃ©c":6352,"ĠpubliÃ©e":6353,"ĠRam":6354,"ĠQue":6355,"ĠJan":6356,"Ġfaits":6357,"ĠAmÃ©rique":6358,"ĠLin":6359,"ĠgÃ©nÃ©r":6360,"Ġfi":6361,"Ġvote":6362,"ĠAndre":6363,"ĠMalgrÃ©":6364,"Ġ54":6365,"Anne":6366,"amÃ©li":6367,"Ġici":6368,"ducteur":6369,"Ã©vÃªque":6370,"ĠStrasbourg":6371,"ĠcoopÃ©ration":6372,"Ġinformations":6373,"ouvenir":6374,"ni":6375,"oration":6376,"Man":6377,"ĠDub":6378,"chent":6379,"ĠprÃ©sents":6380,"Ġlabel":6381,"ource":6382,"ĠreprÃ©sentation":6383,"uvergne":6384,"ĠportÃ©":6385,"Ġvision":6386,"Ġprintemps":6387,"Ġbaisser":6388,"trÃ©m":6389,"ĠunitÃ©s":6390,"ĠtournÃ©":6391,"uler":6392,"Ġesti":6393,"sembl":6394,"ba":6395,"Ġfinit":6396,"ties":6397,"ĠrattachÃ©e":6398,"ĠDurant":6399,"Ġdiplom":6400,"Ãītienne":6401,"annÃ©es":6402,"ĠChapelle":6403,"Ġrelev":6404,"ĠAlpes":6405,"ĠrÃ©di":6406,"rection":6407,"versitÃ©":6408,"yer":6409,"ĠNatur":6410,"ĠtrÃ´ne":6411,"ĠcomplÃ©tÃ©e":6412,"Ġmu":6413,"Pe":6414,"itude":6415,"ĠsÃ©j":6416,"ĠAth":6417,"raire":6418,"Ġantique":6419,"ĠdÃ©roule":6420,"alifornie":6421,"ĠcinquiÃ¨me":6422,"fi":6423,"Ġesc":6424,"infanterie":6425,"Ġdocuments":6426,"Ġobtenir":6427,"ĠMic":6428,"burg":6429,"ĠspÃ©cifique":6430,"cuit":6431,"Ġutilisent":6432,"Ġadministratif":6433,"Ġ1936":6434,"Ġpiano":6435,"Bretagne":6436,"euros":6437,"Ġabrite":6438,"Ġentreprise":6439,"ĠCartes":6440,"ĠMilan":6441,"Ġha":6442,"Ġoccupe":6443,"tesse":6444,"ĠHel":6445,"univers":6446,"Ġmajeur":6447,"ĠÃ¢ges":6448,"Ġdiscours":6449,"ĠconsidÃ©rÃ©e":6450,"hyp":6451,"urÃ©at":6452,"Ġpluie":6453,"Ãīnergie":6454,"ceaux":6455,"ĠBab":6456,"ĠcroÃ®tre":6457,"nÃ©s":6458,"court":6459,"gny":6460,"2007":6461,"ĠrÃ©sidences":6462,"Enseignement":6463,"ĠÃ©tudiants":6464,"ĠTch":6465,"ĠopÃ©rations":6466,"inage":6467,"ĠrÃ©serve":6468,"Ġparcours":6469,"enue":6470,"affaires":6471,"ĠPa":6472,"ĠChampionnat":6473,"Ses":6474,"Ġvoiture":6475,"Ã©qui":6476,"uels":6477,"aÃ©roport":6478,"Ġ1951":6479,"Ġautoris":6480,"oudre":6481,"Ġaccueilli":6482,"ĠcaractÃ©risant":6483,"agog":6484,"ĠrÃ©fug":6485,"ĠMons":6486,"Ġconstituent":6487,"aissances":6488,"Situ":6489,"tinent":6490,"esprit":6491,"pour":6492,"Ã§ons":6493,"Ġvuln":6494,"Deux":6495,"Ġcommandant":6496,"Ġul":6497,"Ne":6498,"ĠJosÃ©":6499,"Ġmusicale":6500,"ĠrÃ©glement":6501,"hÃ©r":6502,"ĠDen":6503,"Ġorganisation":6504,"phab":6505,"Ġrestauration":6506,"Ġball":6507,"Ġfavoris":6508,"ĠColomb":6509,"Ã´mes":6510,"2002":6511,"ĠrÃ©forme":6512,"gra":6513,"Ġtiss":6514,"ĠdÃ©velopper":6515,"ĠprÃ©serv":6516,"Ġcoord":6517,"deux":6518,"ople":6519,"ĠCÃ´te":6520,"ĠlÃ©gÃ¨rement":6521,"agers":6522,"Ġrefuse":6523,"Ġblanche":6524,"ĠchÅĵur":6525,"Ġdiam":6526,"Ã¨gre":6527,"Ġsport":6528,"uelles":6529,"Ã©tudes":6530,"Administration":6531,"ĠdÃ©te":6532,"aret":6533,"ried":6534,"Ġhumi":6535,"2001":6536,"Ġcord":6537,"omo":6538,"Ġvous":6539,"Association":6540,"ĠdÃ©clin":6541,"ancy":6542,"ĠCompagn":6543,"manuel":6544,"mo":6545,"observ":6546,"any":6547,"pective":6548,"Ġgrecque":6549,"ctur":6550,"arte":6551,"manie":6552,"Ġguitare":6553,"instru":6554,"Ġly":6555,"Ãİle":6556,"ato":6557,"Ġdistingue":6558,"ribue":6559,"Alexand":6560,"ĠLis":6561,"ĠÃ©mis":6562,"Ġcycle":6563,"ĠPap":6564,"endemain":6565,"Ġreligieuse":6566,"Ġfleurs":6567,"Ġtiers":6568,"Ġmodernes":6569,"Ġafric":6570,"IS":6571,"ĠconsidÃ©ra":6572,"Ġbiodi":6573,"Ġmonast":6574,"DÃ©putÃ©":6575,"acÃ©e":6576,"Ġyeux":6577,"ĠMaria":6578,"Ġmarquis":6579,"ĠdÃ©couvert":6580,"tification":6581,"ĠmatiÃ¨res":6582,"tiquitÃ©":6583,"ĠSous":6584,"ĠAff":6585,"Ãīp":6586,"partement":6587,"dans":6588,"Ġatteindre":6589,"Ġactions":6590,"ĠpossibilitÃ©":6591,"aco":6592,"eld":6593,"99":6594,"Ġfleur":6595,"ĠMÃ©":6596,"Ġmonn":6597,"ĠprÃ©sentÃ©":6598,"Ġmicro":6599,"ĠantÃ©rie":6600,"Ġconcentration":6601,"ĠFÃ©dÃ©ration":6602,"Ã©rite":6603,"Ġsais":6604,"endie":6605,"hor":6606,"Ġgens":6607,"lÃ¨s":6608,"Ġ(,":6609,"iteurs":6610,"ĠPeu":6611,"ĠPeti":6612,"ĠVincent":6613,"Ġhabitant":6614,"Ġstations":6615,"ramme":6616,"aga":6617,"ĠlÃ©gende":6618,"Ġsusceptibles":6619,"ĠTex":6620,"ologies":6621,"Ġtourisme":6622,"sa":6623,"Ġdiminution":6624,"Ġplans":6625,"Ġcouvrant":6626,"ĠMun":6627,"ĠdÃ©partements":6628,"ĠbiodiversitÃ©":6629,"Dis":6630,"ĠcomitÃ©":6631,"dh":6632,"Ġparler":6633,"Ġglace":6634,"ĠAllemand":6635,"Ġhar":6636,"ĠÃ©vent":6637,"mins":6638,"zy":6639,"ement":6640,"ordogne":6641,"ĠRhÃ´ne":6642,"ĠOb":6643,"ĠSuÃ¨de":6644,"ĠCommission":6645,"Ã©pisode":6646,"Ġsubs":6647,"ĠtÃ´t":6648,"ification":6649,"ĠComitÃ©":6650,"Ġissus":6651,"ĠdÃ©li":6652,"Ġcommandement":6653,"aies":6654,"ories":6655,"ĠRadio":6656,"espÃ¨ce":6657,"Ġgui":6658,"ĠHan":6659,"attaque":6660,"ĠCity":6661,"Ġfabri":6662,"ĠChambre":6663,"ĠnuclÃ©aire":6664,"AP":6665,"Ġvac":6666,"ĠNations":6667,"lymp":6668,"erci":6669,"ĠTourn":6670,"Ġmaximum":6671,"sous":6672,"ocat":6673,"Ġalbums":6674,"Ġoccidentale":6675,"usalem":6676,"encadrÃ©":6677,"ĠMes":6678,"Ġlendemain":6679,"ĠprÃ©t":6680,"ĠnumÃ©rique":6681,"ect":6682,"AL":6683,"ĠbibliothÃ¨que":6684,"Ġgran":6685,"ariat":6686,"Ġbleu":6687,"Ġrespectivement":6688,"elin":6689,"uch":6690,"ĠquantitÃ©":6691,"Ġpou":6692,"Ġcombats":6693,"Ġnotion":6694,"Ġbus":6695,"Ġquart":6696,"Ġmarine":6697,"quÃ©es":6698,"ĠEug":6699,"Ġcalc":6700,"Ġsupprim":6701,"Ġjette":6702,"ĠHall":6703,"ĠJÃ©s":6704,"ĠsituÃ©s":6705,"ĠBell":6706,"Â»,":6707,"Ġpleine":6708,"ĠrÃ©pert":6709,"Fin":6710,"Ġdesservie":6711,"ĠRoi":6712,"atte":6713,"endue":6714,"ĠYou":6715,"Ġseuls":6716,"Ġfranco":6717,"Ġrejet":6718,"Ġrup":6719,"AM":6720,"Ġdehors":6721,"UR":6722,"SÃ©rie":6723,"ĠarriÃ¨re":6724,"onds":6725,"ĠutilisÃ©es":6726,"ĠpÃ©tro":6727,"ĠDam":6728,"ĠingÃ©n":6729,"Ġmajoritaire":6730,"ĠMah":6731,"ĠCr":6732,"Can":6733,"Ġcouverture":6734,"Ġpourtant":6735,"Ġcitoy":6736,"initi":6737,"valier":6738,"olk":6739,"ustin":6740,"Ġquartiers":6741,"Ġactes":6742,"ĠtuÃ©":6743,"lanc":6744,"guerite":6745,"ĠChic":6746,"ĠClimat":6747,"Ġexpli":6748,"2008":6749,"ĠSab":6750,"ĠTout":6751,"ula":6752,"Grand":6753,"Ġ1942":6754,"ĠdÃ©truit":6755,"osa":6756,"ĠamÃ©n":6757,"2003":6758,"ĠBall":6759,"Ġfondament":6760,"assade":6761,"Mil":6762,"Ġexclus":6763,"erte":6764,"gen":6765,"ĠVI":6766,"Ġvictimes":6767,"Ġrap":6768,"ĠRock":6769,"Ġinfluence":6770,"Ġseigneurs":6771,"ĠmaÃ®tres":6772,"mettre":6773,"Ġcommission":6774,"Ġ1943":6775,"Ġchefs":6776,"ĠrÃ©cit":6777,"ĠPortugal":6778,"EC":6779,"Ġryth":6780,"tile":6781,"Ã©riques":6782,"ĠEmpire":6783,"Ã©mique":6784,"reuves":6785,"Aub":6786,"ĠAngeles":6787,"Ġfoss":6788,"ĠgÃ©nÃ©ration":6789,"Ġlien":6790,"ĠinspirÃ©":6791,"ican":6792,"ĠQuel":6793,"lot":6794,"ĠImp":6795,"Ġlieutenant":6796,"Ġdevi":6797,"Ã©les":6798,"Ġcorrespondant":6799,"fice":6800,"Ãīgypte":6801,"ĠLan":6802,"ĠÃ©rig":6803,"Ġath":6804,"Ġplaine":6805,"Ġauparavant":6806,"Ġappartenant":6807,"ĠErn":6808,"ergÃ©":6809,"reuses":6810,"tenir":6811,"ĠVar":6812,"Ġrav":6813,"Ġversions":6814,"ĠCulture":6815,"Ã©nie":6816,"ĠdÃ©finition":6817,"abbÃ©":6818,"Ġfaunis":6819,"Ġfaite":6820,"Ġassure":6821,"ĠÃ©to":6822,"ĠDominique":6823,"lai":6824,"Ġemprun":6825,"ju":6826,"join":6827,"ĠFontaine":6828,"arra":6829,"Ġoffici":6830,"ado":6831,"ĠJournal":6832,"ĠNam":6833,"ĠDoc":6834,"Ġcompose":6835,"Ġjaune":6836,"Ġferroviaire":6837,"ĠCy":6838,"dium":6839,"Ġnomme":6840,"ensis":6841,"ĠbrÃ»":6842,"Ġtax":6843,"Ġques":6844,"Ġnoy":6845,"Du":6846,"ĠBig":6847,"hu":6848,"ĠEr":6849,"mosph":6850,"ieure":6851,"Ġpoursuit":6852,"95":6853,"ĠLaur":6854,"inÃ©e":6855,"ĠArg":6856,"Ġarrondissement":6857,"ĠrÃ©sidence":6858,"ulsion":6859,"Ġdistribu":6860,"Premi":6861,"ĠbÃ¢":6862,"amique":6863,"Ġrevenu":6864,"Ġauquel":6865,"Ġfloristique":6866,"Ġarticles":6867,"ĠexpÃ©riment":6868,"ĊĊĠ":6869,"ĠcomÃ©di":6870,"Ġscore":6871,"adis":6872,"ĠconsacrÃ©":6873,"Ġsan":6874,"ĠassociÃ©":6875,"ultes":6876,"Ġvite":6877,"abe":6878,"ĠÅĵ":6879,"Ġrecomm":6880,"ĠbasÃ©":6881,"Ġpatri":6882,"Durant":6883,"ĠGard":6884,"BC":6885,"usement":6886,"ĠMonte":6887,"Ġsatell":6888,"ĠTri":6889,"ife":6890,"Ġmajeure":6891,"ĠÃ©tape":6892,"ĠRed":6893,"ternet":6894,"ĠJim":6895,"Denis":6896,"Ġbre":6897,"oscou":6898,"Ġimpli":6899,"El":6900,"Ġspir":6901,"Ġclasses":6902,"anda":6903,"Ġfaunistique":6904,"lair":6905,"rets":6906,"ierres":6907,"yde":6908,"Ġtur":6909,"anga":6910,"oupe":6911,"Ġmarche":6912,"Ġreconnaissance":6913,"ropol":6914,"fon":6915,"ignent":6916,"autor":6917,"adap":6918,"angÃ©":6919,"Ġpouvoirs":6920,"Ġabou":6921,"Ġtrafic":6922,"terres":6923,"ĠPin":6924,"Ġattaque":6925,"ĠconnaÃ®tre":6926,"Ġpubliques":6927,"ĠChamb":6928,"Ġ33":6929,"ophones":6930,"ĠmÃ©ta":6931,"olly":6932,"Pendant":6933,"inves":6934,"ĠGall":6935,"ĠPalais":6936,"ĠÃ©crits":6937,"Ġmunicipales":6938,"expÃ©ri":6939,"Seine":6940,"ĠJon":6941,"ĠTV":6942,"Ġplaces":6943,"Ġprennent":6944,"ĠLam":6945,"ows":6946,"Aqu":6947,"Ġdrain":6948,"ĠvÃ©hicule":6949,"ĠÃ©crite":6950,"Ġmig":6951,"ĠMeilleur":6952,"ĠMuse":6953,"mans":6954,"aya":6955,"ĠplanÃ¨te":6956,"taient":6957,"Ġparoissi":6958,"Ġlinguis":6959,"Ġgam":6960,"Ġvarie":6961,"Ġappelle":6962,"Ġstock":6963,"ĠDordogne":6964,"Ġromans":6965,"othÃ¨se":6966,"Asie":6967,"enfant":6968,"ull":6969,"Ġaller":6970,"bas":6971,"Ari":6972,"ĠMark":6973,"ĠSmith":6974,"ĠÃ©pous":6975,"Ġsurven":6976,"Ġ1941":6977,"Jose":6978,"PalmarÃ¨s":6979,"aliment":6980,"ĠremportÃ©":6981,"ĠidÃ©es":6982,"raÃ«l":6983,"win":6984,"ĠFort":6985,"jectifs":6986,"iger":6987,"ĠmÃ©diÃ©v":6988,"char":6989,"Ġ1938":6990,"ĠBus":6991,"urbanisme":6992,"ĠdÃ©finitivement":6993,"Ġouverte":6994,"Ġvainqueur":6995,"ĠParc":6996,"auf":6997,"ĠfÃ©dÃ©ral":6998,"uro":6999,"Ġniveaux":7000,"ĠmolÃ©c":7001,"aval":7002,"Ġpan":7003,"ĠFern":7004,"uck":7005,"Ġretrouver":7006,"Ġtoile":7007,"Ġcentr":7008,"ĠrÃ©fÃ©r":7009,"yo":7010,"Ã¨ler":7011,"ĠaccÃ¨s":7012,"emples":7013,"ĠÃ©carts":7014,"Ġphilosoph":7015,"ĠÃ©tablissement":7016,"ĠJÃ©rusalem":7017,"OS":7018,"ĠProvence":7019,"Ġtotalement":7020,"Ġcontemporaine":7021,"ĠAllemands":7022,"Ġmurs":7023,"ĠMoscou":7024,"Ġautrich":7025,"Ġkm":7026,"Homme":7027,"2009":7028,"Ġchevalier":7029,"inger":7030,"Ġenvis":7031,"ĠprotÃ©ger":7032,"ĠMÃ©m":7033,"ĠHu":7034,"Ġ1937":7035,"ĠcommunautÃ©s":7036,"Voies":7037,"Organis":7038,"reau":7039,"ĠVierge":7040,"lige":7041,"Ġsouhait":7042,"ĠNoÃ«l":7043,"OM":7044,"Ãītudi":7045,"Ġlun":7046,"Ġchanteuse":7047,"bach":7048,"uxembourg":7049,"Ġcontrain":7050,"ĠdÃ©couvre":7051,"Ġsportif":7052,"architecte":7053,"ilibre":7054,"ĠSyl":7055,"prÃ¨te":7056,"ranger":7057,"Ġhumain":7058,"94":7059,"Ġcellules":7060,"lon":7061,"ĠChÃ¢te":7062,"Ã©chelle":7063,"ward":7064,"Ġhydrograph":7065,"ĠfaÃ§ade":7066,"Ġsecondaire":7067,"ĠtraversÃ©":7068,"ĠAlors":7069,"zer":7070,"Ġcach":7071,"Ġoiseaux":7072,"Ġutiliser":7073,"Ġnationales":7074,"ĠsiÃ¨ges":7075,"Ġmatin":7076,"Ġ150":7077,"lÃ¨te":7078,"Ġnavire":7079,"Ġimag":7080,"ootball":7081,"Äĩ":7082,"Ãªtres":7083,"ĠsuÃ©d":7084,"ĠeuropÃ©ennes":7085,"ĠrÃ©volutionnaire":7086,"Ġbelle":7087,"Ġrestent":7088,"ĠscÃ¨nes":7089,"Ġsymbole":7090,"aria":7091,"ĠmÃ©lan":7092,"Joseph":7093,"ĠPÃ©ri":7094,"nd":7095,"posi":7096,"ayant":7097,"igle":7098,"Ġbranche":7099,"fiction":7100,"IC":7101,"ery":7102,"ĠCharente":7103,"oo":7104,"Patrimoine":7105,"Inde":7106,"1999":7107,"ĠStade":7108,"Ð¾":7109,"Ġordres":7110,"ĠpensÃ©e":7111,"Ġentier":7112,"ĠMen":7113,"Ġmodes":7114,"ĠOff":7115,"Ãº":7116,"Ġindic":7117,"ĠLot":7118,"ĠdiocÃ¨se":7119,"Ġhockey":7120,"iquement":7121,"dus":7122,"ĠprotÃ©":7123,"enture":7124,"avis":7125,"BA":7126,"itions":7127,"uation":7128,"ĠÃ©trangÃ¨res":7129,"ĠpropriÃ©taires":7130,"affaire":7131,"ĠÃ©viter":7132,"exception":7133,"ĠRenaissance":7134,"ĠcaractÃ©ristique":7135,"Ġarabe":7136,"Parmi":7137,"ĠmÃ©tal":7138,"ĠXX":7139,"ĠDar":7140,"Ġflotte":7141,"St":7142,"ĠprivÃ©":7143,"AntiquitÃ©":7144,"ousin":7145,"amen":7146,"Ġadvers":7147,"ĠMars":7148,"ĠLivre":7149,"ĠsignÃ©":7150,"ĠQui":7151,"Ap":7152,"ĠMod":7153,"ĠPasc":7154,"Ġtoit":7155,"risti":7156,"occup":7157,"Ġallant":7158,"Ġrecue":7159,"Ġ1933":7160,"ĠextrÃªme":7161,"Ġsil":7162,"ĠrÃ©pand":7163,"opposition":7164,"ĠAlb":7165,"ĠmÃ©canique":7166,"ĠfiscalitÃ©":7167,"ĠdonnÃ©e":7168,"ÅĴuvres":7169,"Ġrepris":7170,"ĠRennes":7171,"Ġculturelles":7172,"ashington":7173,"ĠfÃ©minin":7174,"ĠRap":7175,"Ġprovinces":7176,"Ġgallo":7177,"ĠWind":7178,"aises":7179,"ouche":7180,"Ġconnus":7181,"loi":7182,"Description":7183,"Ġtab":7184,"Ã¨ses":7185,"ĠrÃª":7186,"Ġtop":7187,"ĠprÃ©sidence":7188,"Ġformat":7189,"Ġstandard":7190,"Ġcondition":7191,"Ġcardinal":7192,"Ġnaz":7193,"atifs":7194,"Ġpav":7195,"Ġtravailler":7196,"ĠdÃ©plac":7197,"92":7198,"gh":7199,"als":7200,"Ġnat":7201,"rak":7202,"ĠmarÃ©chal":7203,"ĠconstatÃ©s":7204,"Ġassociation":7205,"Ġheure":7206,"ella":7207,"Ġmit":7208,"ĠYves":7209,"Ã©raux":7210,"Ġsociaux":7211,"ĠCab":7212,"joint":7213,"isp":7214,"low":7215,"Ġaqu":7216,"Ġsoir":7217,"ĠAuguste":7218,"Ġski":7219,"Ãītudiant":7220,"ĠindÃ©pendant":7221,"empire":7222,"ombe":7223,"rations":7224,"ĠdÃ©grad":7225,"Ġbaptis":7226,"ĠOlivier":7227,"Ġperte":7228,"Ġspectacle":7229,"ropri":7230,"Col":7231,"Ġgagne":7232,"Ġcens":7233,"ĠGer":7234,"Ġchi":7235,"ĠbÃ©n":7236,"hyd":7237,"ĠApp":7238,"ĠattestÃ©":7239,"Ġconserve":7240,"Ġindustrielle":7241,"mm":7242,"lif":7243,"Lien":7244,"Ġespagnole":7245,"Ġbritanniques":7246,"TV":7247,"ĠdÃ©mocratique":7248,"ĠCalifornie":7249,"duits":7250,"Ġregard":7251,"ĠBol":7252,"ĠconstituÃ©e":7253,"Ġclocher":7254,"Ġdure":7255,"Ġinterdit":7256,"Ġsolution":7257,"Ġpaysages":7258,"utÃ©e":7259,"raines":7260,"Ð°":7261,"Ġcomportement":7262,"Ġmille":7263,"oub":7264,"hr":7265,"ĠBor":7266,"ĠprÃ©cise":7267,"ĠcommencÃ©":7268,"ĠrÃ¨gle":7269,"Ġparu":7270,"ĠCelle":7271,"ĠPark":7272,"ĠVend":7273,"vres":7274,"ĠBoy":7275,"Ġ1935":7276,"Ġpointe":7277,"ĠvÃ©hicules":7278,"ild":7279,"uscrit":7280,"Ġhydrographique":7281,"Antoine":7282,"Ġsin":7283,"Ġdisposition":7284,"landaise":7285,"iance":7286,"Ġrois":7287,"ĠVainqueur":7288,"Aug":7289,"ĠAngl":7290,"Ġtenu":7291,"Ġmac":7292,"Ġtendance":7293,"ĠGrenoble":7294,"ĠdiffusÃ©e":7295,"Ġcomprenant":7296,"Ġlimites":7297,"Ġmoulin":7298,"ĠSw":7299,"ĠrÃ©action":7300,"ĠMexique":7301,"ĠentraÃ®ne":7302,"ĠCre":7303,"umÃ©":7304,"ĠFou":7305,"Ġaffirme":7306,"ĠBir":7307,"Ġdonnant":7308,"Ġconstitution":7309,"ardins":7310,"Ġquitter":7311,"ĠMagn":7312,"ĠStu":7313,"ĠRa":7314,"ĠJui":7315,"Conse":7316,"limard":7317,"Ġanc":7318,"ĠtÃ©lÃ©ph":7319,"ĠdifficultÃ©s":7320,"ulte":7321,"ctrice":7322,"ĠrÃ©gionale":7323,"Ġaura":7324,"ĠTemp":7325,"Ġchron":7326,"Ġremarquable":7327,"Ġinitialement":7328,"chevÃªque":7329,"no":7330,"Ã©tant":7331,"ĠÃ©gyp":7332,"aniques":7333,"Ġculturelle":7334,"abelle":7335,"ĠPen":7336,"Ġportent":7337,"1998":7338,"formes":7339,"Ġdocumentaire":7340,"Ġcontenant":7341,"Ġmines":7342,"ĠmÃ©dic":7343,"Ġconfond":7344,"ierry":7345,"ĠaÃ®":7346,"igueur":7347,"Site":7348,"ĠmÃ©thodes":7349,"Ġmaritime":7350,"usses":7351,"Germain":7352,"ĠLee":7353,"Ġisol":7354,"Ġstructures":7355,"ĠreprÃ©sentent":7356,"Ġfournir":7357,"ciences":7358,"Ġofficier":7359,"zi":7360,"ĠreprÃ©sentants":7361,"lieue":7362,"ĠRÃ©gion":7363,"ĠMiss":7364,"Ġsupport":7365,"RE":7366,"ĠvulnÃ©rable":7367,"Ġvenant":7368,"ĠcomplÃ¨te":7369,"ĠdÃ©mar":7370,"ĠprÃ©p":7371,"Ġbaisse":7372,"Ġvivre":7373,"Arch":7374,"Ġautonom":7375,"tillerie":7376,"ĠmÃ©diterran":7377,"Ġorthod":7378,"Ġbeaux":7379,"Ġpeuples":7380,"Ġfacil":7381,"Ġ500":7382,"ĠNouveau":7383,"âĶ":7384,"ĠGod":7385,"iro":7386,"ĠcaractÃ¨res":7387,"Prin":7388,"ĠArm":7389,"Ġtravaillent":7390,"ĠRu":7391,"ĠInternational":7392,"ĠMans":7393,"Ġabords":7394,"mÃªmes":7395,"ĠWashington":7396,"ĠSeu":7397,"ases":7398,"ĠJacob":7399,"Ġhuile":7400,"Ġ36":7401,"ĠeuropÃ©ens":7402,"ridge":7403,"Ġtennis":7404,"Ġparticiper":7405,"drome":7406,"Ġestime":7407,"dienne":7408,"ensions":7409,"ĠCarol":7410,"Ġavanc":7411,"orph":7412,"Ġusage":7413,"uellement":7414,"Ã¨ques":7415,"aceae":7416,"Sous":7417,"monte":7418,"Ġpierres":7419,"tellectu":7420,"Syn":7421,"Ġ170":7422,"ĠOs":7423,"96":7424,"atie":7425,"ĠÃĹ":7426,"ĠNice":7427,"tins":7428,"Ġaccomp":7429,"Ġ1926":7430,"Ġservir":7431,"ĠClermont":7432,"Ġ1934":7433,"Ġpratiques":7434,"ĠMaroc":7435,"Ġfiction":7436,"ĠDor":7437,"Paris":7438,"ĠSand":7439,"Ġautomobile":7440,"Ġservi":7441,"hal":7442,"ĠhÃ©ri":7443,"Ġfich":7444,"ĠNob":7445,"Ordre":7446,"wa":7447,"ĠTÃ©lÃ©":7448,"Ġvigueur":7449,"Ġversant":7450,"1997":7451,"ĠentraÃ®neur":7452,"Ġreconnu":7453,"Ġ1900":7454,"ĠscÃ©nariste":7455,"ĠBritann":7456,"Ġment":7457,"Ġvolumes":7458,"Ġimages":7459,"ĠJÃ©sus":7460,"ĠnÃ©erlandais":7461,"âĶĢ":7462,"Ġconservation":7463,"igner":7464,"Ġtransfert":7465,"endrier":7466,"ĠmÃ©dias":7467,"Ġadresse":7468,"ignan":7469,"seurs":7470,"appr":7471,"Ġvisant":7472,"atement":7473,"ĠlancÃ©":7474,"Ġmultiples":7475,"ĠKn":7476,"Ie":7477,"Ġ1932":7478,"view":7479,"Ãīvolution":7480,"ĠLuxembourg":7481,"Ġ34":7482,"ĠRhin":7483,"ĠmÃ¨ne":7484,"Ġorigines":7485,"2011":7486,"ciation":7487,"erait":7488,"Ġquasi":7489,"RÃ©s":7490,"ĠKer":7491,"iat":7492,"Ġhumains":7493,"ĠmathÃ©matiques":7494,"ĠRet":7495,"Ġcirculation":7496,"Ġexis":7497,"comp":7498,"Ġdieu":7499,"ĠsÃ»":7500,"ĠSerge":7501,"ouvrage":7502,"ĠRi":7503,"Ġacteurs":7504,"ĠSN":7505,"Ġvestiges":7506,"ĠredÃ©coupage":7507,"comme":7508,"continent":7509,"effec":7510,"ĠdirigÃ©":7511,"Ġquinze":7512,"ĠprÃªtre":7513,"Ġvictime":7514,"ĠAub":7515,"ĠmÃ©tÃ©orologiques":7516,"Ġquestions":7517,"Mer":7518,"orisation":7519,"ĠVenise":7520,"Ġcolonel":7521,"ĠVis":7522,"Ġinten":7523,"anni":7524,"98":7525,"Ġbudget":7526,"lov":7527,"ymologie":7528,"orge":7529,"uth":7530,"ĠAlfred":7531,"Ġchose":7532,"ĠMerc":7533,"Ġaffluent":7534,"Ġgla":7535,"Ġpseud":7536,"Ġrappel":7537,"actuelle":7538,"Â».":7539,"fiques":7540,"ims":7541,"Ã©mat":7542,"vo":7543,"arme":7544,"tellig":7545,"Ġautrefois":7546,"Ġcomplet":7547,"Ġjudiciaire":7548,"Å«":7549,"Ġpic":7550,"Ġrecens":7551,"ety":7552,"Ġorganise":7553,"Ġrues":7554,"Ġchoisi":7555,"oises":7556,"ĠArts":7557,"Ġtournage":7558,"Ġinterne":7559,"Ġonze":7560,"Ġacqu":7561,"Ã©tablissement":7562,"mÃ©s":7563,"ĠrÃ©el":7564,"Ġrupture":7565,"Ġtraces":7566,"ĠCond":7567,"conte":7568,"Ġpiste":7569,"Ġassociations":7570,"Charles":7571,"Ġscolaire":7572,"Ġsouvenir":7573,"mas":7574,"ĠReg":7575,"ĠsÃ©qu":7576,"leine":7577,"Ġvenir":7578,"Ġflu":7579,"ĠconservÃ©":7580,"ĠChicago":7581,"ĠPuy":7582,"Ġ1870":7583,"Ġintellectu":7584,"ĠdÃ©clen":7585,"acre":7586,"Ġindustriel":7587,"Ġchapitre":7588,"ĠaltÃ©rÃ©":7589,"ĠaÃ©rienne":7590,"itte":7591,"Ġrendu":7592,"ĠtotalitÃ©":7593,"ricitÃ©":7594,"ĠsÃ©isme":7595,"Ġmanifestations":7596,"Ġfacilement":7597,"Ġdeviennent":7598,"ĠTal":7599,"Ġattraction":7600,"Ġpyrami":7601,"ĠGroupe":7602,"Ġpage":7603,"relle":7604,"ĠpÃ´le":7605,"Ã¨ces":7606,"registre":7607,"Ġperp":7608,"Ġacquis":7609,"stÃ¨me":7610,"Ġ1929":7611,"Ġsouterraines":7612,"piration":7613,"effet":7614,"ĠbÃ©nÃ©fici":7615,"Ã©levage":7616,"2012":7617,"ĠMary":7618,"ĠdÃ©mission":7619,"ductions":7620,"Ãīquipe":7621,"Ġate":7622,"AF":7623,"iral":7624,"Ġlecture":7625,"Ġastron":7626,"ĠnÃ©o":7627,"nant":7628,"ĠmenÃ©e":7629,"estres":7630,"ĠHor":7631,"Ġinsc":7632,"ĠdÃ©chets":7633,"ĠNatura":7634,"Aux":7635,"Ġprogrammes":7636,"oÃ®t":7637,"Ġprolong":7638,"ĠGabriel":7639,"assÃ©":7640,"Ġflam":7641,"Laurent":7642,"Ġjazz":7643,"Ġfaibles":7644,"Ġdestruction":7645,"ĠÃ©trangers":7646,"Ġcourte":7647,"ĠCongrÃ¨s":7648,"Ã´ts":7649,"Ġgrave":7650,"Ġbanlieue":7651,"Ġtome":7652,"Ġmissions":7653,"Ġrespect":7654,"Ġallemands":7655,"extÃ©rieur":7656,"Ġsalles":7657,"Ã©lix":7658,"ĠMau":7659,"ĠAward":7660,"ĠDo":7661,"Ġplante":7662,"ĠAssociation":7663,"ilier":7664,"ĠchÃ¢te":7665,"93":7666,"ĠdÃ©bute":7667,"iÃ©es":7668,"Ġtrains":7669,"tudios":7670,"Ġenvers":7671,"RhÃ´ne":7672,"1918":7673,"ial":7674,"Ġfrapp":7675,"ĠFland":7676,"Ġmodern":7677,"levard":7678,"CarriÃ¨re":7679,"olet":7680,"rol":7681,"ĠprÃ©fecture":7682,"ĠrÃ©nov":7683,"Ed":7684,"issements":7685,"ernant":7686,"Ġpaysage":7687,"ĠexÃ©cu":7688,"ĠÃ©levÃ©e":7689,"autoritÃ©":7690,"Ġbarrage":7691,"Fer":7692,"lisabeth":7693,"artiste":7694,"ĠHal":7695,"tÃ©ph":7696,"sen":7697,"ĠMarguerite":7698,"Ġbrig":7699,"Ġtraite":7700,"obe":7701,"ArmÃ©e":7702,"Ġprofessionnelle":7703,"Ess":7704,"itÃ©e":7705,"ĠinstallÃ©":7706,"Calais":7707,"ĠAlex":7708,"ĠTitre":7709,"91":7710,"Ġcommerciales":7711,"ĠZe":7712,"scar":7713,"ĠEv":7714,"ĠRes":7715,"ĠdestinÃ©":7716,"ĠduchÃ©":7717,"icule":7718,"aniste":7719,"ĠGallimard":7720,"tte":7721,"dion":7722,"Ġmettant":7723,"ĠmonastÃ¨re":7724,"Ġlabor":7725,"Ġ1919":7726,"ĠArthur":7727,"DÃ¨s":7728,"ĠCompagnie":7729,"Ġethn":7730,"ĠInde":7731,"Ġ1793":7732,"diens":7733,"ĠVersailles":7734,"hommes":7735,"istribution":7736,"ĠConstitution":7737,"Ġcombin":7738,"ĠÃīdouard":7739,"ciÃ¨res":7740,"lines":7741,"aph":7742,"Ġcollectif":7743,"Ġadministratifs":7744,"ito":7745,"ĠBibliothÃ¨que":7746,"Ġporter":7747,"Ġsujets":7748,"ĠAra":7749,"Ġ1918":7750,"1995":7751,"ĠparallÃ¨le":7752,"quoi":7753,"Ġmob":7754,"Ã´mage":7755,"Sec":7756,"mentation":7757,"ĠrÃ©ussit":7758,"Ġvaut":7759,"ĠprÃ©sentent":7760,"prÃ©sident":7761,"ĠNancy":7762,"ĠlibÃ©ration":7763,"ĠExp":7764,"Ġmos":7765,"Ġchiffre":7766,"Ġspiritu":7767,"ĠSÃ©":7768,"ĠAns":7769,"Ġinfluenc":7770,"ĠJoe":7771,"ĠpÃ¨ler":7772,"ĠRD":7773,"Ġcatholiques":7774,"Ġsait":7775,"Ġaugmentation":7776,"Ġerre":7777,"fils":7778,"Ġreliant":7779,"Ġrare":7780,"Ġgaul":7781,"Ġsuccession":7782,"ĠMarine":7783,"Ġacte":7784,"Ġinternationales":7785,"arrÃª":7786,"Orig":7787,"ĠAux":7788,"Ġoutil":7789,"Ġsuivre":7790,"Ġabond":7791,".).":7792,"vad":7793,"gement":7794,"ĠPaci":7795,"Ġuniversitaire":7796,"Ġrester":7797,"Ġlo":7798,"ĠCast":7799,"dor":7800,"ĠGilles":7801,"Ġfeux":7802,"Ġpromotion":7803,"iden":7804,"Ġrecru":7805,"ĠRoch":7806,"ited":7807,"ida":7808,"Ġsalari":7809,"ĠRouen":7810,"ĠpersonnalitÃ©s":7811,"Ġ1925":7812,"Ġ*":7813,"Off":7814,"ĠHo":7815,"Ġbyz":7816,"Ġnombres":7817,"oncer":7818,"Ġdimanche":7819,"Ġporta":7820,"Ġorientale":7821,"emplaires":7822,"Ġsys":7823,"opp":7824,"à¸":7825,"Ġprises":7826,"ĠrÃ©ponse":7827,"hÃ´pital":7828,"ender":7829,"ĠLaval":7830,"mus":7831,"Ġrendent":7832,"Ġhameaux":7833,"armes":7834,"fait":7835,"ancement":7836,"Ġordin":7837,"Di":7838,"ĠconquÃªte":7839,"ĠMou":7840,"Ġconven":7841,"ĠcommÃ©m":7842,"ĠLog":7843,"ourne":7844,"rob":7845,"Ġdessins":7846,"Sources":7847,"awa":7848,"ĠFar":7849,"97":7850,"Maritime":7851,"ĠCri":7852,"Ġ160":7853,"ĠportÃ©e":7854,"ĠCastel":7855,"Ġfruits":7856,"arriÃ¨re":7857,"Ġcentres":7858,"Ġorb":7859,"ĠmatÃ©riaux":7860,"orientation":7861,"Ġterritoriale":7862,"Ġ1928":7863,"hel":7864,"Ġrecouv":7865,"orce":7866,"ĠMusic":7867,"Ġcapable":7868,"iÃ¨vre":7869,"Ġmens":7870,"ila":7871,"issait":7872,"ĠrÃ©ussi":7873,"Ã©dic":7874,"Ġsoup":7875,"Ã©raire":7876,"anglais":7877,"Ġorigine":7878,"ĠTok":7879,"Ġmontagnes":7880,"ĠrÃ©tab":7881,"ĠchÃ´mage":7882,"Ġmanuscrit":7883,"ĠHans":7884,"Ġartiste":7885,"ĠUniversity":7886,"ĠÃ©change":7887,"ĠAnth":7888,"ĠLove":7889,"ero":7890,"Australie":7891,"omique":7892,"Ġrepos":7893,"Ġnatur":7894,"lation":7895,"wan":7896,"Ġarchives":7897,"ĠXIXe":7898,"Ġarbus":7899,"Ġportug":7900,"Ġsugg":7901,"Ġincendi":7902,"Ġphilosophe":7903,"ĠÃ©toiles":7904,"Ġfen":7905,"ĠCur":7906,"Ġverre":7907,"audi":7908,"ĠRel":7909,"ĠPoi":7910,"aillon":7911,"Ġnul":7912,"ĠMadrid":7913,"oft":7914,"Ã©gal":7915,"Ã©quip":7916,"Ġdivin":7917,"adel":7918,"Ġund":7919,"ĠcoÃ»t":7920,"Ġ1924":7921,"Ġprovenant":7922,"tils":7923,"ĠcompÃ©ti":7924,"Ġdisparition":7925,"ĠrÃ©duire":7926,"ator":7927,"ĠQuelques":7928,"Ġconcerts":7929,"installe":7930,"Aquitaine":7931,"ĠSoleil":7932,"ĠCorÃ©e":7933,"1996":7934,"Vie":7935,"Ġdot":7936,"Champion":7937,"ool":7938,"Ġ1931":7939,"autoroute":7940,"citanie":7941,"Ġapprouv":7942,"Ġjaponaise":7943,"inverse":7944,"cemment":7945,"rÃ©sor":7946,"Ġchevaux":7947,"jan":7948,"Ġprofond":7949,"chÃ©es":7950,"ingÃ©n":7951,"ms":7952,"roits":7953,"ĠCorse":7954,"Ġmilit":7955,"ĠMetz":7956,"ĠrelÃ¨ve":7957,"Atlantique":7958,"ĠSyn":7959,"Ġvendre":7960,"Ġmilliers":7961,"apparition":7962,"pects":7963,"Ġissue":7964,"Ġnoter":7965,"Ġapplication":7966,"Ġchampions":7967,"ĠAdam":7968,"rÃ¨":7969,"ĠTous":7970,"avier":7971,"alg":7972,"ĠimmÃ©diatement":7973,"ĠSÃ©nat":7974,"Ġamp":7975,"Ġdirigeants":7976,"ĠStre":7977,"Ġcompter":7978,"SC":7979,"ĠparticipÃ©":7980,"Luc":7981,"Ġcrist":7982,"Ġsuffrages":7983,"mat":7984,"iement":7985,"ĠJuifs":7986,"ĠMort":7987,"ĠMade":7988,"Ġpollu":7989,"ĠFant":7990,"ĠPascal":7991,"lave":7992,"mbl":7993,"Ġretourn":7994,"Ġchaud":7995,"fond":7996,"ĠconfÃ©rence":7997,"rase":7998,"Ãīcrivain":7999,"ĠrÃ©duit":8000,"Ath":8001,"Ġnef":8002,"Ã©but":8003,"Ġformule":8004,"ĠStan":8005,"prises":8006,"Article":8007,"ĠrÃ©flex":8008,"Ġ120":8009,"saison":8010,"Ð¸":8011,"GÃ©ologie":8012,"ĠmÃ©lange":8013,"ThÃ©":8014,"Ġaustral":8015,"Ġouvre":8016,"Ġchacune":8017,"Ġtourne":8018,"Ġgratu":8019,"Pl":8020,"Ġ1910":8021,"emark":8022,"ĠprÃ©cÃ©dente":8023,"Ġboud":8024,"Ġprovoque":8025,"orial":8026,"Ġaide":8027,"Ġperspective":8028,"Ġreligieuses":8029,"Ġhor":8030,"Ġcomparer":8031,"ĠRoland":8032,"irurg":8033,"adies":8034,"Ġdocteur":8035,"ĠinfÃ©rieure":8036,"ĠZNIEFF":8037,"ĠvÃ©ri":8038,"ĠMol":8039,"ĠMusique":8040,"Ġdic":8041,"Ġpense":8042,"tifiÃ©":8043,"Ġrig":8044,"Ġprincesse":8045,"tÃ©rieures":8046,"ĠcomplÃ¨tement":8047,"ĠÃ©lectronique":8048,"Ġfinal":8049,"Ġpapier":8050,"Ġbesoins":8051,"ĠrÃ©volte":8052,"Ġapparition":8053,"meub":8054,"ocÃ©an":8055,"Ġconduite":8056,"nie":8057,"IIIe":8058,"ĠdÃ©ten":8059,"ĠexposÃ©":8060,"ĠprÃ©vu":8061,"Az":8062,"pÃ¨re":8063,"Ġprie":8064,"Ġtentative":8065,"hard":8066,"aleur":8067,"olith":8068,"ĠGusta":8069,"//":8070,"Ġquotidien":8071,"cus":8072,"ditÃ©":8073,"Cin":8074,"mier":8075,"Mais":8076,"incl":8077,"Ġunif":8078,"Ġbreton":8079,"raux":8080,"hen":8081,"Ġrenv":8082,"ovie":8083,"Ã©rÃ©es":8084,"Ġimage":8085,"ĠAnti":8086,"Ġcanicule":8087,"Ġmachine":8088,"Ġscru":8089,"Ġtran":8090,"Plusieurs":8091,"tain":8092,"Ġfixe":8093,"Ġremonte":8094,"taires":8095,"Ġtraditionnelle":8096,"ĠLorsque":8097,"ound":8098,"Ġciel":8099,"Ġtrouvait":8100,"PyrÃ©nÃ©es":8101,"ĠQuand":8102,"AlgÃ©rie":8103,"uns":8104,"Ġpeau":8105,"ĠÃ©labor":8106,"inture":8107,"Ãªts":8108,"Phili":8109,"Ġ51":8110,"ĠSau":8111,"lues":8112,"Ã£":8113,"ĠÃ©voque":8114,"ĠentrÃ©e":8115,"ĠChristophe":8116,"Ã¦":8117,"ĠDenis":8118,"Ġconscience":8119,"Ġvisible":8120,"ĠPra":8121,"usqu":8122,"Ġ1921":8123,"ĠHav":8124,"hem":8125,"Ġvien":8126,"ĠreprÃ©sentÃ©":8127,"Ġdiver":8128,"trÃ©mitÃ©":8129,"fense":8130,"Ġmaintenir":8131,"Ġcre":8132,"ologues":8133,"othique":8134,"Maur":8135,"Ġactive":8136,"Ġmerc":8137,"Ġ#":8138,"ĠnaÃ®t":8139,"ĠÃ¢gÃ©e":8140,"ĠcÃ©lÃ¨bres":8141,"Ġlev":8142,"pit":8143,"2013":8144,"sismicitÃ©":8145,"],":8146,"Ġsecours":8147,"Ġauraient":8148,"ĠPÃ©":8149,"ĠdÃ©roulant":8150,"emplacement":8151,"ruption":8152,"Ġ64":8153,"ĠalÃ©as":8154,"Å¡":8155,"Ġdavantage":8156,"EN":8157,"ĠassociÃ©e":8158,"ĠplacÃ©":8159,"illot":8160,"Ġessais":8161,"ĠempÃª":8162,"Ġtox":8163,"Ġpoissons":8164,"ilÃ©":8165,"ĠDictionnaire":8166,"ĠGro":8167,"gonflement":8168,"ela":8169,"ĠorganisÃ©e":8170,"Ã©ph":8171,"inform":8172,"unk":8173,"Ġdisposi":8174,"ĠChal":8175,"LaurÃ©at":8176,"rel":8177,"ĠcomplÃ©ment":8178,"1994":8179,"ĠrÃ©vÃ¨le":8180,"Ġinstitutions":8181,"Ġapparaissent":8182,"ĠHill":8183,"ĠlÃ©gislature":8184,"ĠDra":8185,"Po":8186,"Ġsymp":8187,"Ġlogement":8188,"Ġton":8189,"Ġdispositions":8190,"ĠReims":8191,"ĠBrig":8192,"Ġestim":8193,"Ġjusque":8194,"Ġrh":8195,"Bien":8196,"ĠPÃ©r":8197,"ĠDum":8198,"ĠmÃ©ri":8199,"Ġtroubles":8200,"Ġvrai":8201,"Ġsainte":8202,"ĠdÃ©bat":8203,"Georges":8204,"Ġtransformation":8205,"Ġpopulaires":8206,"romp":8207,"Ġlaisser":8208,"Ġprofondeur":8209,"Ġnoblesse":8210,"Ġ1927":8211,"ĠparticuliÃ¨re":8212,"ĠchrÃ©tiens":8213,"ands":8214,"ographies":8215,"ensive":8216,"Ġlait":8217,"ĠcavitÃ©s":8218,"Cor":8219,"ĠcÃ©rÃ©monie":8220,"iterranÃ©e":8221,"ĠMuseum":8222,"Ob":8223,"pellier":8224,"tuaire":8225,"Ã©taient":8226,"Ġprincipes":8227,"eron":8228,"Ġchronique":8229,"Ġchemins":8230,"ĠlimitÃ©":8231,"enregistre":8232,"Ġlatine":8233,"Ġsembl":8234,"ĠBonn":8235,"altern":8236,"hib":8237,"ĠSomme":8238,"1993":8239,"Ġsoleil":8240,"haus":8241,"cha":8242,"2014":8243,"ĠlocalisÃ©":8244,"fe":8245,"ĠMore":8246,"ĠBud":8247,"ĠcondamnÃ©":8248,"sifs":8249,"ivement":8250,"ĠLion":8251,"Ġpose":8252,"Ġmul":8253,"Ġcircuit":8254,"Ġnations":8255,"ĠMu":8256,"Ã©bas":8257,"augment":8258,"ĠConvention":8259,"usine":8260,"Ġvais":8261,"Ġdimension":8262,"ĠChaque":8263,"omination":8264,"lits":8265,"Ġmys":8266,"veu":8267,"ĠimpÃ©riale":8268,"Ġprisonniers":8269,"Ġ38":8270,"Ġbu":8271,"Ġremplacer":8272,"ĠsuccÃ¨de":8273,"Ġchamps":8274,"Bar":8275,"ĠÃītienne":8276,"Ġpeupl":8277,"field":8278,"Ġvec":8279,"hol":8280,"ĠOccitanie":8281,"Ġreliefs":8282,"istÃ¨re":8283,"ĠMaz":8284,"ĠspÃ©ciale":8285,"Ãīcosse":8286,"Ġpreuve":8287,"reurs":8288,"Ġpoursuiv":8289,"Ġraconte":8290,"Ġdrapeau":8291,"ĠdÃ©nomb":8292,"pire":8293,"Ġ1922":8294,"Ġachev":8295,"Ġ1790":8296,"well":8297,"attache":8298,"Ġtaxe":8299,"lia":8300,"Ã©taire":8301,"aki":8302,"Ġamen":8303,"ĠHongrie":8304,"Ġcalendrier":8305,"Ġintroduit":8306,"Ġenvah":8307,"ĠMul":8308,"etteur":8309,"ĠFr":8310,"Composition":8311,"ĠHauts":8312,"Ġdomes":8313,"Ġprovis":8314,"ĠthÃ¨se":8315,"ĠintÃ©rÃªt":8316,"Ġinstrument":8317,"ĠPou":8318,"culaire":8319,"ĠVall":8320,"ĠdÃ©bit":8321,"ĠRose":8322,"ĠdÃ©finit":8323,"ĠcitÃ©s":8324,"Ġmusicien":8325,"Ġtch":8326,"PR":8327,"clÃ©":8328,"enay":8329,"Ġliens":8330,"Ġdonnent":8331,"Ġbases":8332,"Ġbaron":8333,"Ġgermanique":8334,"dinand":8335,"ĠherbacÃ©e":8336,"Ġos":8337,"ĠInternet":8338,"Roy":8339,"ĠJulien":8340,"ĠUl":8341,"Ġdessous":8342,"wick":8343,"Ġrassemb":8344,"Ġhistoriens":8345,"ĠTours":8346,"Ġgre":8347,"ĠtrouvÃ©":8348,"Ġcitoyens":8349,"1945":8350,"ĠdrainÃ©e":8351,"ĠÃ©glises":8352,"ĠadaptÃ©":8353,"rophÃ©e":8354,"gÃ©s":8355,"Distin":8356,"Ġorage":8357,"Ġrem":8358,"Ġarchitectur":8359,"Ġhi":8360,"Ġobjectifs":8361,"ĠPC":8362,"Ġ37":8363,"ĠÃ©lo":8364,"zo":8365,"depuis":8366,"Ġpotentiel":8367,"Ġdue":8368,"anitÃ©":8369,"Ġcommiss":8370,"ardo":8371,"Ġcandidats":8372,"Ġauxque":8373,"ĠSk":8374,"ĠchrÃ©tienne":8375,"exÃ©c":8376,"ĠXIV":8377,"ĠBertrand":8378,"Ġaccepte":8379,"Ġquad":8380,"endaire":8381,"Ġsportive":8382,"Public":8383,"ouÃ©":8384,"Ã©crivain":8385,"Ġcycliste":8386,"ĠrÃ©cemment":8387,"Ġnationaux":8388,"Avant":8389,"Ġboue":8390,"Ġplant":8391,"ĠCir":8392,"ĠnÃ©cessaires":8393,"Ġenvirons":8394,"ĠStÃ©ph":8395,"ĠbasÃ©e":8396,"Ġinstruments":8397,"tiles":8398,"ĠDVD":8399,"Ġbran":8400,"istoires":8401,"Ġ1789":8402,"ĠrÃ´les":8403,"Ġ1912":8404,"ĠVit":8405,"ĠLeg":8406,"ĠHautes":8407,"Ġ52":8408,"Ã©difice":8409,"Ã©valuer":8410,"entrer":8411,"Eure":8412,"aumes":8413,"ĠRac":8414,"ĠÃīmile":8415,"Irlande":8416,"ĠScott":8417,"rion":8418,"ĠTarn":8419,"ĠspÃ©cifiques":8420,"Ġindustrielles":8421,"Ġfes":8422,"ĠTrÃ©":8423,"Ġexerc":8424,"ĠPS":8425,"ĠFront":8426,"Ġsports":8427,"ĠcongrÃ¨s":8428,"arin":8429,"Ġincar":8430,"onnÃ©s":8431,"arr":8432,"Ġsurveill":8433,"ĠBruno":8434,"Ġcontenu":8435,"ĠMarne":8436,"Organisation":8437,"ĠmÃ©tropol":8438,"Ġradon":8439,"ĠSanta":8440,"Ġec":8441,"ĠJud":8442,"1992":8443,"Ġcanadienne":8444,"Ġrepose":8445,"Ġcontro":8446,"ĠPu":8447,"Ã©bastien":8448,"hom":8449,"appe":8450,"Ġ75":8451,"Ġdeviendra":8452,"Ġsurf":8453,"ĠsystÃ©":8454,"ĠprieurÃ©":8455,"isÃ©s":8456,"ĠFrancisco":8457,"demment":8458,"rÃªts":8459,"ima":8460,"cio":8461,"ĠMontpellier":8462,"Ġindividus":8463,"ĠDanemark":8464,"onymie":8465,"ĠTro":8466,"://":8467,"itent":8468,"Ġmusiciens":8469,"agÃ©s":8470,"arthe":8471,"ĠNÃ©anmoins":8472,"OC":8473,"ria":8474,"Ġ42":8475,"Ġ1923":8476,"Ġblancs":8477,"Ġparcelle":8478,"Ġscrutin":8479,"oulins":8480,"automne":8481,"tille":8482,"Ġprofessionnels":8483,"Cont":8484,"ĠÐ":8485,"Ġpanne":8486,"quemment":8487,"Ġachet":8488,"',":8489,"2015":8490,"Ġchoses":8491,"tia":8492,"existe":8493,"left":8494,"Ġdoub":8495,"Ġdirecte":8496,"yb":8497,"Ġcanon":8498,"Ġsatis":8499,"ĠLiÃ¨ge":8500,"ĠLoc":8501,"ĠQuatre":8502,"ĠsÃ©v":8503,"Ãªques":8504,"ignÃ©":8505,"Ġlogiciel":8506,"oe":8507,"Ġcolonie":8508,"ulg":8509,"ĠLiv":8510,"ĠdÃ©cidÃ©":8511,"ffe":8512,"ĠdÃ©cÃ©dÃ©":8513,"Ġofficiers":8514,"App":8515,"Ġscand":8516,"ĠâĢł":8517,"Ġsimilaire":8518,"Ġconnexe":8519,"ĠHa":8520,"Ã´tes":8521,"ĠenvoyÃ©":8522,"Ġmaladies":8523,"Ġmilliards":8524,"Als":8525,"elier":8526,"enberg":8527,"Ġjur":8528,"Ġaugmentent":8529,"Ġbandes":8530,"RC":8531,"etz":8532,"igneur":8533,"Ġcercle":8534,"Ġpossession":8535,"ĠDal":8536,"impos":8537,"tations":8538,"ĠbÃ©nÃ©ficie":8539,"aka":8540,"Ġmoteurs":8541,"ĠThierry":8542,"Ġrapports":8543,"Ġsph":8544,"ĠLouise":8545,"Ġclassiques":8546,"ĠSociety":8547,"Sc":8548,"Ġrencontres":8549,"Ġtun":8550,"Ġdescription":8551,"ĠdirigÃ©e":8552,"Ġpauvre":8553,"oncle":8554,"aton":8555,"Ġplais":8556,"ĠHistor":8557,"Ġseraient":8558,"ĠLag":8559,"ĠWill":8560,"acÃ©es":8561,"ower":8562,"ĠoccupÃ©":8563,"ologiste":8564,"tics":8565,"ĠpÃ©r":8566,"ĠRon":8567,"Ġaval":8568,"Ġsingle":8569,"ĠintÃ¨gre":8570,"ĠTurquie":8571,"Ġcentaines":8572,"01":8573,"dt":8574,"ĠpersonnalitÃ©":8575,"intervention":8576,"olfe":8577,"cides":8578,"ĠBes":8579,"erturb":8580,"illiers":8581,"Ġ57":8582,"ĠMaj":8583,"ĠFour":8584,"Ġmenace":8585,"ĠSteph":8586,"ĠRomains":8587,"ÅĤ":8588,"row":8589,"miens":8590,"Ġcouvert":8591,"ĠJuan":8592,"ellent":8593,"ĠdÃ©mon":8594,"Ġweb":8595,"oureux":8596,"Ġsecret":8597,"interprÃ©":8598,"Ġartific":8599,"utiliser":8600,"Ġhong":8601,"ĠDer":8602,"ĠprÃ©senter":8603,"ĠdiamÃ¨tre":8604,"03":8605,"Ġremplace":8606,"lever":8607,"espÃ¨ces":8608,"Ġgenres":8609,"ĠTib":8610,"Ġcartographie":8611,"Ġapprend":8612,"exemple":8613,"Ġmam":8614,"Ġench":8615,"ĠÃ©quivalente":8616,"ufs":8617,"ĠSix":8618,"quier":8619,"ĠBourbon":8620,"Ġsuccesseur":8621,"Ġlour":8622,"ĠAlph":8623,"ĠDup":8624,"ulf":8625,"Ã©mi":8626,"Ġinformatique":8627,"Ġefficace":8628,"Ã©tranger":8629,"onnier":8630,"Ġcroy":8631,"Ġnette":8632,"cÃ©e":8633,"ĠdÃ©fait":8634,"Ġrevenus":8635,"ĠHow":8636,"Arc":8637,"ĠComb":8638,"ĠLamb":8639,"Ġcapital":8640,"Ġgrot":8641,"ĠaccompagnÃ©":8642,"rine":8643,"Ġtempor":8644,"ĠLap":8645,"ĠÃ©volution":8646,"Ġpur":8647,"ĠcompÃ©tences":8648,"Ġtir":8649,"Ġparticuliers":8650,"ĠNorv":8651,"ĠprÃ©cisÃ©ment":8652,"Ġprolonge":8653,"ixe":8654,"Rel":8655,"hl":8656,"zac":8657,"ĠTru":8658,"ĠConstantinople":8659,"gel":8660,"jection":8661,"ĠFay":8662,"Ġsyndicat":8663,"--":8664,"Ġeffectue":8665,"Ġrouges":8666,"ĠconÃ§u":8667,"ĠfrontiÃ¨res":8668,"ĠfrÃ©quence":8669,"extrÃªme":8670,"cycl":8671,"Ġpon":8672,"1990":8673,"Ġmonnaie":8674,"astron":8675,"ĠÃ©nerg":8676,"Ġneut":8677,"ĠtÃ¢":8678,"nis":8679,"Ġdangereuses":8680,"ĠRevue":8681,"Ġmoindre":8682,"sant":8683,"jac":8684,"Ġmauvais":8685,"rÃ©sentation":8686,"Ġrecueil":8687,"oriz":8688,"Ġfaute":8689,"ativement":8690,"Ġchoc":8691,"continental":8692,"Ġtitulaire":8693,"ĠvallÃ©es":8694,"Ġcrimin":8695,"Ġfrais":8696,"ĠcurÃ©":8697,"ĠColle":8698,"Ġforter":8699,"ymn":8700,"odore":8701,"ĠEugÃ¨ne":8702,"ressionn":8703,"ĠÃīcole":8704,"Ġroche":8705,"Ġbatterie":8706,"Ġadaptation":8707,"Ġmillion":8708,"ĠFal":8709,"opsis":8710,"Ġenter":8711,"-)":8712,"ĠMaine":8713,"quiert":8714,"ĠBle":8715,"ĠUniversitÃ©":8716,"isÃ©es":8717,"Ġaccueill":8718,"ava":8719,"Ġdiale":8720,"peur":8721,"Ġmagas":8722,"Ġproposition":8723,"tumes":8724,"obtenir":8725,"ĠAnglais":8726,"ĠdÃ©clarÃ©":8727,"Ġhautes":8728,"ĠEss":8729,"Ġcomprendre":8730,"orp":8731,"antique":8732,"Ġpartisans":8733,"Ġsouhaite":8734,"ĠfÃ©":8735,"ansion":8736,"ĠcomposÃ©s":8737,"Ã©rir":8738,"astiques":8739,"ĠNorth":8740,"ĠBarcel":8741,"Ġinstallations":8742,"tro":8743,"Ã©rations":8744,"dite":8745,"ĠfÃ©minine":8746,"Ġreprendre":8747,"Ã¼r":8748,"Ġfores":8749,"Certaines":8750,"Ġsis":8751,"Ġperformance":8752,"Mort":8753,"Doc":8754,"Ġpure":8755,"ositÃ©":8756,"Ġlaissant":8757,"naires":8758,"Ġintercommunale":8759,"ĠPlay":8760,"Ġfacteurs":8761,"Ġvot":8762,"trise":8763,"ĠpÃ©":8764,"ĠpoÃ©sie":8765,"otype":8766,"Nic":8767,"Ġperturb":8768,"Ġactif":8769,"tÃ©rieurs":8770,"tÃ©ritÃ©":8771,"expÃ©rience":8772,"ĠfÃªtes":8773,"venu":8774,"ĠVos":8775,"Ðµ":8776,"Ġbourgeois":8777,"ĠdestinÃ©e":8778,"ĠÃ©mission":8779,"Ġbateau":8780,"ĠprÃ©sentant":8781,"ĠWall":8782,"ĠEli":8783,"ÃŃa":8784,"pie":8785,"Ġcontemporain":8786,"ĠGh":8787,"osh":8788,"Ãīlections":8789,"ComtÃ©":8790,"Alsace":8791,"Ġvertic":8792,"engage":8793,"ĠBrown":8794,"Ġfrancs":8795,"ĠJones":8796,"ĠForce":8797,"Ġchiffres":8798,"arrÃªt":8799,"Ġjuridique":8800,"Ġavions":8801,"Ġrenouvel":8802,"Ġ1917":8803,"umine":8804,"ĠsixiÃ¨me":8805,"terr":8806,"alternance":8807,"Ġtechnologiques":8808,"ĠVoy":8809,"astre":8810,"Nom":8811,"dification":8812,"Ġdomination":8813,"ĠVII":8814,"oche":8815,"Ġtouristique":8816,"ĠdÃ©terminer":8817,"Ġobligatoire":8818,"Ġbouddh":8819,"implant":8820,"ĠcoulÃ©es":8821,"Ġcampagnes":8822,"Ġprovisoire":8823,"ailli":8824,"antill":8825,"Ġtoponyme":8826,"Ġ1833":8827,"rue":8828,"Ġchirurg":8829,"ĠthÃ¨mes":8830,"rairement":8831,"Ġviennent":8832,"Ġ44":8833,"ĠFootball":8834,"Ġpieds":8835,"Ġvide":8836,"Ġjardins":8837,"Ġ39":8838,"ĠReich":8839,"Ġparticul":8840,"Ġciter":8841,"Ã©crit":8842,"ĠTemple":8843,"ĠmontÃ©e":8844,"ĠpÃ©dagog":8845,"Ġaccessible":8846,"ĠÅ":8847,"Ġvirus":8848,"ĠFlorence":8849,"ĠconsÃ©quences":8850,"ĠDre":8851,"Ġfavorable":8852,"ĠVirgin":8853,"Ġparent":8854,"ĠBlanc":8855,"Min":8856,"Ġarbres":8857,"DF":8858,"ĠAmÃ©ric":8859,"Ġconstruits":8860,"Ġvaisseau":8861,"ĠJam":8862,"lÃ©s":8863,"ĠrÃ©form":8864,"rette":8865,"Ġarbustive":8866,"ycl":8867,"Ġremplacement":8868,"Sy":8869,"Ġ1913":8870,"ueur":8871,"ĠFranÃ§oise":8872,"Ġhumaines":8873,"cial":8874,"Ġrelative":8875,"application":8876,"1989":8877,"Ġdoctr":8878,"endrer":8879,"ĠfrÃ©quemment":8880,"uge":8881,"Hom":8882,"Ġcommen":8883,"quisition":8884,"Acc":8885,"ĠCN":8886,"Ġlogique":8887,"Ġbaie":8888,"ĠDj":8889,"ĠrÃ©union":8890,"ĠMess":8891,"ĠInd":8892,"ĠCher":8893,"Ġsensiblement":8894,"ĠrÃ©duction":8895,"stra":8896,"illons":8897,"Ġstatistique":8898,"Ġmoines":8899,"ipel":8900,"EE":8901,"ĠSun":8902,"Ġtechnologie":8903,"Ġlongues":8904,"Ġvoitures":8905,"alisÃ©es":8906,"Ġsolaire":8907,"ĠprivilÃ©g":8908,"Ġroues":8909,"aujourd":8910,"Ġarc":8911,"Ġcyc":8912,"avion":8913,"ĠMadame":8914,"Ġfre":8915,"Ġrappro":8916,"ĠGreen":8917,"Ġfief":8918,"ulent":8919,"Ġnoc":8920,"Ġministres":8921,"Ã£o":8922,"2017":8923,"ĠLiber":8924,"Ġgris":8925,"Ġlicence":8926,"Ġformant":8927,"ĠrÃ©sist":8928,"Ġmettent":8929,"Ġprovient":8930,"ĠintermÃ©diaire":8931,"isses":8932,"Ġsculpteur":8933,"ĠexpÃ©rience":8934,"ĠTony":8935,"ĠrenommÃ©e":8936,"ĠRoman":8937,"1991":8938,"Ġart":8939,"Nord":8940,"Ġmaternelle":8941,"ĠLud":8942,"tz":8943,"alisateur":8944,"2016":8945,"Ġopposition":8946,"Ġcantonal":8947,"Ġminimum":8948,"ĠBau":8949,"Ġmachines":8950,"Ġmaximale":8951,"ĠHarry":8952,"Ġel":8953,"ĠPla":8954,"nier":8955,"Ġaugmente":8956,"ĠAz":8957,"ĠFried":8958,"Ġ300":8959,"inson":8960,"Ġabrit":8961,"artillerie":8962,"ĠboÃ®":8963,"OR":8964,"ĠstratÃ©gie":8965,"Ġrural":8966,"ĠMand":8967,"clav":8968,"ĠcÃ´tes":8969,"ĠDol":8970,"enteur":8971,"Ġlourd":8972,"Ġsable":8973,"ĠdÃ©diÃ©e":8974,"Ġcrit":8975,"ĠCertaines":8976,"idi":8977,"Ġspatiale":8978,"ĠCongo":8979,"ĠTunis":8980,"Roman":8981,"ĠFra":8982,"Ġmises":8983,"Ġtrip":8984,"ĠpubliÃ©s":8985,"Ã©ritage":8986,"ĠWood":8987,"ramm":8988,"Ġcouche":8989,"Ġchinoise":8990,"inal":8991,"orta":8992,"Ġcompagnies":8993,"Ġsortir":8994,"ĠTu":8995,"Ġlancement":8996,"ĠDivision":8997,"rez":8998,"ubert":8999,"ĠSor":9000,"ĠShe":9001,"oung":9002,"Philippe":9003,"neau":9004,"ĠGran":9005,"Ġfoi":9006,"ronyme":9007,"eneuve":9008,"Ġvoisine":9009,"Ġsubit":9010,"Arm":9011,"Ġgraves":9012,"Ġcontrairement":9013,"Ġpolonais":9014,"Ġdisponibles":9015,"Ġurbain":9016,"ĠMÃ©diterranÃ©e":9017,"Ġ1911":9018,"DÃ©":9019,"ĠaÃ©ro":9020,"aband":9021,"Tour":9022,"ĠMario":9023,"Ġrappelle":9024,"ĠAvant":9025,"ĠEmmanuel":9026,"vidence":9027,"mant":9028,"Ġplur":9029,"ĠTop":9030,"ĠsÃ©paration":9031,"Ġvilla":9032,"Ġcancer":9033,"ĠinÃ©d":9034,"Gen":9035,"GE":9036,"Ġinternationaux":9037,"Ġmixte":9038,"Ġcur":9039,"Ġpartiellement":9040,"Ġbanc":9041,"Ġlire":9042,"ĠcatÃ©gories":9043,"ĠdÃ©signÃ©":9044,"Ġhistorien":9045,"ĠFernand":9046,"appellation":9047,"Christ":9048,"illac":9049,"Agriculture":9050,"Ġbasket":9051,"ĠpossÃ¨dent":9052,"ĠCah":9053,"chon":9054,"citan":9055,"Ġarb":9056,"Ġdan":9057,"Ġchauff":9058,"TA":9059,"alors":9060,"ĠdiffusÃ©":9061,"sch":9062,"Ġvoyageurs":9063,"Ã©rien":9064,"ĠopÃ©ration":9065,"Ġisra":9066,"Ġsanc":9067,"Ġboulevard":9068,"ĠdegrÃ©":9069,"pent":9070,"garde":9071,"Filmographie":9072,"luant":9073,"Ġpuisse":9074,"ĠcollÃ¨":9075,"ĠÃ©tudie":9076,"Ã©quilibre":9077,"ĠDÃ©m":9078,"Ġbattu":9079,"ĠÃ©missions":9080,"Ġprenant":9081,"isne":9082,"Ġenvoie":9083,"Ġcabinet":9084,"plus":9085,"Ġcommerciale":9086,"ĠCode":9087,"ĠSac":9088,"objectif":9089,"Ġsignifiant":9090,"ev":9091,"Ġformations":9092,"ĠÃ¨":9093,"asy":9094,"Ġimportance":9095,"Ġrecommand":9096,"ĠpÃ¢":9097,"Ġmontrent":9098,"communalitÃ©":9099,"ĠBach":9100,"ingue":9101,"Ġsoix":9102,"ĠBasse":9103,"Ġplat":9104,"ĠPrÃ©sident":9105,"Ġgren":9106,"ĠSpe":9107,"Ġchoisit":9108,"Ind":9109,"loy":9110,"AriÃ¨ge":9111,"IA":9112,"ĠCharl":9113,"Ã©loignement":9114,"Ġprimi":9115,"Ġillustra":9116,"claves":9117,"ĠBad":9118,"ston":9119,"Ã¨nement":9120,"enci":9121,"Ġsoutient":9122,"domad":9123,"historien":9124,"ĠHab":9125,"rÃ¨te":9126,"Ġconstructions":9127,"ĠIb":9128,"oppos":9129,"bÃ©":9130,"ĠViv":9131,"Ġcaf":9132,"Ġparoles":9133,"Ġvern":9134,"Ġparoissiale":9135,"Ġvas":9136,"opie":9137,"Ġber":9138,"aussÃ©e":9139,"amÃ©liorer":9140,"Ġsurnom":9141,"Ġconnues":9142,"Ġprit":9143,"ĠVic":9144,"Ġtroupe":9145,"ĠKarl":9146,"ĠAffaires":9147,"Ġsab":9148,"chy":9149,"ĠadoptÃ©":9150,"Ã©conom":9151,"ĠpÃ©riph":9152,"Ġvendu":9153,"Ġclin":9154,"ĠdÃ©fendre":9155,"dez":9156,"ĠcinÃ©mat":9157,"Ġrevenir":9158,"ĠKir":9159,"Ġconcurrence":9160,"dun":9161,"bdomad":9162,"habitants":9163,"ĠAustralie":9164,"Ġretourne":9165,"ĠpoÃ¨mes":9166,"bat":9167,"inondation":9168,"itter":9169,"ĠAuvergne":9170,"Su":9171,"Ġnorme":9172,"ĠIr":9173,"ĠChab":9174,"Ġpel":9175,"endo":9176,"ĠLeon":9177,"contre":9178,"Distinctions":9179,"Ġinvent":9180,"impose":9181,"ĠhÃ©b":9182,"venus":9183,"dÃ©partement":9184,"ĠemployÃ©":9185,"Ġmusulman":9186,"ĊĠĠ":9187,"Ġventes":9188,"phabet":9189,"ĠFred":9190,"Ġextension":9191,"agnos":9192,"Ã©lÃ¨ne":9193,"ĠAmb":9194,"ĠAsie":9195,"Ġtenue":9196,"ĠTechn":9197,"ĠTy":9198,"Ġcouvre":9199,"Ġanalys":9200,"Ġcourses":9201,"ĠAf":9202,"ĠrÃ©partis":9203,"ĠrÃ©guliÃ¨re":9204,"ĠdÃ©fend":9205,"orchestre":9206,"Ġ1905":9207,"Ġott":9208,"ĠChampagne":9209,"Ġtub":9210,"lissement":9211,"Ġdistingu":9212,"Ġsolo":9213,"ĠmatÃ©riau":9214,"ĠHugo":9215,"Station":9216,"champ":9217,"Ġassurer":9218,"OT":9219,"yan":9220,"ĠmontrÃ©":9221,"Ġdig":9222,"quette":9223,"ortÃ©s":9224,"Ġrach":9225,"ĠWalter":9226,"ĠPetite":9227,"CC":9228,"Ġsimples":9229,"text":9230,"Ġanth":9231,"Ġnotes":9232,"ĠRoc":9233,"ĠBarcelone":9234,"ĠÃ©tapes":9235,"Ġexploitations":9236,"Ãītats":9237,"Ġchercheurs":9238,"intes":9239,"thi":9240,"ĠrÃ©vÃ©l":9241,"ĠparaÃ®t":9242,"trait":9243,"Ġfournit":9244,"athan":9245,"nam":9246,"ĠrÃ©publicain":9247,"Ã©lu":9248,"cile":9249,"ĠÃ©val":9250,"ĠVin":9251,"odie":9252,"bie":9253,"ĠÃ©tro":9254,"Ġsignific":9255,"feu":9256,"Ġcompil":9257,"ĠÃ©quipements":9258,"ĠenregistrÃ©":9259,"ligne":9260,"teaux":9261,"ĠKen":9262,"Ġlittoral":9263,"Ġcommencent":9264,"Ġgagner":9265,"Ġneur":9266,"ĠNobel":9267,"ĠSans":9268,"ĠFlam":9269,"pa":9270,"Ġvariable":9271,"Ġdispute":9272,"ĠannoncÃ©":9273,"ĠAlli":9274,"Bois":9275,"ĠLettres":9276,"Ġtransmission":9277,"Ã¨vres":9278,"sibles":9279,"yste":9280,"Ġ1908":9281,"rif":9282,"autant":9283,"ouc":9284,"Ġ55":9285,"mosphÃ¨re":9286,"Ġmarais":9287,"ĠAntonio":9288,"ĠperÃ§":9289,"ĠpoÃ¨me":9290,"Ġtransp":9291,"Ġpeintures":9292,"olle":9293,"rasse":9294,"oigne":9295,"Ġterrestre":9296,"ache":9297,"ĠÃİle":9298,"Ġtableaux":9299,"Ġconfront":9300,"tiss":9301,"ergence":9302,"Ġanalyse":9303,"Ġrarement":9304,"Ġtechnologique":9305,"ĠRem":9306,"ercice":9307,"ĠRoss":9308,"Ġtenir":9309,"ĠSteve":9310,"Aisne":9311,"ĠresponsabilitÃ©":9312,"TÃ©lÃ©":9313,"UN":9314,"ĠBaud":9315,"ĠagglomÃ©ration":9316,"ĠÃ©ditÃ©":9317,"ĠlaissÃ©":9318,"ĠmÃª":9319,"ĠmÃ©diÃ©vale":9320,"Ġlancer":9321,"Ġcolline":9322,"Ġrand":9323,"ĠproposÃ©":9324,"ĠlinÃ©":9325,"Ġconstituant":9326,"Ã¨vre":9327,"Ġrelais":9328,"ĠprÃ©nom":9329,"Ġ41":9330,"dal":9331,"EM":9332,"ĠBrian":9333,"ĠprÃ©paration":9334,"Ġchristi":9335,"Ġviolence":9336,"Jo":9337,"ĠamÃ©ricaines":9338,"Ġcommerces":9339,"Ġsemblent":9340,"doc":9341,"Ġexposition":9342,"Ġsen":9343,"ilique":9344,"Ġom":9345,"Ã©ens":9346,"ĠNov":9347,"ĠHit":9348,"ĠWilliams":9349,"olithique":9350,"Ġsurmont":9351,"ĠattribuÃ©":9352,"ĠLy":9353,"Ġmarins":9354,"ĠapprÃ©ci":9355,"Enf":9356,"otamment":9357,"Ġbiais":9358,"ĠGilbert":9359,"Ġfouilles":9360,"06":9361,"unt":9362,"Alexandre":9363,"Ġimprim":9364,"ĠgoÃ»t":9365,"titudes":9366,"ep":9367,"ii":9368,"Ġperformances":9369,"veyron":9370,"Cal":9371,"Ġrecevoir":9372,"RS":9373,"Ã©lande":9374,"Ġjournaux":9375,"Ġpourquoi":9376,"actuel":9377,"uma":9378,"ĠCorn":9379,"Ġfigures":9380,"05":9381,"ĠconsacrÃ©e":9382,"Ġveille":9383,"ĠMoselle":9384,"Ġempereur":9385,"outes":9386,"ĠFondation":9387,"ĠsÃ©lections":9388,"ĠalliÃ©s":9389,"Ġoub":9390,"1988":9391,"ĠdifficultÃ©":9392,"acts":9393,"ĠJohnson":9394,"ĠÃ©coss":9395,"Ġgalerie":9396,"anz":9397,"Marc":9398,"02":9399,"xe":9400,"Ġsoumis":9401,"atures":9402,"tish":9403,"ressions":9404,"ĠPacifique":9405,"ĠprocÃ©dÃ©":9406,"ĠPrince":9407,"Ġconqu":9408,"Ġ43":9409,"Ġmou":9410,"ĠFerdinand":9411,"ĠmÃ©l":9412,"Ã¼n":9413,"ĠÃ©chec":9414,"initiative":9415,"Ġintra":9416,"engendrer":9417,"Ġmasculin":9418,"quide":9419,"ĠÃ©lectoral":9420,"1986":9421,"Ġautonome":9422,"aissant":9423,"ĠVau":9424,"ĠFu":9425,"Ġcoups":9426,"ĠUnion":9427,"Ã©dÃ©e":9428,"Ġessai":9429,"ĠBritanniques":9430,"tempÃªte":9431,"Ġparfaite":9432,"ĠmÃ©trage":9433,"ĠBa":9434,"ĠDauph":9435,"Ġneu":9436,"ilien":9437,"Ġouvriers":9438,"ciennes":9439,"Acteur":9440,"ĠvÃ©cu":9441,"Ġnomination":9442,"eller":9443,"Ġadministratives":9444,"Ġcarbone":9445,"Ġcolonies":9446,"ĠÃ®le":9447,"rik":9448,"Ġsoli":9449,"Ġcouches":9450,"Ġsecondes":9451,"ĠPers":9452,"Ġchampionnats":9453,"ject":9454,"Ren":9455,"Ġpositions":9456,"Ġruines":9457,"Conc":9458,"ĠWat":9459,"ĠCad":9460,"ĠSup":9461,"opin":9462,"aker":9463,"ĠsuÃ©dois":9464,"rolog":9465,"qua":9466,"Ġphotographie":9467,"med":9468,"allÃ¨lement":9469,"Albert":9470,"cor":9471,"ladi":9472,"ãģ":9473,"ardie":9474,"Ġassis":9475,"hann":9476,"cool":9477,"Ġquarante":9478,"ĠGiov":9479,"ona":9480,"vitÃ©":9481,"round":9482,"Ġplaque":9483,"Ġ47":9484,"Ġinscrite":9485,"Ard":9486,"Ġattendre":9487,"ĠAmerican":9488,"Ġcinquante":9489,"ĠintitulÃ©e":9490,"roir":9491,"onna":9492,"Ġlibres":9493,"Ġconvainc":9494,"Anjou":9495,"Ġsuivent":9496,"ĠHerm":9497,"areil":9498,"Ġtraditionnel":9499,"Ã©change":9500,"Ġgross":9501,"ouz":9502,"Ġvivent":9503,"Ġbra":9504,"tifier":9505,"ĠMach":9506,"Ġpostes":9507,"urrection":9508,"Ã©nario":9509,"ĠÃ©lectoraux":9510,"ĠTw":9511,"Ġhect":9512,"Ġautomatique":9513,"dan":9514,"ĠJane":9515,"ĠNorvÃ¨ge":9516,"orat":9517,"ĠprÃ©s":9518,"agi":9519,"ĠfÃ©dÃ©rale":9520,"Ġjet":9521,"issi":9522,"ĠextrÃªmement":9523,"chard":9524,"oste":9525,"ĠJul":9526,"Lang":9527,"avie":9528,"ĠassociÃ©s":9529,"Ġsecteurs":9530,"ĠLangue":9531,"Ġislam":9532,"ĠSel":9533,"itan":9534,"Ġdieux":9535,"Ġalent":9536,"lisation":9537,"chesse":9538,"ĠÃ©trangÃ¨re":9539,"ĠMÃ©daille":9540,"Ã©lectricitÃ©":9541,"oges":9542,"ĠcarrÃ©":9543,"Cependant":9544,"Ġgamme":9545,"ĠsÃ©jour":9546,"Ġcourants":9547,"ĠWhite":9548,"kov":9549,"ĠPÃ¨re":9550,"Ġvoient":9551,"ĠGaronne":9552,"ĠMoulin":9553,"ĠprÃ©fet":9554,"ĠÃ©dit":9555,"iliers":9556,"ĠlimitÃ©e":9557,"ĠLav":9558,"Ġconseils":9559,"Ġchaleur":9560,"Ġconstante":9561,"Ġflor":9562,"Ġtension":9563,"ĠLive":9564,"ĠCitÃ©":9565,"ĠIm":9566,"ĠinterprÃ¨te":9567,"ĠBlo":9568,"illus":9569,"à¤":9570,"olphe":9571,"clÃ©si":9572,"ĠprÃ©sentes":9573,"Ġdanger":9574,"Ġrace":9575,"Ġcouvent":9576,"Ġutilisation":9577,"Ġconstituer":9578,"mÃ¨re":9579,"Ġclient":9580,"Ġpossibles":9581,"Ġasc":9582,"ĠManuel":9583,"Ġindividuelles":9584,"Ġdizaine":9585,"Ġviolon":9586,"ĠgÃ©nÃ©tique":9587,"vail":9588,"Ġsuici":9589,"Ġ1860":9590,"ĠÃīg":9591,"ĠHaw":9592,"aventure":9593,"Ġphon":9594,"Ġ400":9595,"Ġ1801":9596,"ormes":9597,"ĠcoÃ»":9598,"ĠprÃ©cision":9599,"ĠOl":9600,"span":9601,"ĠLas":9602,"Ġcharges":9603,"Ġretard":9604,"lame":9605,"ody":9606,"alimentation":9607,"Ġcomplexes":9608,"Ġnoirs":9609,"enait":9610,"entiss":9611,"Ġconsacre":9612,"ittÃ©ra":9613,"jamin":9614,"ĠdÃ©finie":9615,"ĠidÃ©e":9616,"ocrate":9617,"Ġtardi":9618,"Ġpropag":9619,"endes":9620,"Ġencou":9621,"mir":9622,"aparte":9623,"Ġmorceaux":9624,"oureuse":9625,"umul":9626,"Ġchamb":9627,"ulier":9628,");":9629,"ĠfinanciÃ¨re":9630,"ĠfÃ©dÃ©ration":9631,"nature":9632,"ĠRub":9633,"ĠLie":9634,"Ġjuive":9635,"Ġfaux":9636,"bonne":9637,"ĠdiffÃ©rente":9638,"ĠarrÃªt":9639,"Entra":9640,"100":9641,"tÃ©roÃ¯":9642,"Ġterritorial":9643,"ĠinaugurÃ©":9644,"vous":9645,"Ġconserver":9646,"ĠPres":9647,"ĠmÃ©ridion":9648,"ĠBut":9649,"Ġconflits":9650,"ĠrÃ©putation":9651,"Ġ1907":9652,"Ġ49":9653,"ĠengagÃ©":9654,"ouin":9655,"ĠÃ©diteur":9656,"Situation":9657,"hÃ©tique":9658,"Ġcircon":9659,"Ġoutils":9660,"cesseur":9661,"aÃ¯que":9662,"ĠdiversitÃ©":9663,"ĠSS":9664,"ĠBenoÃ®t":9665,"ĠĠĠĠĠĠĠĠĠĠĠĠ":9666,"ĠArd":9667,"ĠDuc":9668,"rison":9669,"Ġlinguistique":9670,"opold":9671,"Ġrapproche":9672,"ĠRoumanie":9673,"Ġremarquables":9674,"bs":9675,"jug":9676,"Ġpaysans":9677,"Ġvins":9678,"ĠarchÃ©ologique":9679,"ĠSA":9680,"Ġsurfaces":9681,"licitÃ©":9682,"ĠrÃ©daction":9683,"Ġtire":9684,"estes":9685,"Ġanimal":9686,"Ã¨vement":9687,"ĠprÃ©d":9688,"ĠIsabelle":9689,"Ġresponsables":9690,"Ġtriom":9691,"alition":9692,"ĠMeilleure":9693,"itres":9694,"Ġsolid":9695,"Ġsuivie":9696,"Ġ1906":9697,"ĠLibÃ©ration":9698,"prÃªme":9699,"ocation":9700,"Ġfame":9701,"Ġign":9702,"\":":9703,"ĠGame":9704,"ĠCanal":9705,"ĠirrÃ©":9706,"sives":9707,"ĠdÃ©truite":9708,"Ġenseigne":9709,"ĠdÃ©diÃ©":9710,"icale":9711,"ĠRouge":9712,"Ġattaques":9713,"Ġgri":9714,"venue":9715,"Distribution":9716,"Ġremise":9717,"Ġallemandes":9718,"ĠGouver":9719,"igration":9720,"UE":9721,"ventions":9722,"Ġliquide":9723,"Ġquoi":9724,"Trois":9725,"Ġmini":9726,"Ġhonor":9727,"Ġchanger":9728,"Ġsignes":9729,"ĠCannes":9730,"ĠLew":9731,"ĠrÃ©alisÃ©s":9732,"ĠÃ¢gÃ©":9733,"sectes":9734,"ĠDÃ©fense":9735,"ĠMid":9736,"ology":9737,"Ġcordes":9738,"Ġnoyau":9739,"Ġmeur":9740,"Ġtravailleurs":9741,"Ġcollections":9742,"Ġ53":9743,"ĠmaÃ®trise":9744,"house":9745,"Ġbilan":9746,"Ġ46":9747,"tume":9748,"aÃ¯s":9749,"ĠreprÃ©senter":9750,"ĠTroisiÃ¨me":9751,"ĠErnest":9752,"ĠWindows":9753,"PC":9754,"insule":9755,"...)":9756,"ainissement":9757,"Ġtuer":9758,"Ġunies":9759,"ingen":9760,"Ġ1848":9761,"Ġdimensions":9762,"Ġdisques":9763,"Ġexplor":9764,"ĠaÃ®nÃ©":9765,"ĠBet":9766,"ĠDeb":9767,"Ġendroit":9768,"ĠdiplÃ´me":9769,"illard":9770,"ĠinterprÃ©tÃ©":9771,"Ãªne":9772,"Ġforteresse":9773,"uba":9774,"emme":9775,"ĠJackson":9776,"Ġpertes":9777,"SaÃ´ne":9778,"04":9779,"Ġarchitecte":9780,"Ġproclam":9781,"Ġbrill":9782,"ĠServ":9783,"ĠFÃ©lix":9784,"lÃ¨vement":9785,"ĠapprouvÃ©":9786,"utive":9787,"Ġchimique":9788,"cour":9789,"fa":9790,"ink":9791,"Ġ1880":9792,"ĠGaston":9793,"URSS":9794,"ĠSing":9795,"Ġlimitrophe":9796,"ple":9797,"ĠPorte":9798,"ĠCaen":9799,"Ġdevenant":9800,"ĠrÃ©unit":9801,"Ġphysiques":9802,"ĠÃ©chelle":9803,"Ġavion":9804,"ĠBret":9805,"atri":9806,"Ġconfiance":9807,"ĠdÃ©veloppÃ©e":9808,"Ġorganisations":9809,"difices":9810,"Ġduquel":9811,"ĠJeff":9812,"Ġduo":9813,"ouvement":9814,"ĠdÃ©couvertes":9815,"Ġinscrits":9816,"mif":9817,"erger":9818,"Ġpassagers":9819,"1985":9820,"ĠBassin":9821,"ĠsupplÃ©mentaires":9822,"comm":9823,"una":9824,"ĠChau":9825,"ĠinhumÃ©e":9826,"urance":9827,"ĠdÃ©cis":9828,"appro":9829,"institu":9830,"ĠOt":9831,"ĠdÃ©couvrir":9832,"ilde":9833,"ĠCollege":9834,"ĠPot":9835,"ĠemployÃ©s":9836,"ollywood":9837,"ĠFlandre":9838,"ĠBataille":9839,"Sta":9840,"uÃ©e":9841,"Ġparticules":9842,"ĠnÃ©cessitÃ©":9843,"ĠMot":9844,"Ġ1830":9845,"Ġ1909":9846,"Ġsurvenues":9847,"ĠVallÃ©e":9848,"Ġcommis":9849,"roc":9850,"ĠBÃ¢":9851,"Ġapprofon":9852,"ĠarrivÃ©e":9853,"Ġrapporte":9854,"Ġfera":9855,"2018":9856,"Ġverts":9857,"ĠprÃ©sentation":9858,"Ġbateaux":9859,"Ġcroise":9860,"ientÃ´t":9861,"ĠdÃ©cennies":9862,"ouvoir":9863,"exÃ©cution":9864,"Ġvicom":9865,"neurs":9866,"appelle":9867,"ĠSyrie":9868,"actrice":9869,"color":9870,"ĠconsÃ©c":9871,"entures":9872,"ĠOne":9873,"ĠvÃ©lo":9874,"uta":9875,"ĠprogrÃ¨s":9876,"ĠinstallÃ©e":9877,"Ġuniversitaires":9878,"ĠdÃ©bar":9879,"erÃ§":9880,"ZÃ©lande":9881,"ĠlÃ©ger":9882,"ĠRic":9883,"ĠEc":9884,"ĠabandonnÃ©":9885,"ĠVosges":9886,"yt":9887,"Ġrose":9888,"mal":9889,"ĠRiviÃ¨re":9890,"ĠCli":9891,"assassin":9892,"viation":9893,"ĠĊĊĠĊ":9894,"Ġrecours":9895,"ID":9896,"1987":9897,"Ġavocat":9898,"ĠTokyo":9899,"Ġprosp":9900,"kraine":9901,"ĠhÃ´te":9902,"Ġstric":9903,"ĠspÃ©cialiste":9904,"1980":9905,"Log":9906,"Ġ65":9907,"ĠspÃ©cial":9908,"Ġmythologie":9909,"aticien":9910,"Ġdestination":9911,"mois":9912,"tudes":9913,"ĠDidier":9914,"Ġpuissant":9915,"Ġennemis":9916,"Ġcesse":9917,"entiels":9918,"office":9919,"Ġmusulmans":9920,"ĠgÃ©ologique":9921,"Ġlaboratoire":9922,"ĠManche":9923,"ĠchaÃ®nes":9924,"Rhin":9925,"attachements":9926,"ĠDay":9927,"ĠFord":9928,"Ġsignature":9929,"2019":9930,"ĠGolden":9931,"Nicolas":9932,"acitÃ©s":9933,"Imp":9934,"ĠLondon":9935,"Ġvar":9936,"aincu":9937,"Jumel":9938,"loie":9939,"Ġ1901":9940,"apper":9941,"Transports":9942,"Ġlu":9943,"Ġchor":9944,"Ġanglo":9945,"ĠcÃ©ra":9946,"ĠSciences":9947,"ĠSaÃ´ne":9948,"huit":9949,"Ġconfirme":9950,"ĠXIII":9951,"ĠRav":9952,"Ġvoisins":9953,"Ġarme":9954,"orith":9955,"onction":9956,"ĠAst":9957,"ĠCeci":9958,"IIe":9959,"Ġcardi":9960,"ĠBonaparte":9961,"ĠKim":9962,"Ġcomparaison":9963,"ffis":9964,"Ð½":9965,"Ġpin":9966,"ĠMunich":9967,"ĠconsidÃ©rÃ©s":9968,"Ġsty":9969,"ĠPoli":9970,"abil":9971,"Ġexistent":9972,"yramide":9973,"ĠindÃ©pendante":9974,"ĠAh":9975,"Ġconvention":9976,"ĠbactÃ©":9977,"Ġdiscipline":9978,"Ġenti":9979,"ĠGare":9980,"Quel":9981,"essentiel":9982,"Ġvise":9983,"via":9984,"ĠCav":9985,"Ġadjoint":9986,"ĠcompÃ©titions":9987,"ÑĢ":9988,"ĠStÃ©phane":9989,"ĠÃ©lÃ¨ve":9990,"ĠAur":9991,"ĠsÃ©di":9992,"ĠSamuel":9993,"rum":9994,"Ġmontant":9995,"ĠtÃ©lÃ©film":9996,"rondissements":9997,"ĠlittÃ©raires":9998,"Ġconduis":9999,"ĠÃīric":10000,"ĠCanadi":10001,"appu":10002,"Ã©lite":10003,"ĠMike":10004,"organ":10005,"ĠrÃ©Ã©d":10006,"Ġtram":10007,"ĠJura":10008,"ĠEdward":10009,"atus":10010,"ĠNik":10011,"Te":10012,"umin":10013,"IsÃ¨re":10014,"ougos":10015,"Ġflux":10016,"Ġcavalerie":10017,"assurer":10018,"accueil":10019,"Ġmunicipaux":10020,"ĠLeague":10021,"Ġajoute":10022,"1983":10023,"Canada":10024,"ĠpossÃ©dait":10025,"ĠdiffÃ©rent":10026,"ĠlibÃ©ral":10027,"1984":10028,"ĠsystÃ©matique":10029,"IV":10030,"Ġqueue":10031,"estaur":10032,"ĠintÃ©grÃ©":10033,"Ġimpossible":10034,"invasion":10035,"Ġmainten":10036,"ĠSin":10037,"ĠhÃ´tel":10038,"Ġverte":10039,"Ġhectares":10040,"ĠlaÃ¯":10041,"Ġbin":10042,"ĠexposÃ©e":10043,"ĠrÃ¨glement":10044,"Ġexclusivement":10045,"cif":10046,"entraÃ®neur":10047,"rante":10048,"Ġconsta":10049,"Ġda":10050,"sta":10051,"Ġcorrespondance":10052,"Ġfrancophone":10053,"agements":10054,"ĠmentionnÃ©":10055,"ĠLem":10056,"Provence":10057,"ĠvÃ©rif":10058,"NH":10059,"ĠintÃ©grÃ©e":10060,"Ġfasc":10061,"hÃ©m":10062,"Ġair":10063,"ĠÃ©lectriques":10064,"urn":10065,"Ġreconstruction":10066,"fec":10067,"techn":10068,"tyr":10069,"Ġplaines":10070,"autique":10071,"enregistrement":10072,"Ġparlementaire":10073,"ĠingÃ©nieur":10074,"ĠCollÃ¨ge":10075,"octobre":10076,"Ġqualifie":10077,"ĠintÃ©rÃªts":10078,"urgence":10079,"ĠArchives":10080,"diques":10081,"ĠBrest":10082,"ĠaugmentÃ©":10083,"Ġparcour":10084,"Ġ115":10085,"Ġdurable":10086,"ĠÃ©vÃªques":10087,"ĠÃ©tablit":10088,"Ġcub":10089,"Ġappareils":10090,"veux":10091,"esses":10092,"ĠClassi":10093,"version":10094,"Ġnourriture":10095,"SO":10096,"ĠvÃ©n":10097,"ĠNaples":10098,"ĠvÃ©ritÃ©":10099,"Ġ1915":10100,"orne":10101,"ĠHerb":10102,"ĠschÃ©ma":10103,"Ġfacteur":10104,"tige":10105,"ĠLune":10106,"ĠCinq":10107,"ĠÃ©preuves":10108,"Ġnormes":10109,"finale":10110,"Ġpouvaient":10111,"Ġmajoritairement":10112,"Ġexac":10113,"eture":10114,"Ġbanque":10115,"cell":10116,"Ġty":10117,"Arts":10118,"cho":10119,"forÃªts":10120,"notamment":10121,"Ġmonte":10122,"ĠChi":10123,"aillÃ©":10124,"resser":10125,"Ġparisien":10126,"ention":10127,"ĠPomp":10128,"attan":10129,"ĠdÃ©barque":10130,"fesseur":10131,"ĠÃ©crire":10132,"ĠchargÃ©e":10133,"UMP":10134,"dule":10135,"antine":10136,"Ġculmin":10137,"illo":10138,"entier":10139,"ĠrÃ©solution":10140,"gues":10141,"Ġservant":10142,"Ġvirtu":10143,"appui":10144,"ĠHou":10145,"aviÃ¨re":10146,"ĠIt":10147,"cules":10148,"lisme":10149,"Ġinternes":10150,"Ġrythme":10151,"Ã©vel":10152,"partie":10153,"Ġgothique":10154,"olles":10155,"UnitÃ©":10156,"ĠLind":10157,"ĠuniversitÃ©s":10158,"ĠfestivitÃ©s":10159,"Ġligue":10160,"Ġ68":10161,"ĠRas":10162,"atine":10163,"Ġopp":10164,"Ġclair":10165,"inois":10166,"Ã©ville":10167,"Ġ1904":10168,"ignons":10169,"lÃ©gation":10170,"rales":10171,"acadÃ©mie":10172,"Occident":10173,"Ġpenser":10174,"ĠseptiÃ¨me":10175,"Ġsoutenu":10176,"ĠecclÃ©si":10177,"Ã®mes":10178,"Ġchien":10179,"Olymp":10180,"etta":10181,"ĠFrances":10182,"ĠPon":10183,"ussions":10184,"lain":10185,"Ġcivilisation":10186,"1981":10187,"CinÃ©ma":10188,"enh":10189,"Ġproduite":10190,"Ġremet":10191,"ĠblessÃ©":10192,"Ġfau":10193,"ĠdÃ©place":10194,"ĠLucien":10195,"ĠSNCF":10196,"ĠTak":10197,"ĠPhot":10198,"Rep":10199,"installation":10200,"ĠGaulle":10201,"unn":10202,"identitÃ©":10203,"Ġphil":10204,"ĠMarg":10205,"Em":10206,"ancÃ©":10207,"Emploi":10208,"ĠFel":10209,"Ġhtt":10210,"ĠdÃ©partementaux":10211,"Ġdrame":10212,"Ġence":10213,"entissage":10214,"Ġcolonnes":10215,"Ġcha":10216,"Ġportrait":10217,"07":10218,"reb":10219,"Ġexemplaires":10220,"aid":10221,"Ġvisage":10222,"Famille":10223,"iversaire":10224,"uise":10225,"ĠPier":10226,"ĠtracÃ©":10227,"aigne":10228,"Ġ1916":10229,"affir":10230,"Ġmanoir":10231,"agan":10232,"Ġenfance":10233,"Ã©lique":10234,"IB":10235,"Ġagents":10236,"Ġaffich":10237,"ĠclassÃ©s":10238,"ĠRab":10239,"Ġvapeur":10240,"ĠRib":10241,"Ġquator":10242,"ilson":10243,"Prix":10244,"sÃ©":10245,"Entreprise":10246,"Ġcriti":10247,"Ġproch":10248,"Ġsuccessivement":10249,"GV":10250,"tifications":10251,"Ġaspects":10252,"ĊĠĠĠ":10253,"ĠdivisÃ©":10254,"ĠdÃ©pos":10255,"ĠMonaco":10256,"ank":10257,"ĠColl":10258,"ush":10259,"odique":10260,"Sainte":10261,"zÃ©":10262,"Ġrent":10263,"struction":10264,"Ġ1890":10265,"ĠdÃ©claration":10266,"Ġfar":10267,"ĠYoung":10268,"ĠKong":10269,"ĠrÃ©pertoire":10270,"euse":10271,"ĠCass":10272,"Ġlongs":10273,"ĠVilleneuve":10274,"Amb":10275,"Ġorthodoxe":10276,"Sal":10277,"ĠPhilipp":10278,"oks":10279,"cyclop":10280,"Ġhumides":10281,"etti":10282,"ĠTrib":10283,"Ġbri":10284,"Ã©rÃ¨se":10285,"ĠrÃ©cente":10286,"bdomadaire":10287,"CD":10288,"Ġcommunistes":10289,"uan":10290,"IM":10291,"ĠPass":10292,"anisation":10293,"Ġmontrer":10294,"ĠSig":10295,"Ġconnaissances":10296,"Ġnage":10297,"Ġrall":10298,"ĠCarn":10299,"ĠmÃ©dica":10300,"ĠÃīd":10301,"1982":10302,"ĠnÃ©gociations":10303,"roi":10304,"ĠBass":10305,"Ġproductions":10306,"Ġvoisin":10307,"orÃ©e":10308,"Ġdispositif":10309,"ĠWolf":10310,"ĠmÃ©diterranÃ©en":10311,"Ġhauts":10312,"Ġguitariste":10313,"ĠSchw":10314,"ĠHon":10315,"roniques":10316,"ĠreprÃ©sentÃ©e":10317,"Ġcyl":10318,"ĠSicile":10319,"ĠdÃ©lim":10320,"ĠTay":10321,"ĠService":10322,"Sports":10323,"gi":10324,"Ġalpin":10325,"ĠCaroline":10326,"ĠmarchÃ©s":10327,"ĠMonsieur":10328,"obert":10329,"ĠMik":10330,"ĠcapacitÃ©s":10331,"ibilitÃ©":10332,"Ġpersonnelle":10333,"ActivitÃ©s":10334,"ĠMatt":10335,"ĠTi":10336,"ĠJas":10337,"enger":10338,"Ġtraditions":10339,"akh":10340,"Ġcuisine":10341,"ĠSophie":10342,"Ġmaintien":10343,"duites":10344,"tissements":10345,"Ġpair":10346,"Ġtribu":10347,"Ġdouce":10348,"Ġcivils":10349,"naturels":10350,"ĠValence":10351,"Ġsatisf":10352,"ĠArc":10353,"ĠProduction":10354,"ÃŃn":10355,"Ġailes":10356,"aboration":10357,"Bains":10358,"cence":10359,"sept":10360,"ĠLaw":10361,"iana":10362,"NÃ©":10363,"Ġmessage":10364,"kins":10365,"Ġaudi":10366,"ĠdÃ©mocratie":10367,"sim":10368,"ignac":10369,"ĠStock":10370,"Ġ1850":10371,"intendo":10372,"Ġvingtaine":10373,"ĠCompany":10374,"fes":10375,"ÃīlÃ¨ve":10376,"Ġmener":10377,"Ġfontaine":10378,"Ġsuffisamment":10379,"Ġterritoriales":10380,"intre":10381,"ĠBÃ©n":10382,"ey":10383,"ĠphÃ©nomÃ¨nes":10384,"Ã®t":10385,"Ġdoctor":10386,"ĠIsraÃ«l":10387,"ĠWeb":10388,"Esc":10389,"ĠSl":10390,"Ġplage":10391,"Ġamont":10392,"Ġperdre":10393,"ĠSouth":10394,"enstein":10395,"Ġmorale":10396,"ĠTin":10397,"angs":10398,"Ġsel":10399,"onnet":10400,"Ġsoutenir":10401,"Ġadultes":10402,"Ġtreize":10403,"sign":10404,"Ġcollecte":10405,"Ġtac":10406,"ĠprÃ©sentÃ©e":10407,"ustries":10408,"anat":10409,"ĠsalariÃ©s":10410,"Ġpassent":10411,"ĠcollectivitÃ©s":10412,"Ġquotidienne":10413,"ĠPoitiers":10414,"extrÃ©mitÃ©":10415,"Ġvieille":10416,"installer":10417,"ĠCu":10418,"Ġremis":10419,"Ġgenti":10420,"ĠAri":10421,"assadeur":10422,"Ġsauve":10423,"Ġdynamique":10424,"Ġcomptes":10425,"ĠeffectuÃ©":10426,"Ġsurveillance":10427,"ĠYe":10428,"Ġrecons":10429,"ĠUS":10430,"lion":10431,"Ġmoi":10432,"ervÃ©":10433,"Ġmetal":10434,"Ġcuivre":10435,"ĠhiÃ©r":10436,"allemand":10437,"Ġdame":10438,"enquÃªte":10439,"isembl":10440,"ĠgÃ©nie":10441,"ĠplacÃ©e":10442,"ĠthÃ©orÃ¨me":10443,"ĠÃ©vÃ©nement":10444,"Ġloisirs":10445,"ĠÃ©changes":10446,"Ġcreus":10447,"Ouv":10448,"ĠMam":10449,"endances":10450,"Ġconform":10451,"ositeur":10452,"anson":10453,"anna":10454,"Ġpayer":10455,"ĠretrouvÃ©":10456,"ĠJÃ©rÃ´me":10457,"ĠsuprÃªme":10458,"ĠreconnaÃ®t":10459,"Ġbasque":10460,"Aveyron":10461,"HÃ©ra":10462,"ĠMis":10463,"ĠclÃ©":10464,"ĠpÃ©ninsule":10465,"Ġtap":10466,"ĠClÃ©":10467,"ĠrÃ©cep":10468,"ĠformÃ©e":10469,"ultats":10470,"ĠBoulogne":10471,"Aude":10472,"ĠChevalier":10473,"vÃ©":10474,"Ġfur":10475,"ĠnÃ©cessite":10476,"ĠOuest":10477,"Ġpauvres":10478,"ĠRio":10479,"usanne":10480,"luents":10481,"tale":10482,"ĠSept":10483,"Ġpen":10484,"Ġrotation":10485,"Ġgaranti":10486,"Ġdirigeant":10487,"Ġdizaines":10488,"ziÃ¨me":10489,"ĠJohann":10490,"liÃ¨re":10491,"Ġrestes":10492,"Ġjouent":10493,"Ġapporte":10494,"roise":10495,"Ġimmob":10496,"Ġvents":10497,"Ġcommuni":10498,"Ġchimie":10499,"onel":10500,"ouille":10501,"ĠstratÃ©gique":10502,"ĠprÃ©tend":10503,"ĠBag":10504,"enez":10505,"Ġbo":10506,"ĠdÃ©tec":10507,"ĠCath":10508,"Ġdistinction":10509,"Ġcalcaire":10510,"ĠCru":10511,"Er":10512,"Ġentrer":10513,"Ġpartout":10514,"ordin":10515,"Ali":10516,"rienne":10517,"Ġcass":10518,"ĠJos":10519,"1970":10520,"ĠLoi":10521,"ĠmÃ©tier":10522,"ĠMadeleine":10523,"Ġgarn":10524,"Ġmaillot":10525,"ĠTrin":10526,"Ġactuels":10527,"ĠVieux":10528,"mira":10529,"Ġviande":10530,"ĠrÃ©elle":10531,"ittÃ©rature":10532,"Cet":10533,"ĠBart":10534,"ĠGerm":10535,"Ġmodific":10536,"ĠenquÃªte":10537,"ogn":10538,"expÃ©dition":10539,"Ġral":10540,"Ã©preuve":10541,"ĠStreet":10542,"ĠassassinÃ©":10543,"Cap":10544,"Ġplomb":10545,"Cher":10546,"Ġdistinguer":10547,"Ġneveu":10548,"ĠBenjamin":10549,"Rou":10550,"ogÃ¨ne":10551,"Ġdiagnos":10552,"Ġstatistiques":10553,"Ġstatues":10554,"Ġmm":10555,"ĠÃ©poux":10556,"ĠÃ©lectorale":10557,"Ġcomtes":10558,"Ġpourraient":10559,"ĠTo":10560,"Ġ1871":10561,"ĠintÃ©rieure":10562,"Ġrense":10563,"Ġvou":10564,"Ġfiliale":10565,"ãĥ":10566,"obi":10567,"ĠtuÃ©s":10568,"ĠNat":10569,"ĠprocÃ©dure":10570,"RÃ©c":10571,"ĠCarlos":10572,"Ġcontest":10573,"ĠsÃ©nateur":10574,"Ġsoins":10575,"ĠJord":10576,"ypt":10577,"Ġhan":10578,"ĠrÃ©pondre":10579,"ET":10580,"ĠGiovanni":10581,"Ġincendie":10582,"ĠGib":10583,"Ġjud":10584,"endum":10585,"Exp":10586,"Ġbris":10587,"Ġaccords":10588,"Ġpuits":10589,"bou":10590,"EntraÃ®":10591,"Ġpilotes":10592,"Ġlocaliser":10593,"Ġfinancier":10594,"ĠoccupÃ©e":10595,"ĠriviÃ¨res":10596,"croix":10597,"Ġcolonne":10598,"ĠdÃ©placement":10599,"Ġveuve":10600,"ĠfacultÃ©":10601,"itÃ©es":10602,"ranc":10603,"Ġprogrammation":10604,"Ġbibli":10605,"Ã©galitÃ©":10606,"Beau":10607,"Ġorchestre":10608,"Ġapplications":10609,"Ġprotoc":10610,"Ġfermeture":10611,"ĠbientÃ´t":10612,"ĠTam":10613,"telligence":10614,"ĠLouvre":10615,"ĠarchÃ©ologiques":10616,"istent":10617,"tint":10618,"Ġcommunautaire":10619,"ortÃ©e":10620,"ĠsynthÃ¨se":10621,"Ġexemples":10622,"ken":10623,"Atlan":10624,"ÅĴuvre":10625,"ĠJer":10626,"Ġvenus":10627,"Ġrepouss":10628,"aspect":10629,"siÃ¨re":10630,"ĠconsÃ©cu":10631,"Ġmanip":10632,"Ġparticipent":10633,"ouf":10634,"ÃªchÃ©":10635,"Synopsis":10636,"entretien":10637,"Ġchristianisme":10638,"Ġhoriz":10639,"Ġcentaine":10640,"EL":10641,"Artiste":10642,"ĠMcC":10643,"adop":10644,"archÃ©":10645,"Ġsatellite":10646,"ĠProvin":10647,"ĠArmand":10648,"baye":10649,"ĠRouss":10650,"ĠmÃ©decins":10651,"aus":10652,"anÃ§on":10653,"ĠdÃ©cern":10654,"Ġessay":10655,"âĢ¦)":10656,"miers":10657,"Indre":10658,"Ġdemander":10659,"ĠHay":10660,"ĠEng":10661,"Ã¶n":10662,"Ġbranches":10663,"Åĵil":10664,"Ġmonarchie":10665,"Ġ58":10666,"ĠintÃ©rieur":10667,"heur":10668,"AnnÃ©es":10669,"Ġcontribue":10670,"ĠLev":10671,"Milieux":10672,"Vers":10673,"Ġinsu":10674,"tionnels":10675,"aile":10676,"Ġracines":10677,"Iv":10678,"ua":10679,"ĠUnited":10680,"Club":10681,"sterdam":10682,"ĠColumb":10683,"ĠXXIe":10684,"1979":10685,"gent":10686,"cidents":10687,"09":10688,"Ġintervient":10689,"Ã§onn":10690,"ĠrÃ©sidant":10691,"ĠblessÃ©s":10692,"ĠâĨ":10693,"Ġuniverselle":10694,"Ġpes":10695,"ĠGros":10696,"ĠEric":10697,"Rattachements":10698,"chester":10699,"ĠFir":10700,"andre":10701,"ĠprÃ©dÃ©":10702,"Ġtouche":10703,"ĠdÃ©faut":10704,"ĠsÅĵurs":10705,"roch":10706,"mad":10707,"He":10708,"IT":10709,"Ġsculpture":10710,"Ġleader":10711,"CA":10712,"Ġportugais":10713,"acide":10714,"ĠMill":10715,"mper":10716,"Inf":10717,"nexion":10718,"ĠprÃ©server":10719,"Ã©quipage":10720,"ĠGreg":10721,"ĠMassi":10722,"ĠBoston":10723,"ĠmariÃ©":10724,"Maurice":10725,"Quelques":10726,"hip":10727,"Ġdifficiles":10728,"Ġapprofondir":10729,"ĠGand":10730,"ancÃ©e":10731,"Ġconservateur":10732,"Ġ1902":10733,"amine":10734,"Ġdonna":10735,"ĠdestinÃ©s":10736,"Ãītymologie":10737,"Ã©enne":10738,"Ġretrouvent":10739,"gon":10740,"ĠSir":10741,"Ġroches":10742,"Ãªtements":10743,"ops":10744,"Ġtrace":10745,"zaine":10746,"interprÃ©tation":10747,"Ġaim":10748,"division":10749,"ĠpeuplÃ©e":10750,"veurs":10751,"Ġoncle":10752,"Ġgonflement":10753,"Ġrusses":10754,"Ġdevaient":10755,"ĠAujourd":10756,"Ġaspect":10757,"Ġsentiment":10758,"Ġboul":10759,"oppose":10760,"ĠBonne":10761,"xford":10762,"sia":10763,"Ġacad":10764,"ĠItal":10765,"Ġcharte":10766,"ED":10767,"ĠSen":10768,"ĠcÃ¢":10769,"Ġta":10770,"oppe":10771,"Ġcousin":10772,"ĠextÃ©rieur":10773,"Ġsymbolique":10774,"ĠconsÃ©quent":10775,"arth":10776,"hypothÃ¨se":10777,"cÃ©s":10778,"Ġstudios":10779,"elly":10780,"ĠRÃ©union":10781,"Ġsoixante":10782,"Cons":10783,"Ġbulle":10784,"Ġden":10785,"ĠCit":10786,"Homonymie":10787,"Ġ56":10788,"ĠagrÃ©":10789,"rigue":10790,"wer":10791,"Ġseules":10792,"Ġmorceau":10793,"zan":10794,"ĠDern":10795,"Vict":10796,"yne":10797,"ĠrÃ©cits":10798,"ĠrÃ©duite":10799,"huile":10800,"ĠisraÃ©li":10801,"Ġdessinateur":10802,"ĠprÃªtres":10803,"ĠdÃ©cident":10804,"Ġblo":10805,"Ġreproduction":10806,"uros":10807,"Ġexig":10808,"habitation":10809,"Ġcontraintes":10810,"ĠFig":10811,"ĠdÃ©finir":10812,"Ġannuel":10813,"ĠCamille":10814,"Ġsauvage":10815,"rose":10816,"humanitÃ©":10817,"intÃ©gration":10818,"ids":10819,"ĠConserv":10820,"back":10821,"Ġcontraint":10822,"Ġpoursuivre":10823,"Ġ1903":10824,"SP":10825,"glas":10826,"amiral":10827,"Ġfinancement":10828,"Ġvocation":10829,"Ġrede":10830,"ĠÃ©tats":10831,"ĠlÃ©gÃ¨re":10832,"Ġcombus":10833,"Ġhausse":10834,"bin":10835,"ureur":10836,"ĠAnt":10837,"ĠvariÃ©tÃ©s":10838,"Ġpharm":10839,"orum":10840,"style":10841,"oulÃªme":10842,"ĠVern":10843,"Ġtribus":10844,"08":10845,"ĠPrusse":10846,"ĠAk":10847,"Ġbotanique":10848,"dÃ©m":10849,"ualitÃ©":10850,"auteurs":10851,"ĠNintendo":10852,"ĠDec":10853,"Ġjuifs":10854,"ĠTF":10855,"aqu":10856,"ĠÃ©lection":10857,"Ġmodifications":10858,"sk":10859,"ĠspÃ©cialisÃ©e":10860,"ĠInstitu":10861,"ĠdÃ©sert":10862,"Ġpyramides":10863,"liquer":10864,"Nouv":10865,"CrÃ©":10866,"ĠBaviÃ¨re":10867,"ĠMarch":10868,"Ġdoctrine":10869,"hÃ©sion":10870,"ĠIsland":10871,"ĠMeuse":10872,"icon":10873,"Ãªnes":10874,"ĠCle":10875,"Ġgraphique":10876,"ĠKal":10877,"1978":10878,"ĠhuitiÃ¨me":10879,"LÃ©g":10880,"MÃ©d":10881,"Certains":10882,"ĠAlgÃ©rie":10883,"Pas":10884,"onnements":10885,"Ġpromu":10886,"Ġargu":10887,"Ġfranchise":10888,"Ġchasseurs":10889,"ĠBla":10890,"inscrit":10891,"ĠpÃ©trole":10892,"ĠGene":10893,"ĠfÃ©od":10894,"ĠCoc":10895,"Ġur":10896,"Ġremporter":10897,"ĠMonument":10898,"ĠsÃ©pare":10899,"ĠdÃ©nombrÃ©s":10900,"No":10901,"pecteur":10902,"Bel":10903,"ĠKi":10904,"Ġefforts":10905,"ĊĠĠĠĠ":10906,"ĠBanque":10907,"Ġagent":10908,"Ġlux":10909,"ĠStephen":10910,"ĠmÃ©nages":10911,"TP":10912,"Ġtraits":10913,"Sud":10914,"phy":10915,"Ġjamb":10916,"Ġmauvaise":10917,"ĠZur":10918,"Ġchercher":10919,"itain":10920,"Ġponts":10921,"Ð¾Ð":10922,"Ġcoalition":10923,"Ġusine":10924,"ylv":10925,"1973":10926,"Ġ59":10927,"ĠInf":10928,"Univers":10929,"ĠFlori":10930,"ĠprÃ©con":10931,"Rom":10932,"ĠspÃ©ciales":10933,"Ã©nements":10934,"Ġphoto":10935,"roid":10936,"Ġaccueillir":10937,"enaire":10938,"Ã¨ves":10939,"accomp":10940,"ĠchrÃ©tien":10941,"Disc":10942,"ĠprotÃ©gÃ©":10943,"ĠFi":10944,"mel":10945,"Ġrect":10946,"ĠBeauv":10947,"Ġcents":10948,"ĠÃīp":10949,"Ġsurviv":10950,"orre":10951,"Ã©pid":10952,"Ġroul":10953,"ĠperpÃ©tu":10954,"Ġaxe":10955,"Ġchrom":10956,"tionnelles":10957,"Ġirlandais":10958,"gÃ©es":10959,"Ã¢ts":10960,"Ġinconnu":10961,"Ġ85":10962,"utions":10963,"Chap":10964,"orel":10965,"Ġgardien":10966,"ĠtraitÃ©s":10967,"Ġzo":10968,"ĠGustave":10969,"rÃ©h":10970,"Ġcontemporains":10971,"Ġwe":10972,"Ġfaites":10973,"sembles":10974,"Ġ1896":10975,"Ġbyzantin":10976,"Rec":10977,"late":10978,"ervi":10979,"ĠgrÃ©":10980,"ĠDev":10981,"ĠrÃ©compens":10982,"Ġtenant":10983,"ther":10984,"ĠdÃ©rivÃ©":10985,"Ġalentours":10986,"Ġcod":10987,"rais":10988,"Ġbarb":10989,"ĠchÃ´me":10990,"ĠcafÃ©":10991,"ĠLife":10992,"ĠdÃ©tail":10993,"Ġvoisines":10994,"Mos":10995,"ving":10996,"Ġfall":10997,"Ã¯n":10998,"aib":10999,"Enfin":11000,"Anti":11001,"ascar":11002,"Aff":11003,"lah":11004,"Ġvisiteurs":11005,"Ġpeur":11006,"Ã©diteur":11007,"Ġbiologique":11008,"Ġissues":11009,"Ġnettement":11010,"Ġvernac":11011,"Galerie":11012,"Ġsucre":11013,"Ġtron":11014,"Ġmassive":11015,"trois":11016,"Ġturb":11017,"ĠPoin":11018,"ĠChili":11019,"ĠVIII":11020,"Ã©cart":11021,"Outre":11022,"rants":11023,"umer":11024,"ĠInc":11025,"anny":11026,"Ġimmeub":11027,"Ġ117":11028,"ĠrÃ©formes":11029,"ompe":11030,"ĠGrÃ©g":11031,"ĠdÃ©nomination":11032,"Ġbasilique":11033,"Ġsusc":11034,"ĠlancÃ©e":11035,"ĠTroy":11036,"rane":11037,"uki":11038,"Ġaigu":11039,"orig":11040,"ercy":11041,"famille":11042,"sud":11043,"siers":11044,"ĠMaxim":11045,"Ġalimentaire":11046,"investissement":11047,"Bern":11048,"rus":11049,"ĠblÃ©":11050,"ricts":11051,"Ġconcile":11052,"checs":11053,"Ġrichesse":11054,"bois":11055,"cie":11056,"lÃ©es":11057,"Ġnoble":11058,"Ġsimultan":11059,"ĠfermÃ©":11060,"ĠOpen":11061,"instar":11062,"Ġsolide":11063,"enny":11064,"RA":11065,"ĠcrÃ©Ã©s":11066,"'t":11067,"Ġterror":11068,"Ġwith":11069,"MA":11070,"onto":11071,"ĠdiffÃ©rences":11072,"Ver":11073,"Ġproducteurs":11074,"1975":11075,"ĠDonald":11076,"Ġrassemble":11077,"adaptation":11078,"Ġpublications":11079,"ĠVÃ©n":11080,"Ġproduisant":11081,"Ġexil":11082,"ĠremplacÃ©e":11083,"ĠCup":11084,"ĠthÃ©Ã¢":11085,"Ġmagistra":11086,"ZNIEFF":11087,"Ġfinances":11088,"Ã©leste":11089,"Ġalliance":11090,"pus":11091,"lien":11092,"ĠHard":11093,"Ġexplic":11094,"Ġmanga":11095,"ĠquÃ©bÃ©coise":11096,"ough":11097,"ĠBec":11098,"ĠdÃ©l":11099,"Ã¨ges":11100,"Ġparisienne":11101,"ĠCeux":11102,"ĠGalles":11103,"ĠdÃ©pÃ´t":11104,"oncÃ©e":11105,"ĠProg":11106,"ĠAlan":11107,"ĠsupplÃ©mentaire":11108,"Ġ1898":11109,"sile":11110,"Ġmartyr":11111,"Ġclairement":11112,"ĠapprÃ©h":11113,"Ġnarra":11114,"ĠdÃ©cideurs":11115,"Ġvisibles":11116,"Ġtunnel":11117,"ĠDavis":11118,"introduction":11119,"Ġ1889":11120,"ĠNBA":11121,"ĠÃ©toile":11122,"Ġov":11123,"Ġfinanciers":11124,"Ġdescendants":11125,"Ġsyndrome":11126,"Ġcollines":11127,"ĠFinalement":11128,"anton":11129,"Ġcharbon":11130,"Ġmarchandises":11131,"Ġchimiques":11132,"ĠLyn":11133,"ĠGon":11134,"ogie":11135,"ĠassurÃ©e":11136,"appareil":11137,"Ġcellule":11138,"Ġrempla":11139,"Pyramide":11140,"chest":11141,"Ġvague":11142,"ĠKaz":11143,"1977":11144,"Ġexploitation":11145,"observation":11146,"ĠLut":11147,"ĠSchool":11148,"oton":11149,"diff":11150,"aller":11151,"Ġaffron":11152,"ĠCharlotte":11153,"itale":11154,"Ġcompens":11155,"Ġpotable":11156,"Ġbrigade":11157,"ĠBand":11158,"Ġvraisembl":11159,"Ġmeilleures":11160,"Ġvariantes":11161,"Ġhistoires":11162,"ĠBlanche":11163,"ĠBeaux":11164,"ouk":11165,"Ġmorph":11166,"ĠReal":11167,"ĠlÃ©giti":11168,"ĠGers":11169,"Ġsk":11170,"ĠBerger":11171,"Ġlis":11172,"Ġincendies":11173,"Ġaf":11174,"ĠÃ©gal":11175,"agnac":11176,"tina":11177,"Ġ66":11178,"aissement":11179,"ouer":11180,"ĠexpÃ©dition":11181,"Ġlente":11182,"ovis":11183,"Ġgrade":11184,"erge":11185,"ĠfidÃ¨les":11186,"Ġsymph":11187,"otage":11188,"MalgrÃ©":11189,"ĠDijon":11190,"ĠdÃ©liv":11191,"ĠdÃ©cennie":11192,"Ġorganismes":11193,"ĠMiller":11194,"euf":11195,"onien":11196,"ĠcinÃ©":11197,"Ġnavigation":11198,"ĠcritÃ¨res":11199,"Ġsalon":11200,"eta":11201,"ĠÃ©tage":11202,"ĠchÃ´meurs":11203,"ĠexprimÃ©s":11204,"ĠHum":11205,"Jumelages":11206,"vÃ©g":11207,"Ġvols":11208,"Ġion":11209,"ily":11210,"ĠSn":11211,"Ġgend":11212,"ĠFriedrich":11213,"Sav":11214,"Ġ113":11215,"Ġindig":11216,"Ġvendus":11217,"ĠBritish":11218,"ĠMai":11219,"ĠRÃ©gime":11220,"Ġromp":11221,"dem":11222,"Yves":11223,"Ġox":11224,"habitat":11225,"tum":11226,"ĠcommÃ©mor":11227,"Ġsuffixe":11228,"ĠsurnommÃ©":11229,"activitÃ©s":11230,"Ġoccitan":11231,"Musique":11232,"Ġjury":11233,"itecture":11234,"ĠEuropÃ©":11235,"ĠGri":11236,"ĠaffectÃ©es":11237,"1976":11238,"ĠSong":11239,"Ġrelatif":11240,"Ġinitiale":11241,"Ġbailli":11242,"tÃ©lÃ©":11243,"Ġcauses":11244,"inus":11245,"Ġcanons":11246,"ĠLau":11247,"dro":11248,"thÃ©":11249,"velines":11250,"1974":11251,"Ġthermique":11252,"ĠLuis":11253,"ĠBible":11254,"Ġescal":11255,"ĠrÃ©flexion":11256,"ĠÃ©lecteurs":11257,"Ġarabes":11258,"Ã©viter":11259,"Ġinclus":11260,"Ġ1895":11261,"ĠfrÃ©quente":11262,"Ġmonop":11263,"ĠprivÃ©s":11264,"lÃ©tisme":11265,"sol":11266,"Ġcontinuer":11267,"ĠnommÃ©s":11268,"explo":11269,"ĠBac":11270,"eri":11271,"ĠLomb":11272,"Ġdescente":11273,"Ġ72":11274,"orgue":11275,"Ġcommissaire":11276,"ĠXavier":11277,"Ġcm":11278,"mod":11279,"ygÃ¨ne":11280,"ĠparticularitÃ©":11281,"urie":11282,"Ġsauver":11283,"Ġfruit":11284,"stan":11285,"Ġ110":11286,"ĠdÃ©pendant":11287,"ĠPublic":11288,"erme":11289,"Ġfic":11290,"anteur":11291,"ĠNon":11292,"Pays":11293,"ĠapparaÃ®tre":11294,"ĠVictoria":11295,"ĠRep":11296,"ĠrestÃ©":11297,"optÃ¨res":11298,"Ġoccidental":11299,"Ġprobable":11300,"Tendances":11301,"Ġritu":11302,"Ġsl":11303,"ello":11304,"ĠMoz":11305,"Form":11306,"aun":11307,"ĠBord":11308,"Ãīducation":11309,"iga":11310,"ĠCommunes":11311,"Ġparoisses":11312,"ĠfinanciÃ¨res":11313,"ĠexpÃ©riences":11314,"ĠLewis":11315,"ĠfonciÃ¨re":11316,"oici":11317,"ĠÃīgypte":11318,"ĠgÃ©nÃ©rique":11319,"Ġcomprise":11320,"Ġouverture":11321,"Ġphases":11322,"Ġtournant":11323,"Pont":11324,"ĠFox":11325,"Parti":11326,"ĠmÃ©tiers":11327,"1968":11328,"Ġmanifeste":11329,"ĠSÃ©bastien":11330,"effici":11331,"Ġjournalistes":11332,"Ġmobile":11333,"Ġtonnes":11334,"ĠSyste":11335,"ĠBond":11336,"ĠPresses":11337,"Ġvoulait":11338,"ĠBulg":11339,"Conseillers":11340,"romaine":11341,"IntercommunalitÃ©":11342,"arche":11343,"ĠgÃ©ant":11344,"islam":11345,"ĠClo":11346,"ĠclergÃ©":11347,"Ġaffaire":11348,"Ġsent":11349,"Ġram":11350,"ichy":11351,"ocie":11352,"riens":11353,"ĠSuz":11354,"effond":11355,"ĠCord":11356,"ĠHitler":11357,"ĠÃ©difice":11358,"etnam":11359,"Ġcolons":11360,"Ġphrase":11361,"ĠÃ©nergie":11362,"Ġreconstruite":11363,"OpÃ©ra":11364,"Air":11365,"ĠBaz":11366,"ĠLausanne":11367,"ĠimpÃ©rial":11368,"urrent":11369,"ĠGou":11370,"Ã©mont":11371,"Ġsubstitu":11372,"viers":11373,"ĠmodifiÃ©":11374,"Ġfaciliter":11375,"Ġfondateurs":11376,"Ġtechnologies":11377,"Ġ1840":11378,"ĠJohan":11379,"ĠÃ©tranger":11380,"Ġsportifs":11381,"ĠCham":11382,"issage":11383,"ĠChev":11384,"Ġfiscaux":11385,"ĠcompÃ©tence":11386,"ĠWilson":11387,"PÃ©ri":11388,"Ġamour":11389,"ĠLouv":11390,"ĠPoly":11391,"Ãīpoque":11392,"Ġattent":11393,"ĠrÃ©alisÃ©es":11394,"Ġfamiliale":11395,"ĠHun":11396,"ĠHouse":11397,"imb":11398,"ĠconsidÃ©rable":11399,"onnant":11400,"Ġsame":11401,"ĠautoritÃ©":11402,"ĠdÃ©passe":11403,"iac":11404,"ĠdÃ©cisions":11405,"1972":11406,"Ġvariante":11407,"Ġbonnes":11408,"Ġrub":11409,"ureaux":11410,"Ġchanc":11411,"Env":11412,"Ã©ditions":11413,"ĠMouvement":11414,"Ã©tablissent":11415,"Ils":11416,"Oli":11417,"Ġnotables":11418,"cade":11419,"ĠPlace":11420,"ĠFrÃ©":11421,"Agence":11422,"Ġmotifs":11423,"Ġsoldat":11424,"cop":11425,"ĠFleur":11426,"ĠNoir":11427,"Publications":11428,"ĠGironde":11429,"Ġromane":11430,"stances":11431,"lÃ¨che":11432,"ĠNous":11433,"Ġfuture":11434,"Ara":11435,"Ġsportives":11436,"FC":11437,"bot":11438,"ajout":11439,"Ġassimil":11440,"ĠJustice":11441,"ĠChristoph":11442,"Ġdomine":11443,"ĠconsidÃ©rablement":11444,"unique":11445,"ĠSqu":11446,"ĠHy":11447,"ĠÃ©gale":11448,"ĠLoir":11449,"ĠbrÃ©sil":11450,"Ġramen":11451,"ĠlibÃ©rÃ©":11452,"ĠFinlande":11453,"pris":11454,"actÃ©ris":11455,"wig":11456,"Champ":11457,"SD":11458,"ĠcamÃ©ra":11459,"mberg":11460,"oliÃ¨re":11461,"Ġcontrovers":11462,"lar":11463,"ĠpopularitÃ©":11464,"Ġsuites":11465,"ĠrÃªve":11466,"ĠGood":11467,"ĠGrÃ¢ce":11468,"Ã©rapie":11469,"ĠappelÃ©es":11470,"Ġfortune":11471,"Ġcodes":11472,"Ġprestig":11473,"guerre":11474,"Ġpain":11475,"Ġ114":11476,"ĠDos":11477,"ĠGÃ©nÃ©ral":11478,"ĠprofondÃ©ment":11479,"Ġpomp":11480,"ĠÃ©vidence":11481,"ilÃ©e":11482,"Ġvag":11483,"ĠPre":11484,"rano":11485,"ĠXVIIIe":11486,"Ġcamps":11487,"Ġappartenait":11488,"ĠtransformÃ©":11489,"ĠLÃ©v":11490,"Ġincluant":11491,"Ġautrichien":11492,"rod":11493,"ĠStat":11494,"ĠJusqu":11495,"cass":11496,"ĠillÃ©g":11497,"Ġentend":11498,"ĠGrands":11499,"ĠprÃ©face":11500,"Ġpul":11501,"oro":11502,"Ainsi":11503,"Ġpoursuite":11504,"Ġroutier":11505,"archipel":11506,"Ġlogiciels":11507,"Princip":11508,"Ġsaut":11509,"ĠpubliÃ©es":11510,"ĠRue":11511,"Ã©laboration":11512,"oncent":11513,"ĠRÃ©sistance":11514,"mou":11515,"ĠSpar":11516,"oivent":11517,"ĠtrÃ©sor":11518,"Ġpolicier":11519,"ĠprÃ©cÃ©dents":11520,"Ġblind":11521,"ĠSerg":11522,"ĠSem":11523,"Ġprovenance":11524,"Ġportail":11525,"Ġfolk":11526,"apport":11527,"1971":11528,"ĠtirÃ©":11529,"Ġtourner":11530,"encont":11531,"Ã©o":11532,"vidu":11533,"Ġlimiter":11534,"afric":11535,"Ġpassion":11536,"Auteur":11537,"ĠKy":11538,"Ġmineur":11539,"ĠSC":11540,"ĠprÃ©vue":11541,"Ġacquiert":11542,"ĠFormule":11543,";\"|":11544,"Ġdram":11545,"Ġvoile":11546,"ophy":11547,"Ġpistes":11548,"Ġfantastique":11549,"dae":11550,"ĠqualitÃ©s":11551,"illÃ©e":11552,"Ġsombre":11553,"abs":11554,"onnance":11555,"ensitÃ©":11556,"ĠFranco":11557,"ĠMari":11558,"ĠGener":11559,"Ġparcs":11560,"igre":11561,"Ġmodification":11562,"Ġprofite":11563,"nec":11564,"âĢĿ":11565,"Ġtardive":11566,"ĠAlphonse":11567,"approche":11568,"iscop":11569,"alogues":11570,"ashi":11571,"Alain":11572,"Ġouverts":11573,"mpe":11574,"unior":11575,"aviation":11576,"onciation":11577,"erto":11578,"ĠQuat":11579,"ĠmenÃ©":11580,"refour":11581,"EA":11582,"Ġcatalogue":11583,"Ġfacile":11584,"Ġculturels":11585,"Ġ61":11586,"Ġsubi":11587,"ĠVel":11588,"olition":11589,"ĠcoordonnÃ©es":11590,"cient":11591,"Ġcell":11592,"Ġimpressionn":11593,"Ġ67":11594,"ency":11595,"Ġchantier":11596,"ĠRaoul":11597,"Ġconfig":11598,"Ã¢tel":11599,"ĠinhumÃ©":11600,"ifestations":11601,"Äį":11602,"ĠClÃ©ment":11603,"lip":11604,"Ġhal":11605,"Alors":11606,"ĠBlue":11607,"Ġtraditionnellement":11608,"Ġinitial":11609,"Ġservent":11610,"ĠCoun":11611,"offre":11612,"Ġfuite":11613,"Ġmourut":11614,"sec":11615,"Ġcrime":11616,"uite":11617,"Ġsuppression":11618,"ĠdÃ©faites":11619,"Ġvign":11620,"Ã¨nements":11621,"ĠScience":11622,"ĠVoir":11623,"inthe":11624,"ralitÃ©":11625,"ĠTest":11626,"optÃ¨re":11627,"ĠOlymp":11628,"ĠsacrÃ©":11629,"Ġpionn":11630,"agnol":11631,"Ġgrotte":11632,"ĠRud":11633,"vados":11634,"ĠdotÃ©":11635,"Ã©rales":11636,"attention":11637,"rammes":11638,"ĠCla":11639,"Ã¢me":11640,"pice":11641,"rai":11642,"ĠHigh":11643,"omon":11644,"ĠSimp":11645,"Ġbelles":11646,"ĠFeu":11647,"Ã©ton":11648,"zig":11649,"Ġminor":11650,"1967":11651,"ĠtÃ©moigne":11652,"ĠinterprÃ©tation":11653,"apolÃ©on":11654,"ĠKo":11655,"Ġempris":11656,"Juli":11657,"pÃ©":11658,"Ġaffront":11659,"Ġfins":11660,"poration":11661,"agir":11662,"hon":11663,"ĠtransfÃ©rÃ©":11664,"aintes":11665,"ĠobservÃ©":11666,"ocratie":11667,"Ol":11668,"ĠVladi":11669,"Ġcompli":11670,"Ġ1885":11671,"ĠHugues":11672,"agissait":11673,"ĠRT":11674,"ĠKam":11675,"ĠEnter":11676,"Ġpseudonyme":11677,"extension":11678,"ĠBerry":11679,"ĠSÃ©g":11680,"ĠNight":11681,"Ã©quival":11682,"Croix":11683,"ĠrÃ©ception":11684,"iditÃ©":11685,"imag":11686,"ĠJou":11687,"ĠVaud":11688,"Ġmex":11689,"enfance":11690,"acquisition":11691,"ĠsupÃ©rieures":11692,"cinq":11693,"Ġspectateurs":11694,"assemblÃ©e":11695,"ĠTime":11696,"ĠSpr":11697,"Ã¯s":11698,"osex":11699,"alcool":11700,"ĠSatur":11701,"Ġsuis":11702,"matiques":11703,"Ġquatorze":11704,"Ġ1893":11705,"ĠMidi":11706,"ĠinstallÃ©s":11707,"ĠcontribuÃ©":11708,"ĠTaylor":11709,"icain":11710,"Ġhabitats":11711,"Ġindustriels":11712,"Ġenseign":11713,"www":11714,"Ġpeintres":11715,"Ġ1897":11716,"ĠCanton":11717,"tables":11718,"MS":11719,"asa":11720,"onctu":11721,"'.":11722,"ĠmÃ¢le":11723,"ĠPav":11724,"Ġadopte":11725,"ĠrÃ©serves":11726,"ĠthÃ©ories":11727,"ĠBrad":11728,"ĠHad":11729,"ĠClar":11730,"Ġabandonne":11731,"neuf":11732,"ĠBow":11733,"GÃ©n":11734,"ĠAtlantique":11735,"ĠSeigneur":11736,"acteurs":11737,"Ġmarbre":11738,"riment":11739,"cius":11740,"ĠGaz":11741,"pha":11742,"Ġsortant":11743,"bar":11744,"ĠtrophÃ©e":11745,"Ġarbre":11746,"try":11747,"ĠÃ©conomie":11748,"Ġretire":11749,"Ġsanctuaire":11750,"Ġpath":11751,"ãĤ":11752,"Ancienne":11753,"Ã©chec":11754,"Ġ116":11755,"1969":11756,"igi":11757,"Ġdirective":11758,"Ġfrancophones":11759,"Ġretirer":11760,"ĠNavarre":11761,"ĠCharlie":11762,"Ġjo":11763,"Ġinterview":11764,"ĠÃīlisabeth":11765,"ias":11766,"Ġtalent":11767,"ĠmariÃ©e":11768,"ĠBÃ©arn":11769,"Ġconnait":11770,"Ġlacs":11771,"Ġseize":11772,"Ġvoyages":11773,"ĠRenault":11774,"Ġtrait":11775,"Ġamateur":11776,"ramment":11777,"ĠnorvÃ©g":11778,"ittle":11779,"FI":11780,"pard":11781,"Ġagriculture":11782,"ĠcÃ©rÃ©ales":11783,"ĠFau":11784,"Ġdoig":11785,"Ġchoisir":11786,"Ġadoles":11787,"Ġquasiment":11788,"Ġpodium":11789,"Ã©rance":11790,"ĠQuant":11791,"Ġgymn":11792,"uin":11793,"ĠFamille":11794,"ĠGram":11795,"Ġendroits":11796,"Ġvacances":11797,"ĠDin":11798,"Ġcausa":11799,"ĠcÃ©leste":11800,"Ġcomportant":11801,"Ġrenforcer":11802,"Ġpousse":11803,"1944":11804,"Ġlargeur":11805,"Ġmentionne":11806,"arl":11807,"atti":11808,"Ġfib":11809,"Ã©cran":11810,"ĠDark":11811,"Chevalier":11812,"ĠÃ©ponyme":11813,"ĠrenommÃ©":11814,"ĠSpir":11815,"ĠSerb":11816,"Ġports":11817,"ĠToulon":11818,"atmosphÃ¨re":11819,"ĠMir":11820,"ĠSalon":11821,"ĠuniversitÃ©":11822,"Ġinclut":11823,"Ġmeurtre":11824,"ĠEsc":11825,"Ġdivisions":11826,"ĠSum":11827,"Ġanthrop":11828,"Ġracont":11829,"Ġ1899":11830,"Ġexistait":11831,"Ġpira":11832,"neaux":11833,"Ġorbite":11834,"Ġquelle":11835,"ĠGeorg":11836,"ĠSecond":11837,"Ġclients":11838,"Ġrestre":11839,"Ġargent":11840,"Ġpne":11841,"Ġpop":11842,"orf":11843,"ĠAle":11844,"Argentine":11845,"Ġadmin":11846,"ĠtravaillÃ©":11847,"Ġconclut":11848,"onymes":11849,"Ġspectacles":11850,"Ġapproxim":11851,"ĠDragon":11852,"ĠreconnaÃ®tre":11853,"Sh":11854,"ĠPel":11855,"urÃ©s":11856,"ĠDim":11857,"Ġcapture":11858,"Ġdeg":11859,"agÃ©es":11860,"ĠdivisÃ©e":11861,"ĠprÃªt":11862,"tiennes":11863,"eroun":11864,"ĠSul":11865,"ĠGord":11866,"Ġcoureur":11867,"Ġemplois":11868,"ĠGarde":11869,"ĠCatal":11870,"Lorsque":11871,"cipi":11872,"ousseau":11873,"enceinte":11874,"ĠDick":11875,"ĠNationale":11876,"Ġpoisson":11877,"ĠZurich":11878,"Ġblas":11879,"ĠSo":11880,"agh":11881,"SantÃ©":11882,"Ġvenu":11883,"Ġparas":11884,"Ġgalax":11885,"Ġcourts":11886,"Ã¢n":11887,"Ġinternet":11888,"Ġ62":11889,"helm":11890,"augmentation":11891,"Ġaider":11892,"Ġaccent":11893,"owski":11894,"ĠPie":11895,"Ä«":11896,"ĠfÃª":11897,"aing":11898,"Ġcommerciaux":11899,"omiques":11900,"raits":11901,"agen":11902,"Ġ1891":11903,"ĠchÃ¢teaux":11904,"ĠMÃªme":11905,"ĠChant":11906,"Ministre":11907,"Haute":11908,"tide":11909,"wald":11910,"Ġtue":11911,"ĠTs":11912,"ĠintÃ©ressantes":11913,"ĠGroup":11914,"ĠentourÃ©":11915,"mun":11916,"Ġtromp":11917,"mÃ¨tre":11918,"Ã©coule":11919,"ĠPales":11920,"Ġmoine":11921,"Ġmanifestation":11922,"Ġennemi":11923,"Jusqu":11924,"Äĥ":11925,"Ġprimaires":11926,"arbre":11927,"ĠLNH":11928,"Ã©cos":11929,"Ã©tain":11930,"antiers":11931,"Bi":11932,"Ġsultan":11933,"Ġprinces":11934,"ocht":11935,"Ġexige":11936,"Ġ1792":11937,"ĠKon":11938,"ĠHollande":11939,"ĠgarÃ§on":11940,"ĠLeb":11941,"ĠPatri":11942,"Ġracine":11943,"Ġarchitectural":11944,"ĠrÃ©col":11945,"Ġculminant":11946,"ĠgrÃ¨ve":11947,"ĠAndrew":11948,"Ġbac":11949,"ĠdÃ©pit":11950,"ĠFis":11951,"ĠNet":11952,"Ġhas":11953,"Ġhorizont":11954,"ĠLoiret":11955,"Iran":11956,"ĠPil":11957,"Ġauxquels":11958,"Ġ81":11959,"unicip":11960,"Ġtenter":11961,"ĠTexas":11962,"enge":11963,"raphe":11964,"ĠdisputÃ©":11965,"rague":11966,"incendie":11967,"Ġcaval":11968,"ĠmathÃ©maticien":11969,"ĠVichy":11970,"ĠaÃ©rien":11971,"ĠStanley":11972,"dication":11973,"Ġinterromp":11974,"iales":11975,"ĠrÃ©Ã©lu":11976,"aver":11977,"ĠÃ¨re":11978,"alphabet":11979,"ĠgÃ©nÃ©":11980,"PL":11981,"Ġdistricts":11982,"Ġaventures":11983,"ĠcinÃ©matographique":11984,"Ġreman":11985,"RÃ©sultats":11986,"Concernant":11987,"bal":11988,"oge":11989,"ĠâĢľ":11990,"ĠindÃ©pendants":11991,"Ġfoyer":11992,"ĠcontrÃ´ler":11993,"ĠâĶľ":11994,"Ġusines":11995,"Ġcombattre":11996,"Ġavenue":11997,"Ġidenti":11998,"Ġmodeste":11999,"Ġer":12000,"ĠNick":12001,"Ġpuissances":12002,"ĠtchÃ¨que":12003,"ĠprÃ©pond":12004,"ĠCambridge":12005,"aster":12006,"ĠBerne":12007,"1962":12008,"Her":12009,"ĠmÃ©diÃ©val":12010,"ĠSeuil":12011,"ĠvÃªtements":12012,"Ġsections":12013,"ĠrÃ©fugiÃ©s":12014,"ĠBess":12015,"oper":12016,"Ġrestant":12017,"Ġsolutions":12018,"ĠdÃ©truire":12019,"ĠFa":12020,"ĠNu":12021,"Ġcible":12022,"ĠAy":12023,"ĠprivÃ©es":12024,"inium":12025,"ĠGaule":12026,"ĠconfÃ©rences":12027,"ĠCollection":12028,"2021":12029,"Ġfroide":12030,"Ġmarchands":12031,"ĠchÃ¢":12032,"ĠAnna":12033,"ĠStal":12034,"Ġmammif":12035,"ĠdÃ©sir":12036,"Ġateliers":12037,"ĠÃ©met":12038,"Ã§ait":12039,"Ġpermanentes":12040,"ĠenterrÃ©":12041,"dicap":12042,"ingÃ©nieur":12043,"ĠVilla":12044,"ĠBruce":12045,"Ġbretonne":12046,"amÃ©ricain":12047,"ĠhÃ©ritier":12048,"avenue":12049,"Ġprotestants":12050,"Ġpontific":12051,"Ġvertu":12052,"ĠÃ©cossais":12053,"intermÃ©diaire":12054,"iev":12055,"ĠColombie":12056,"DA":12057,"his":12058,"lay":12059,"fini":12060,"ĠToronto":12061,"Ġflot":12062,"1960":12063,"Ġvraiment":12064,"ĠAmÃ©ricains":12065,"Ġponctu":12066,"Ġ118":12067,"ĠTraitÃ©":12068,"quait":12069,"ĠDouglas":12070,"then":12071,"ĠmÃ©dicale":12072,"Ġconstruites":12073,"cope":12074,"ĠsymÃ©t":12075,"Ġcouramment":12076,"ĠcohÃ©r":12077,"ĠFI":12078,"entielles":12079,"Ġ76":12080,"Ġpourra":12081,"ĠÃ©tend":12082,"âĶĢ>":12083,"ĠComÃ©die":12084,"Ġaffluents":12085,"ĠGalerie":12086,"Åĵuf":12087,"Ġbordure":12088,"Ġconclusion":12089,"ĠdoublÃ©":12090,"ĠTel":12091,"ĠFranz":12092,"Ġcolor":12093,"Ġconfie":12094,"xi":12095,"ONU":12096,"ĠÃ©laborÃ©":12097,"lage":12098,"ĠÃ©tudier":12099,"Ġhydro":12100,"aoÃ»t":12101,"Ġ1892":12102,"Ġboule":12103,"ĠexÃ©cutÃ©":12104,"ĠBlois":12105,"Ġproduisent":12106,"Ġceinture":12107,"ĠVendÃ©e":12108,"ĠapprÃ©hender":12109,"ranch":12110,"Ġbiblioth":12111,"ĠGuer":12112,"dicat":12113,"Ġunion":12114,"ĠSib":12115,"ominations":12116,"Ġstable":12117,"ĠRot":12118,"ĠLandes":12119,"Ġinconnue":12120,"adre":12121,"Ġwall":12122,"Ġ95":12123,"Ġpratiquement":12124,"ĠPay":12125,"ĠarchevÃªque":12126,"Ġcarn":12127,"ouri":12128,"ordement":12129,"urgie":12130,"Ġgraines":12131,"cts":12132,"ĠÃīlections":12133,"ChÃ¢teau":12134,"font":12135,"Ġtentatives":12136,"ĠmÃ¢les":12137,"ĠBureau":12138,"Ġtraditionnelles":12139,"Ġmobilier":12140,"ĠHein":12141,"Ġfigurent":12142,"ĠprÃ©vention":12143,"ennemi":12144,"avance":12145,"ulations":12146,"Ġenceinte":12147,"ĠdÃ©gÃ¢ts":12148,"ruis":12149,"Ġib":12150,"ĠGeoff":12151,"Ġdoctorat":12152,"ĠSub":12153,"mur":12154,"ĠAch":12155,"ĠRobin":12156,"ĠMontb":12157,"Ã«t":12158,"Ġ63":12159,"Ġarchitecture":12160,"Ġferroviaires":12161,"ĠTan":12162,"ĠLord":12163,"Ġanciennement":12164,"soit":12165,"Ġsaints":12166,"ĠWay":12167,"ĠdÃ©bats":12168,"Ġbaroque":12169,"Ġhospital":12170,"fecture":12171,"Ġ1886":12172,"Ġharmon":12173,"Ġappareil":12174,"ĠMira":12175,"Ġarrivent":12176,"Ġerreur":12177,"ĠEur":12178,"ĠMÃ©tro":12179,"Ġincor":12180,"ĠCall":12181,"ĠfenÃªtres":12182,"Ġtirer":12183,"achat":12184,"hos":12185,"Discographie":12186,"Î±":12187,"Ġ78":12188,"Ġrayon":12189,"poques":12190,"Ġved":12191,"ĠSid":12192,"ĠVik":12193,"Ã©rienne":12194,"ĠmÃ©diane":12195,"ĠrÃ©pression":12196,"mens":12197,"ĠdÃ©criv":12198,"Ġfaune":12199,"Ġfemelle":12200,"Ġpollution":12201,"ĠChan":12202,"Ferrand":12203,"ĠlinÃ©aire":12204,"ghan":12205,"ĠJeune":12206,"Ġmenac":12207,"Ġcolonisation":12208,"tus":12209,"Ġpous":12210,"ĠcrÃ©ant":12211,"abri":12212,"ĠÃīv":12213,"ĠnumÃ©ros":12214,"ĠdÃ©coupage":12215,"Moselle":12216,"oria":12217,"ĠAuc":12218,"ĠathlÃ¨te":12219,"Fiche":12220,"ĠdÃ©esse":12221,"ĠJi":12222,"ĠrandonnÃ©e":12223,"olic":12224,"ĠKat":12225,"importe":12226,"ĠrattachÃ©":12227,"anthrop":12228,"iler":12229,"ĠdÃ©lÃ©guÃ©e":12230,"Ġmanifest":12231,"Ġpavillon":12232,"esque":12233,"ĠOscar":12234,"Ġ1881":12235,"ĠfidÃ¨le":12236,"Ġjugement":12237,"ĠdÃ©monst":12238,"Ġmissionn":12239,"ĠBulle":12240,"ĠdÃ©lÃ©guÃ©":12241,"ĠdÃ©crite":12242,"Ġesclaves":12243,"Amiens":12244,"Ġsensible":12245,"ĠRev":12246,"ĠMak":12247,"Ġdates":12248,"ĠLat":12249,"Ġjouant":12250,"ĠprotÃ©ines":12251,"hydro":12252,"):":12253,"ĠdÃ©mocrate":12254,"ĠMÃ©moires":12255,"Ġchambres":12256,"ĠRand":12257,"tica":12258,"ĠdÃ©bordement":12259,"outer":12260,"alla":12261,"Ġtrag":12262,"reuil":12263,"Ġgarnison":12264,"bec":12265,"ilton":12266,"Åĵud":12267,"Ġlumine":12268,"ĠSie":12269,"Ġ...":12270,"ĠGa":12271,"Ġsurprise":12272,"Ġexerce":12273,"Ġvainc":12274,"Ġutile":12275,"Ġdispers":12276,"elson":12277,"ĠPop":12278,"oiries":12279,"Ġfermes":12280,"Ġ77":12281,"Ġcontinentales":12282,"ez":12283,"rys":12284,"ĠrÃ©ellement":12285,"Ġdauph":12286,"ĠÃ©difices":12287,"Ġspatial":12288,"opinion":12289,"Ġdent":12290,"ĠmagnÃ©tique":12291,"ĠdÃ©mis":12292,"Auvergne":12293,"ĠDa":12294,"Ġfini":12295,"Ġabat":12296,"ĠdemandÃ©":12297,"Pol":12298,"Ġadmis":12299,"Ġpsychologie":12300,"Ġscolaires":12301,"Ġlistes":12302,"Manifestations":12303,"ĠFace":12304,"âĢ¦).":12305,"Ġinnov":12306,"orique":12307,"antaine":12308,"Ġtransforme":12309,"Ã©veloppe":12310,"ĠmÃ©canisme":12311,"gan":12312,"ĠBrÃ©":12313,"Ġradical":12314,"ĠhÃ©":12315,"Ġforts":12316,"imon":12317,"Ġpassages":12318,"ĠterminÃ©":12319,"Ġrenforce":12320,"omet":12321,"ĠmusÃ©es":12322,"Ġoptique":12323,"ĠJohnny":12324,"ĠGrecs":12325,"Ġrachet":12326,"Ġ1800":12327,"Ġgarder":12328,"ivern":12329,"ĠenchaÃ®":12330,"Ã©rindi":12331,"alley":12332,"assassinat":12333,"ĠDig":12334,"Ġgaulois":12335,"actÃ©ristiques":12336,"ĠcrÃ©ateur":12337,"noc":12338,"Ġaient":12339,"Ġbrut":12340,"Ġdominant":12341,"lish":12342,"voix":12343,"Ġdoux":12344,"ĠLimoges":12345,"Ġhabituellement":12346,"Ġproprement":12347,"arel":12348,"ĠrÃ©sistant":12349,"Ġsommets":12350,"Ġmusiques":12351,"Ġblanches":12352,"erveau":12353,"Ġby":12354,"ahn":12355,"Ġadversaires":12356,"tifiÃ©e":12357,"mentaires":12358,"ends":12359,"endrait":12360,"ĠLÃ©opold":12361,"nels":12362,"ĠspÃ©cialistes":12363,"oma":12364,"Ġgramm":12365,"ĠcoÃ»te":12366,"ĠSep":12367,"bilitÃ©s":12368,"Ġobserve":12369,"ĠexÃ©cutif":12370,"Ain":12371,"Auguste":12372,"ums":12373,"ĠKle":12374,"Ġartisan":12375,"rairie":12376,"trale":12377,"ĠÃ©lÃ©mentaire":12378,"angulaire":12379,"ĠspÃ©cialisÃ©":12380,"Ġloup":12381,"Ġinsuffis":12382,"king":12383,"ĠclÃ©s":12384,"Ġgares":12385,"Ġ1815":12386,"onnie":12387,"ĠÃ©vac":12388,"ĠorganisÃ©es":12389,"Ġdites":12390,"lys":12391,"Ġsimilaires":12392,"Ġgolfe":12393,"ĠMathieu":12394,"ĠSaxe":12395,"Office":12396,"ĠIX":12397,"ompenses":12398,"Ġjumel":12399,"Alli":12400,"ĠconsidÃ¨rent":12401,"Ġbons":12402,"ĠchangÃ©":12403,"Ġuniversel":12404,"gie":12405,"Ġindien":12406,"avenir":12407,"ortÃ©es":12408,"Ã¶r":12409,"ĠKhan":12410,"CE":12411,"rimin":12412,"Ġfres":12413,"ĠdÃ©mÃ©n":12414,"Sch":12415,"Ġvass":12416,"ĠDix":12417,"prin":12418,"individu":12419,"tines":12420,"ĠDÃ©p":12421,"Ġchat":12422,"Ġhydra":12423,"ĠmÃ©taph":12424,"RÃ©g":12425,"Ġbouche":12426,"Ġglis":12427,"ĠÃ©ventuellement":12428,"ĠBuc":12429,"ĠpublicitÃ©":12430,"Ġ1894":12431,"Ġadress":12432,"Quentin":12433,"Ġdisposent":12434,"Ġ1888":12435,"ĠgÃ©nÃ©rales":12436,"ĠprÃ©parer":12437,"PA":12438,"uaire":12439,"yre":12440,"igan":12441,"gas":12442,"ĠnationalitÃ©":12443,"Ġliaisons":12444,"Ġprovinci":12445,"Ġbureaux":12446,"ĠChampionnats":12447,"ĠrÃ©centes":12448,"Ġmythe":12449,"Ġhumide":12450,"ulteurs":12451,"Ġmourir":12452,"ĠrÃ©fÃ©rendum":12453,"zen":12454,"ĠChez":12455,"gs":12456,"raham":12457,"Ġmarin":12458,"ĠAud":12459,"agner":12460,"rÃ©gion":12461,"ĠTemps":12462,"ĠpÃ¨lerinage":12463,"ĠDame":12464,"ĠRad":12465,"Ġesprit":12466,"Har":12467,"Ġcomtesse":12468,"anus":12469,"ĠMicros":12470,"Ġbox":12471,"ancourt":12472,"Cour":12473,"Ġproph":12474,"tini":12475,"ĠNÃ®mes":12476,"affaissement":12477,"ĠTunisie":12478,"Riv":12479,"illages":12480,"Ġeffectuer":12481,"eurs":12482,"ĠAlexander":12483,"Ġcommuns":12484,"ocy":12485,"llon":12486,"ĠCommune":12487,"ĠmolÃ©cules":12488,"tible":12489,"quets":12490,"accep":12491,"Ã©rin":12492,"ĠreÃ§ut":12493,"Ġmill":12494,"Ġgo":12495,"irus":12496,"Ġprofesse":12497,"Ġvolontaires":12498,"Ã©conomique":12499,"Ġ84":12500,"ĠconsÃ©cutive":12501,"Ġsexe":12502,"Ġindicateur":12503,"TS":12504,"ĠgarÃ§ons":12505,"ronologie":12506,"Ġrayonnement":12507,"Â·":12508,"quÃªtes":12509,"dÃ©partementale":12510,"premi":12511,"Ġ1867":12512,"Ġtrent":12513,"Ġcrue":12514,"ĠViÃªt":12515,"Ġallait":12516,"Ġcalcaires":12517,"ĠMayenne":12518,"ĠTrÃ¨s":12519,"Ġlocalement":12520,"ĠRenaud":12521,"nil":12522,"Ġmang":12523,"ĠFun":12524,"ĠHos":12525,"Ġdesservi":12526,"opota":12527,"ĠdisparaÃ®t":12528,"Ġplaques":12529,"ĠâĨĴ":12530,"ĠpartagÃ©":12531,"Ġprononce":12532,"ĠMong":12533,"ĠNag":12534,"itimes":12535,"ĠÃ©crivains":12536,"ĠsoirÃ©e":12537,"exercice":12538,"Ġcapables":12539,"Ġqualification":12540,"Ġsatellites":12541,"ĠChÃ¢":12542,"Ġadversaire":12543,"Ġbasses":12544,"ĠboÃ®te":12545,"ride":12546,"Ġbarre":12547,"jus":12548,"Ġflore":12549,"Ġduchesse":12550,"ĠHÃ©lÃ¨ne":12551,"Ġmilitants":12552,"Ġasi":12553,"ĠmÃ©s":12554,"ĠÃ©tendue":12555,"Ġrencontrer":12556,"cap":12557,"ĠindÃ©pendance":12558,"ismes":12559,"ĠOut":12560,"accent":12561,"Ġgouvernements":12562,"Patronyme":12563,"clavage":12564,"urch":12565,"Ġbap":12566,"Mat":12567,"mit":12568,"otÃ©":12569,"vert":12570,"Ġ1876":12571,"ĠOutre":12572,"Ġ73":12573,"Ġcoi":12574,"Ġcontribution":12575,"ventures":12576,"Ġtar":12577,"Ã´tÃ©":12578,"habil":12579,"Franche":12580,"uen":12581,"idÃ©s":12582,"ĠProm":12583,"Gr":12584,"Ġpersonnels":12585,"Ġbataillon":12586,"ĠarrÃªtÃ©s":12587,"cipiendaire":12588,"Ġconjoin":12589,"ĠzÃ©ro":12590,"Ġabord":12591,"Ġchance":12592,"ĠWel":12593,"Allier":12594,"ĠAnthony":12595,"Parc":12596,"ĠTurin":12597,"Ġsymbol":12598,"Ġanniversaire":12599,"Ġrayons":12600,"Ġsignificative":12601,"ĠÃ©rigÃ©e":12602,"Ġpermanente":12603,"Ġts":12604,"opro":12605,"ĠInstitut":12606,"dÃ©s":12607,"Empereur":12608,"Ġtraditionnels":12609,"ĠSus":12610,"ness":12611,"ĠnuclÃ©aires":12612,"Bat":12613,"mund":12614,"Ġexpositions":12615,"ĠdÃ©pass":12616,"Ġprogression":12617,"ĠhypothÃ¨se":12618,"Ã¨ze":12619,"ĠJardin":12620,"Ġcapt":12621,"alogie":12622,"Ġproposer":12623,"Ġparole":12624,"ĠRN":12625,"ĠinfluencÃ©":12626,"Ġceci":12627,"Ġattend":12628,"Ãīquipements":12629,"ĠguÃ©r":12630,"ovaquie":12631,"sey":12632,"ĠmÃ©taux":12633,"Ġcatal":12634,"ĠmenÃ©es":12635,"ĠantÃ©rieure":12636,"Ġindustries":12637,"Ġmonter":12638,"ĠIndi":12639,"Ġrestaurant":12640,"geant":12641,"Ã¸":12642,"ilh":12643,"Ġmodifier":12644,"Ġblocs":12645,"ĠfunÃ©ra":12646,"Ġremarque":12647,"ĠinvitÃ©":12648,"Ġtraiter":12649,"Os":12650,"1966":12651,"ĠinaugurÃ©e":12652,"ĠDC":12653,"ĠguÃ¨re":12654,"Ġmassacre":12655,"tigny":12656,"intÃ©resse":12657,"ĠAmerica":12658,"Ġbattant":12659,"orations":12660,"Ġchau":12661,"ĠSylv":12662,"Ġenj":12663,"ĠSom":12664,"Ġchauss":12665,"Ã©ratrice":12666,"ocal":12667,"abandon":12668,"Ġparfaitement":12669,"Ġflui":12670,"ĠValen":12671,"ĠBesanÃ§on":12672,"Moyen":12673,"ĠTome":12674,"ĠdÃ©cors":12675,"Ġliqu":12676,"Ġajout":12677,"Ġgras":12678,"illets":12679,"ĠÅĵufs":12680,"Ġcous":12681,"Ġhongrois":12682,"br":12683,"inette":12684,"ĠClaire":12685,"Ġ88":12686,"Sp":12687,"ns":12688,"ĠMÃ©n":12689,"Ġmassac":12690,"plan":12691,"ander":12692,"lÃ©ch":12693,"IsraÃ«l":12694,"cas":12695,"ĠEnf":12696,"Loir":12697,"ular":12698,"ĠrÃ©side":12699,"ĠNy":12700,"ĠMacÃ©d":12701,"ĠHervÃ©":12702,"ount":12703,"ĠPict":12704,"oxyde":12705,"Ġmotiv":12706,"ĠbÃ©":12707,"ĠsÃ©quence":12708,"ĠlatÃ©":12709,"Isle":12710,"Ġoriginaires":12711,"aisseur":12712,"âĢĶ":12713,"ĠBoe":12714,"gard":12715,"asie":12716,"partition":12717,"Ġquarts":12718,"MI":12719,"fus":12720,"ller":12721,"ĠVoyage":12722,"Ġcoeffici":12723,"1965":12724,"instruction":12725,"Ġsymboles":12726,"ĠBot":12727,"aisseaux":12728,"Atlantiques":12729,"Don":12730,"ĠBun":12731,"Ġcompati":12732,"ĠprÃ©cÃ©dentes":12733,"ĠÃ©levÃ©s":12734,"ĠFri":12735,"ĠprÃ©cÃ©":12736,"RÃ©seau":12737,"ĠdÃ©tails":12738,"Ġ1878":12739,"Ġtramway":12740,"ĠSoul":12741,"illÃ©s":12742,"Anton":12743,"Ġrevendi":12744,"litÃ©":12745,"ĠMarian":12746,"ĠpauvretÃ©":12747,"Ġcardiaque":12748,"Ġengl":12749,"enfants":12750,"Ġhandicap":12751,"Ġlarges":12752,"ĠprÃ©cÃ©demment":12753,"ĠcrÃ©Ã©es":12754,"Ġ71":12755,"forts":12756,"oa":12757,"inspire":12758,"effic":12759,"EntraÃ®neur":12760,"Ġfoule":12761,"ĠGrÃ©goire":12762,"expansion":12763,"erville":12764,"ĠemblÃ©":12765,"ĠPad":12766,"Ġtensions":12767,"Ġreconstruit":12768,"ĠrÃ©novation":12769,"Ġcommencer":12770,"ĠRÃ©alisation":12771,"dar":12772,"ĠconsidÃ©rer":12773,"Ġ>":12774,"Ġensembles":12775,"umiÃ¨res":12776,"Ġprovoquer":12777,"Ġpromouvoir":12778,"endroit":12779,"ĠVent":12780,"chemin":12781,"Ġceltique":12782,"llen":12783,"Ġoccupent":12784,"Ġprisonnier":12785,"ĠRach":12786,"ĠthÃ©ologie":12787,"Per":12788,"Ġmarques":12789,"culture":12790,"ĠassurÃ©":12791,"urier":12792,"ĠÃ©poques":12793,"ĠMÃ©rite":12794,"Ġamoureux":12795,"ĠBuff":12796,"ĠAugustin":12797,"Ġobservations":12798,"ĠdÃ©coup":12799,"agnols":12800,"Ġabsolue":12801,"Ġdescendant":12802,"fre":12803,"Ġantiques":12804,"ĠrÃ©putÃ©":12805,"Ġrencontrent":12806,"ĠHoward":12807,"Ġpartielle":12808,"ĠÃ©cl":12809,"Ġmontage":12810,"ĠsÃ»r":12811,"Ġtransmis":12812,"Ġoblige":12813,"armerie":12814,"ĠDream":12815,"ĠabrÃ©":12816,"Ġmanuf":12817,"archives":12818,"Ã¢ne":12819,"isson":12820,"Ġattra":12821,"ĠentrÃ©":12822,"Ġjuif":12823,"Ġpartenaire":12824,"Ġhonoris":12825,"Br":12826,"alo":12827,"ĠprÃ©al":12828,"Ġther":12829,"ĠTrente":12830,"abore":12831,"ĠNa":12832,"Ġ82":12833,"ĠFree":12834,"Ġatelier":12835,"ML":12836,"ĠgagnÃ©":12837,"omorph":12838,"tario":12839,"Ġexpliquer":12840,"jette":12841,"ĠKra":12842,"ĠGlob":12843,"Ġrestera":12844,"Ġmira":12845,"ĠÃīglises":12846,"Ġcylind":12847,"ĠdÃ©penses":12848,"ĠÃ©tages":12849,"ĠâĢ¢":12850,"Ã©veloppement":12851,"ĠNeuf":12852,"ĠHollywood":12853,"ĠSymph":12854,"Ġtests":12855,"Ã©quation":12856,"frÃ¨re":12857,"iÃ¨ce":12858,"ĠrÃ©sulte":12859,"Ġexactement":12860,"istiques":12861,"morph":12862,"ĠquittÃ©":12863,"ĠFam":12864,"Ġactuelles":12865,"Ġmultipli":12866,"amitiÃ©":12867,"Ġitaliens":12868,"Ġdign":12869,"Ġrecense":12870,"ĠDurÃ©e":12871,"ĠIvan":12872,"ĠHubert":12873,"Ġbattre":12874,"Ġtrentaine":12875,"Ġorganisme":12876,"ĠÃ©quivalent":12877,"Ġ112":12878,"Ġperf":12879,"1940":12880,"Ġdossier":12881,"sans":12882,"inspiration":12883,"Ġcoloniale":12884,"ritz":12885,"Ġstabil":12886,"Ġballe":12887,"ĠVil":12888,"avril":12889,"oney":12890,"Ġcerc":12891,"ĠPant":12892,"ĠgÃ©rÃ©":12893,"fices":12894,"Ġromantique":12895,"ĠParallÃ¨lement":12896,"gation":12897,"Ġcoc":12898,"Ġattribue":12899,"athie":12900,"Cas":12901,"Ġsoign":12902,"Ġdette":12903,"attants":12904,"Ġregistre":12905,"Ġsuppos":12906,"ĠPÃ¢":12907,"Ġ74":12908,"explor":12909,"ĠmÃ©dailles":12910,"oyers":12911,"1964":12912,"ĠdÃ©marche":12913,"ocle":12914,"avaient":12915,"ĠprotÃ©gÃ©s":12916,"Ġsubsiste":12917,"chers":12918,"ĠChem":12919,"Ġstim":12920,"ĠYam":12921,"Ġplateaux":12922,"alon":12923,"Source":12924,"Ġmotif":12925,"Ġpianiste":12926,"UF":12927,"cÃ¨s":12928,"ogÃ©e":12929,"ĠAthÃ¨nes":12930,"ĠTol":12931,"ĠTang":12932,"ĠrÃ©gionaux":12933,"Ġpermettait":12934,"Ġremarquer":12935,"atori":12936,"Ġfigur":12937,"ĠOuv":12938,"gor":12939,"Ġsax":12940,"ilaire":12941,"Ġfe":12942,"1958":12943,"aron":12944,"ĠRochelle":12945,"hai":12946,"ĠHi":12947,"odor":12948,"Ġlutter":12949,"Ġ1875":12950,"ĠFilms":12951,"Peintre":12952,"ĠrÃ©cupÃ©rer":12953,"Ã©rape":12954,"ĠCoup":12955,"Vincent":12956,"agascar":12957,"Ġpartenariat":12958,"ĠcommenÃ§a":12959,"ĠFrancs":12960,"tration":12961,"Ġlive":12962,"ĠLyc":12963,"parti":12964,"ĠÃ©larg":12965,"Ġrenvers":12966,"ĠÃīt":12967,"ifique":12968,"ĠIndes":12969,"John":12970,"ĠBilly":12971,"ĠprotÃ©gÃ©e":12972,"Ġrendant":12973,"Ġ1882":12974,"ĠpalÃ©":12975,"Aix":12976,"ĠprÃªte":12977,"oniques":12978,"....":12979,"Ġaugmenter":12980,"ĠestimÃ©":12981,"Ġrecettes":12982,"acha":12983,"Ġextrait":12984,"Ġtube":12985,"ĠFall":12986,"ĠÃ©tablir":12987,"ĠBah":12988,"ione":12989,"Ġpatients":12990,"ĠToutes":12991,"ĠmammifÃ¨res":12992,"gord":12993,"aturge":12994,"ĠCalvados":12995,"Ġimpose":12996,"ĠEast":12997,"ĠdotÃ©e":12998,"Ġreconstitu":12999,"AmÃ©ric":13000,"Ġstockage":13001,"ĠEp":13002,"mÃ©trage":13003,"Ġdivise":13004,"Ġmutu":13005,"ĠgÃ©ographie":13006,"ĠdÃ©tr":13007,"Ġpratiqu":13008,"entraÃ®nement":13009,"Ġmoulins":13010,"Ġbiographie":13011,"Ġsamedi":13012,"Ġincomp":13013,"ĠdÃ©rivÃ©s":13014,"viÃ¨me":13015,"ĠXVI":13016,"ĠfermÃ©e":13017,"Ġcommunications":13018,"akistan":13019,"Ġcourbe":13020,"ĠrÃ©compense":13021,"ĠChristine":13022,"ĠÏ":13023,"Ġabsolu":13024,"ĠRoute":13025,"Ġnew":13026,"ĠaccÃ©lÃ©":13027,"ombres":13028,"ĠQuint":13029,"ĠBeat":13030,"Ġordonne":13031,"Ġpeste":13032,"atra":13033,"loge":13034,"cf":13035,"Ġcomprenait":13036,"Ġcadres":13037,"ĠPÃ©rou":13038,"Ġadditionn":13039,"ĠAllen":13040,"quatre":13041,"ĠGrim":13042,"trer":13043,"Ã©na":13044,"Ġconfusion":13045,"Ġtypique":13046,"Ġbruit":13047,"work":13048,"tentrion":13049,"ĠrÃ©vol":13050,"Ġ(+":13051,"ĠRestaur":13052,"Ġphotographe":13053,"Ġhonneur":13054,"aillement":13055,"Ġmalade":13056,"Ġ1884":13057,"ĠCenter":13058,"raille":13059,"ĠAcade":13060,"ĠWilhelm":13061,"ĠrefusÃ©":13062,"ĠRoll":13063,"Ġ79":13064,"ĠbeautÃ©":13065,"ding":13066,"Aur":13067,"ĠnÅĵud":13068,"Ġdynam":13069,"ĠChall":13070,"obl":13071,"ĠprÃ©fÃ¨re":13072,"ĠAutriche":13073,"ĠsÃ©c":13074,"tio":13075,"ĠÃ©par":13076,"ĠMann":13077,"attle":13078,"ĠaffectÃ©":13079,"Ġartistiques":13080,"ĠPiet":13081,"Ġfine":13082,"icatif":13083,"ĠbrÃ©silien":13084,"ymne":13085,"impression":13086,"Ġnavale":13087,"Ġpositif":13088,"Ġvigne":13089,"Ġadulte":13090,"Ġdisparue":13091,"HÃ©rault":13092,"CaractÃ©ristiques":13093,"tise":13094,"Ġbis":13095,"Ġdanois":13096,"iki":13097,"Ġrames":13098,"feld":13099,"Ġmons":13100,"ĠDÃ©s":13101,"Uti":13102,"Ġfichiers":13103,"Robert":13104,"imes":13105,"utri":13106,"Ġembar":13107,"ĠchargÃ©s":13108,"ĠgÃ©nÃ©rations":13109,"Ġassembl":13110,"Eug":13111,"Ġaustralien":13112,"bout":13113,"pol":13114,"top":13115,"Ã©lÃ©ment":13116,"ĠÃ©car":13117,"ĠPatrimoine":13118,"ĠAsh":13119,"ĠdÃ©coration":13120,"ĠAlice":13121,"Arn":13122,"Ġ1887":13123,"ĠÃ©quipÃ©":13124,"ĠIns":13125,"Ġbombar":13126,"AngoulÃªme":13127,"ĠVladimir":13128,"Ġsexuelle":13129,"titre":13130,"ĠHamb":13131,"Ġtirs":13132,"ensif":13133,"ĠsouverainetÃ©":13134,"Ġmineurs":13135,"ĠempÃªcher":13136,"ydrogÃ¨ne":13137,"ĠdÃ©corÃ©e":13138,"Ġposth":13139,"icales":13140,"ĠrÃ©vision":13141,"zabeth":13142,"animal":13143,"gnation":13144,"].":13145,"ĠNoire":13146,"Ġabsent":13147,"Ġcirculaire":13148,"Ġparfait":13149,"ĠBang":13150,"ĠNot":13151,"Ġautocht":13152,"Ġpropositions":13153,"ĠSauv":13154,"Ġplas":13155,"Ġcontiennent":13156,"ĠDyn":13157,"impact":13158,"ĠcoÃ»ts":13159,"ĠBÃ¢le":13160,"ĠNiger":13161,"ĠBoh":13162,"Ġdessus":13163,"ĠlignÃ©e":13164,"lez":13165,"Ġoccupant":13166,"athlÃ©tisme":13167,"Ġmoyennes":13168,"Ġcerveau":13169,"astronomie":13170,"urthe":13171,"Ġcommandes":13172,"ĠShow":13173,"ĠdÃ©gradÃ©":13174,"PI":13175,"ĠFinaliste":13176,"ĠIrlande":13177,"Ġ83":13178,"ĠTerrit":13179,"ĠopposÃ©":13180,"ĠSark":13181,"Ġsonde":13182,"ĠMarvel":13183,"Revenus":13184,"1963":13185,"champion":13186,"Ġrame":13187,"Ġaccompagne":13188,"ĠJoy":13189,"Ġromaines":13190,"autel":13191,"ĠspÃ©ciaux":13192,"ĠVerne":13193,"imie":13194,"Ġpros":13195,"Ġ69":13196,"Ġindire":13197,"Ġurbains":13198,"ĠBoc":13199,"ĠBey":13200,"ĠMÃ©s":13201,"cipation":13202,"Ġaccum":13203,"ĠScÃ©nario":13204,"Ġlecteur":13205,"Ġmodule":13206,"akes":13207,"Ġdominante":13208,"ĠNar":13209,"Ġmasculine":13210,"İles":13211,"iÃ¨mes":13212,"Ġ600":13213,"Ġcontinuent":13214,"ĠLef":13215,"ĠPenn":13216,"ĠGor":13217,"ĠÃ©tudiÃ©":13218,"ĠtransportÃ©":13219,"Premier":13220,"Ġpoche":13221,"Ġottoman":13222,"Ġvaisseaux":13223,"gre":13224,"Ġanarch":13225,"ĠLigne":13226,"str":13227,"stÃ¨re":13228,"atelier":13229,"Ġaccorde":13230,"ĠthÃ©m":13231,"ĠBoud":13232,"ĠadaptÃ©e":13233,"ĠimplantÃ©s":13234,"Ġlou":13235,"ape":13236,"ĠdestinÃ©es":13237,"Ġcheveux":13238,"Ġpuissante":13239,"ĠCuba":13240,"igion":13241,"ĠĊĠĊĠ":13242,"Ġ92":13243,"Ã©tale":13244,"atel":13245,"Ġcite":13246,"Ġtort":13247,"ĠRacing":13248,"ĠthÃ©orique":13249,"GC":13250,"vez":13251,"athÃ¨que":13252,"Ġbleue":13253,"Origine":13254,"tÃ©roÃ¯de":13255,"raphie":13256,"Ġfabrique":13257,"Ġ<":13258,"ĠCoul":13259,"ĠRomain":13260,"EPCI":13261,"abitat":13262,"Ġpatient":13263,"technique":13264,"ĠMÃ©di":13265,"Ġalp":13266,"Ġ1863":13267,"Ġsympt":13268,"ĠSard":13269,"Ġnomin":13270,"Ã©tÃ©s":13271,"abulaire":13272,"Ġtissu":13273,"2022":13274,"Ġheur":13275,"Ġfemelles":13276,"Ġlogo":13277,"Ġ(-":13278,"Ã©limin":13279,"ĠOccident":13280,"RÃ©compenses":13281,"Ġaccessibles":13282,"Ġmanuscrits":13283,"Ãīdouard":13284,"Ġ1866":13285,"ĠPower":13286,"ÃīvÃ©nements":13287,"Ġcompilation":13288,"Ġdits":13289,"ĠSport":13290,"itÃ´t":13291,"ĠConservatoire":13292,"sor":13293,"ĠEnv":13294,"ĠÃ§":13295,"Ġcomique":13296,"Ġseuil":13297,"Ġiran":13298,"ĠPit":13299,"veille":13300,"1914":13301,"TÃ©lÃ©vision":13302,"Ġarist":13303,"ĠHart":13304,"ĠdÃ©pendait":13305,"ĠtÃ¢che":13306,"Ben":13307,"Coll":13308,"assements":13309,"ĠdÃ©pression":13310,"lavie":13311,"Ġsculptures":13312,"ĠamÃ©liorer":13313,"ĠBeauvais":13314,"Ã©tape":13315,"ĠdÃ©nommÃ©":13316,"Actrice":13317,"ĠEnsuite":13318,"ĠFres":13319,"PD":13320,"Ġtransformer":13321,"ese":13322,"Ã©tablissements":13323,"archevÃªque":13324,"Ġrentre":13325,"For":13326,"ĠIer":13327,"idth":13328,"Ġdatent":13329,"Ġ~":13330,"ativitÃ©":13331,"Ġimplique":13332,"Ġintercommunal":13333,"ĠLittle":13334,"angers":13335,"oyant":13336,"Ġfan":13337,"ĠextÃ©rieure":13338,"Ġsauvages":13339,"Ġaudio":13340,"ĠOrient":13341,"kerque":13342,"Ġconduire":13343,"Ġdevise":13344,"ĠmÃ©dical":13345,"Ġdangereux":13346,"Ġavantage":13347,"ozy":13348,"ĠWalt":13349,"ĠGenre":13350,"oxes":13351,"ĠdÃ©ci":13352,"ĠcontinuitÃ©":13353,"Ġretourner":13354,"Ġvernaculaire":13355,"carb":13356,"Ġplong":13357,"adelph":13358,"ailly":13359,"Ã¨nent":13360,"Ġcris":13361,"isant":13362,"Ġassiste":13363,"Ast":13364,"ĠÃ©choue":13365,"ĠhÃ©rÃ©":13366,"Ġplacer":13367,"Ġweek":13368,"ĠMoliÃ¨re":13369,"iane":13370,"escal":13371,"Ġquai":13372,"oxygÃ¨ne":13373,"omÃ©":13374,"Ġfans":13375,"Ġarr":13376,"Ġentreprend":13377,"Ġperc":13378,"Ġvolcan":13379,"Ġgloire":13380,"ĠrÃ©clam":13381,"Ġcandidature":13382,"lets":13383,"ĠvÃ©tÃ©":13384,"Enfant":13385,"ĠparaÃ®tre":13386,"ĠmunicipalitÃ©s":13387,"HÃ´tel":13388,"aider":13389,"Ġbrun":13390,"ĠprononcÃ©":13391,"lag":13392,"ĠMÃ©ri":13393,"tÃ©n":13394,"associ":13395,"ĠZh":13396,"Ġprolongement":13397,"Ġ1851":13398,"Ġfavoriser":13399,"ĠvoÃ»te":13400,"ĠLour":13401,"Ġcourante":13402,"Ġgrecs":13403,"ĠMicrosoft":13404,"ĠCÅĵur":13405,"OP":13406,"Ġsocialistes":13407,"Ġoct":13408,"Ġ1883":13409,"ĠVirginie":13410,"Ġnaturellement":13411,"ĠVerdun":13412,"Ġaxes":13413,"Ġrapides":13414,"Ġenvisage":13415,"Ġconstructeur":13416,"ĠÃ©tudiant":13417,"istres":13418,"Ġauto":13419,"Ġindisp":13420,"Professeur":13421,"ougoslavie":13422,"Ġondes":13423,"Ġgel":13424,"lio":13425,"Ġfortifications":13426,"Ġamateurs":13427,"ophile":13428,"Ġrives":13429,"illÃ¨re":13430,"ustri":13431,"mais":13432,"etto":13433,"ĠSyd":13434,"ĠrÃ©soudre":13435,"ĠGuide":13436,"Ġnoctur":13437,"ĠÃ©vi":13438,"Ġinscriptions":13439,"Ġ1000":13440,"ĠMadagascar":13441,"Ġincap":13442,"ĠidentitÃ©":13443,"Ġentame":13444,"Ġfluvi":13445,"ĠdatÃ©":13446,"ĠÄ":13447,"Ġdissolution":13448,"ĠLorsqu":13449,"apprentissage":13450,"Bernard":13451,"Ġexpression":13452,"emmes":13453,"espoir":13454,"alliance":13455,"Ã©ronautique":13456,"Duc":13457,"Men":13458,"Ġofficiels":13459,"Ġcirconstances":13460,"ĠgÃ©omÃ©t":13461,"Ġsonore":13462,"assent":13463,"Ġdoubl":13464,"otyp":13465,"olais":13466,"ĠRC":13467,"ĠHas":13468,"Ġ800":13469,"1961":13470,"ĠYann":13471,"ĠDauphinÃ©":13472,"ĠCF":13473,"ĠRoth":13474,"onniÃ¨re":13475,"nationale":13476,"ĠmÃ©canis":13477,"ĠNich":13478,"ĠSystÃ¨me":13479,"ĠcÃ©rÃ©b":13480,"ĠDocteur":13481,"IR":13482,"agence":13483,"ĠTrip":13484,"MÃ©di":13485,"Ġhol":13486,"BS":13487,"oure":13488,"Ġbrou":13489,"ĠSat":13490,"Ġ250":13491,"Ġ99":13492,"Ġprotestante":13493,"Ġpanneaux":13494,"Ġfir":13495,"amÃ©ricaine":13496,"Ġdil":13497,"ĠtransformÃ©e":13498,"ĠRain":13499,"Ã©da":13500,"torale":13501,"orgie":13502,"ĠjugÃ©":13503,"ĠpossÃ©dant":13504,"wen":13505,"ĠdÃ©fic":13506,"osaur":13507,"IntÃ©rieur":13508,"Ġsituations":13509,"ĠabbÃ©":13510,"ĠAct":13511,"istrict":13512,"ĠMast":13513,"ĠFÃªte":13514,"ĠKu":13515,"ĠRussell":13516,"Ġpend":13517,"Ġentretien":13518,"ĠdÃ©finitive":13519,"Asc":13520,"1939":13521,"Ġappartements":13522,"Ġ1862":13523,"Ġvolc":13524,"irac":13525,"Ġfirent":13526,"ĠMaÃ®tre":13527,"ĠrÃ©actions":13528,"Ġinsta":13529,"Ġblessures":13530,"Ġchantiers":13531,"Ġscandale":13532,"gcolor":13533,"accident":13534,"ĠnÃ©c":13535,"ĠAnim":13536,"ĠClark":13537,"DS":13538,"amo":13539,"ĠcrÃ©dit":13540,"Ġriz":13541,"ĠISO":13542,"ĠmÃ©moires":13543,"Ġbassins":13544,"Ġultra":13545,"DÃ´me":13546,"oku":13547,"ĠĊĠĊĠĊĠĊĠĊĠĊĠĊĠĊ":13548,"ĠMig":13549,"ĠRÃ©giment":13550,"ĠGasc":13551,"Ġtimbres":13552,"Ġpassa":13553,"Ġsuffit":13554,"Ġofficielles":13555,"Et":13556,"bury":13557,"Ġavis":13558,"ĠmystÃ©rie":13559,"ĠNature":13560,"ĠRis":13561,"Ġchars":13562,"ĠJustin":13563,"Ġ1831":13564,"Ġcorrec":13565,"ĠAirlines":13566,"ĠdÃ©rive":13567,"Ġinsectes":13568,"ĠStone":13569,"ĠColumbia":13570,"ĠJr":13571,"Ġ1872":13572,"Ġcentrales":13573,"Ġcenti":13574,"ĠReine":13575,"ĠrÃ©pertori":13576,"Ġclinique":13577,"Ġinvasion":13578,"ĠrÃ©Ã©dition":13579,"ussitÃ´t":13580,"assainissement":13581,"Julien":13582,"ĠroutiÃ¨res":13583,"Ġcanaux":13584,"Ġpolyn":13585,"Ukraine":13586,"Ġflan":13587,"ĠCarcass":13588,"ĠVinc":13589,"bul":13590,"alom":13591,"ĠvÃ©c":13592,"ĠDav":13593,"Ġexistence":13594,"ĠMem":13595,"Ġfichier":13596,"Ġvues":13597,"PÃ©t":13598,"ĠpassÃ©e":13599,"Ã¨bre":13600,"Ġpermit":13601,"ĠCiv":13602,"Ġphilosophique":13603,"Ġorientales":13604,"cet":13605,"Ġdents":13606,"Ġparach":13607,"oÃ¯de":13608,"viÃ¨ve":13609,"ĠdÃ©missionne":13610,"rÃ©hension":13611,"Ġsouligne":13612,"Ġconstructeurs":13613,"ĠaccusÃ©":13614,"Ġoubli":13615,"ĠRecher":13616,"Ġparticipants":13617,"ESCO":13618,"Ġremonter":13619,"lica":13620,"Ġvenait":13621,"ĠÃ©rigÃ©":13622,"effectu":13623,"ĠElect":13624,"Ġ87":13625,"Ġcomprennent":13626,"acty":13627,"Ġsubstance":13628,"Soci":13629,"Orne":13630,"ĠbaptisÃ©":13631,"ĠKenne":13632,"Ġ93":13633,"Ġ1865":13634,"Ġvenue":13635,"Transport":13636,"Ġromains":13637,"Ġinscription":13638,"accus":13639,"oum":13640,"Ġalimentaires":13641,"otique":13642,"ultime":13643,"ilib":13644,"ĠdÃ©lÃ©gation":13645,"Ġprud":13646,"ĠPoint":13647,"kk":13648,"ĠÃ©voluer":13649,"cesseurs":13650,"ĠÃ©duc":13651,"ĠSah":13652,"ĠFle":13653,"Ġantic":13654,"ielles":13655,"Ġbords":13656,"aac":13657,"Ã©tition":13658,"ĠDÃ©but":13659,"assique":13660,"Ġ{":13661,"Ġsacri":13662,"ĠSteven":13663,"Ġ1861":13664,"ben":13665,"EF":13666,"onneurs":13667,"Ġcond":13668,"ĠBurg":13669,"ogÃ©n":13670,"ĠLaf":13671,"ĠFerr":13672,"ĠJup":13673,"ĠcomÃ©dien":13674,"objets":13675,"Ġcadet":13676,"ĠachÃ¨te":13677,"pra":13678,"aurÃ©":13679,"ĠDrÃ´me":13680,"Ġsimplif":13681,"ogue":13682,"Ġtombes":13683,"Ġimmense":13684,"Ġfossiles":13685,"PremiÃ¨re":13686,"ersbourg":13687,"rug":13688,"ingham":13689,"ĠdiplÃ´":13690,"ĠJulie":13691,"Bl":13692,"ĠChartres":13693,"Ġabsorb":13694,"Ġfragments":13695,"ĠBulletin":13696,"Ġlig":13697,"Ġparviennent":13698,"Ġcoff":13699,"Ġpente":13700,"ĠjÃ©s":13701,"ĠtournÃ©es":13702,"Ġartificielle":13703,"ĠTournoi":13704,"ĠJun":13705,"ĠsÃ©lectionnÃ©":13706,"mÃ©es":13707,"acum":13708,"ĠdÃ©signant":13709,"ĠÃ©preuve":13710,"Ġorganes":13711,"ĠdegrÃ©s":13712,"ĠFranck":13713,"ĠChemin":13714,"Aube":13715,"Ġ91":13716,"Ġchev":13717,"ĠmathÃ©matique":13718,"Ã¯que":13719,"travail":13720,"point":13721,"ĠHistory":13722,"Ġprotocole":13723,"Ġbol":13724,"ĠorganisÃ©s":13725,"Ġcampus":13726,"ĠBrand":13727,"relles":13728,"New":13729,"ĠEP":13730,"ĠDÃ©t":13731,"Ġreport":13732,"posÃ©e":13733,"ĠlatÃ©ra":13734,"Ġserment":13735,"Ġprotestant":13736,"ĠBlues":13737,"ĠEdmond":13738,"ĠmillÃ©n":13739,"cuits":13740,"ĠfixÃ©":13741,"Ġremb":13742,"ĠarrivÃ©":13743,"Ġfonctionnaires":13744,"ĠgÃ©rer":13745,"ĠSpor":13746,"lemagne":13747,"Ġpp":13748,"Ġorgue":13749,"ĠUr":13750,"iliation":13751,"ĠÃ©clat":13752,"culaires":13753,"Ġqualifier":13754,"Ġnoires":13755,"ios":13756,"Ġbic":13757,"tistiques":13758,"ĠHavre":13759,"Ġroyaumes":13760,"elieu":13761,"nois":13762,"ellÃ©n":13763,"crÃ©":13764,"Ã²":13765,"Ġblessure":13766,"Ġressemb":13767,"Ġprogress":13768,"oko":13769,"duisant":13770,"Ġmut":13771,"ĠIran":13772,"Ġtemples":13773,"Ġmagasin":13774,"Ġverbe":13775,"trans":13776,"ĠsoviÃ©tiques":13777,"rimoni":13778,"ĠsuggÃ¨re":13779,"ĠmÃ©tropolitaine":13780,"Ouvrages":13781,"Aragon":13782,"Long":13783,"Ġdiffuse":13784,"ragons":13785,"inactifs":13786,"assan":13787,"ika":13788,"adoption":13789,"ĠKab":13790,"Ã¯de":13791,"Ġcroisade":13792,"dies":13793,"Ġclan":13794,"orithme":13795,"Div":13796,"mort":13797,"Ġput":13798,"icus":13799,"Ãītoile":13800,"rone":13801,"Ġsecrets":13802,"Ġdessert":13803,"ĠMÃ©moire":13804,"Ġfameux":13805,"ĠPictures":13806,"Ġmaritimes":13807,"ĠConfÃ©dÃ©ration":13808,"Ġvraisemblablement":13809,"Ġsuicide":13810,"Ã©nement":13811,"ĠreÃ§oivent":13812,"Be":13813,"ĠCrois":13814,"atisme":13815,"Peu":13816,"Ġ1879":13817,"ĠLiban":13818,"Ġtriomphe":13819,"Tout":13820,"âĢ¯":13821,"ĠCarlo":13822,"Ġdevoir":13823,"zel":13824,"âĢī":13825,"say":13826,"1959":13827,"ĠprÃ©fectoral":13828,"Ġremportant":13829,"gnÃ¨s":13830,"ĠBourd":13831,"impulsion":13832,"ĠtÃ©moignage":13833,"Ġdevenus":13834,"Christophe":13835,"accompagne":13836,"Ġ89":13837,"ĠMr":13838,"ĠSang":13839,"ĠChristopher":13840,"ĠillustrÃ©":13841,"Ġnatale":13842,"ij":13843,"ukrain":13844,"ĠQuimper":13845,"ĠMarsh":13846,"ĠMoore":13847,"rope":13848,"illir":13849,"Ġtrah":13850,"anciens":13851,"Ġ86":13852,"Ġ98":13853,"Ġatteinte":13854,"ĠrÃ©volutionnaires":13855,"Ġsyndicats":13856,"ĠFame":13857,"ĠChÃ¢ti":13858,"ĠKevin":13859,"itterrand":13860,"onal":13861,"ĠTER":13862,"ĠAnderson":13863,"ĠdÃ©barquement":13864,"ĠCA":13865,"ĠrÃ©ussite":13866,"Alliance":13867,"Ġlune":13868,"ĠcÃ¨de":13869,"ĠBis":13870,"ĠPortrait":13871,"ĠBry":13872,"ĠDisc":13873,"oshi":13874,"Ġsuperv":13875,"joints":13876,"ĠÃ©ducation":13877,"enton":13878,"ways":13879,"cat":13880,"Ġamie":13881,"Ġ1791":13882,"Ġpist":13883,"Ġconfiguration":13884,"MÃ©":13885,"Port":13886,"ouff":13887,"Chaque":13888,"Ġem":13889,"ĠconcernÃ©es":13890,"ĠgÃ¨re":13891,"Ġaccro":13892,"encer":13893,"Ġprofession":13894,"ĠPalestine":13895,"ĊĠĠĠĠĠĠĠĠĠĠĠĠĠĠĠĠ":13896,"Ġcrimes":13897,"Langue":13898,"Ġmout":13899,"ontan":13900,"Ġmarquant":13901,"ĠcÃ©rÃ©mon":13902,"ĠAfric":13903,"tera":13904,"cluse":13905,"Ġgas":13906,"Alb":13907,"ĠPhiladelph":13908,"ĠrÃ©t":13909,"ĠMeurthe":13910,"Avignon":13911,"ĠsÃ©min":13912,"Ġba":13913,"Ã©quivalent":13914,"Ġavance":13915,"ĠOd":13916,"Ġjuridiction":13917,"ĠTroyes":13918,"Environnement":13919,"Ġeffectifs":13920,"Ñģ":13921,"Ġfromage":13922,"Gra":13923,"Ġrebaptis":13924,"\")":13925,"ĠLaff":13926,"Ġrefuge":13927,"mentaire":13928,"ĠBomb":13929,"Adap":13930,"affiche":13931,"board":13932,"ĠcinÃ©aste":13933,"Ġnotable":13934,"ĠFac":13935,"Ġmaroc":13936,"Ġfrappe":13937,"lade":13938,"ĠspÃ©cialement":13939,"Ġcombattants":13940,"Ġislamique":13941,"montre":13942,"ng":13943,"olin":13944,"Ġannon":13945,"Ġopus":13946,"ĠFrancesco":13947,"ĠtempÃªte":13948,"ĠLambert":13949,"elet":13950,"ĠusÃ©es":13951,"ĠSarah":13952,"ĠPois":13953,"ĠVid":13954,"quettes":13955,"Ġsuccessifs":13956,"ĠconfirmÃ©":13957,"Ġrume":13958,"ĠtÃ©moignent":13959,"Ġdress":13960,"Ġmonts":13961,"Ġabus":13962,"rÃ¨ze":13963,"Ġdistances":13964,"ylvanie":13965,"Ġhabitat":13966,"Ġtombeau":13967,"1956":13968,"omis":13969,"Ġtrad":13970,"ĠChamps":13971,"ĠRig":13972,"Ġcorruption":13973,"ĠDeuxiÃ¨me":13974,"tot":13975,"ĠAC":13976,"aurait":13977,"yes":13978,"ovo":13979,"Ġincert":13980,"Ivoire":13981,"Ġsoud":13982,"ĠQuar":13983,"ignÃ©es":13984,"Ġconstitutionnel":13985,"Ġpatern":13986,"Ġendomm":13987,"ĠAdour":13988,"Ġremettre":13989,"ĠplanÃ¨tes":13990,"rÃ©gation":13991,"Ġpassionn":13992,"ĠAmsterdam":13993,"Ġguide":13994,"Autre":13995,"ĠStory":13996,"Ġgrandeur":13997,"Ã©tang":13998,"Ġconsole":13999,"assaut":14000,"ĠrencontrÃ©":14001,"ĠstabilitÃ©":14002,"Ġinfluences":14003,"Ġhttp":14004,"ĠBest":14005,"ĠpÃ©rimÃ¨tre":14006,"á¹":14007,"europÃ©":14008,"ĠCot":14009,"ĠUrb":14010,"rah":14011,"ĠConn":14012,"ĠHach":14013,"avions":14014,"Ġprocureur":14015,"ĠST":14016,"ĠPrague":14017,"marion":14018,"ĠtÃ©moignages":14019,"ĠAlexis":14020,"ĠPri":14021,"Ġmemb":14022,"ĠPhilip":14023,"Ġcollective":14024,"Ã©gard":14025,"ographes":14026,"ArdÃ¨che":14027,"ĠSarkozy":14028,"ĠMembre":14029,"ilienne":14030,"ĠPÃ©kin":14031,"ĠrÃ©unis":14032,"ĠcolÃ¨re":14033,"ĠFreder":14034,"Ġconstruis":14035,"eront":14036,"orien":14037,"ĠtÃ©moin":14038,"tÃ©lÃ©film":14039,"ĠKan":14040,"Ġben":14041,"Ġcomposants":14042,"ĠGordon":14043,"inscription":14044,"Ġinstant":14045,"Plan":14046,"oitou":14047,"ĠcoopÃ©ra":14048,"olyte":14049,"kar":14050,"rimerie":14051,"ĠplacÃ©s":14052,
[...]
