#version: 0.2
Ġ d
Ã ©
e s
Ġ l
e n
o n
Ġd e
Ġ p
a n
Ġ c
r e
Ġ s
t i
e r
i s
Ġ a
i n
o u
a r
q u
e t
en t
l e
Ġl a
i t
u n
o r
u r
t e
Ġ m
Ġ et
o m
i l
Ġ Ã
ti on
Ġl e
Ġ f
a l
Ġ en
r a
Ã ¨
ĠÃ ł
Ġ t
qu e
Ġd es
i e
r Ã©
Ġ L
Ġ (
u s
Ġd u
Ġ un
es t
m ent
Ġ n
Ġ C
e l
ou r
Ġ 1
r o
an t
r i
a u
Ġp ar
Ġl es
c e
an s
o l
c h
Ġ Ã©
Ġ v
a t
n e
Ġ S
Ġa u
a s
on t
Ġc om
a tion
m e
Ġ est
Ġ M
Ġ P
Ġ qu
Ġ :
r es
v e
s i
s e
Ġ b
Ã© e
Ġd Ã©
d e
Ġ g
a g
c i
Ġ B
i re
a is
â Ģ
l i
Ġd ans
Ġ A
t Ã©
Ġ1 9
r an
Ġ re
2 0
m p
a in
Ġc on
Ġ rÃ©
Ġun e
Ġ Ċ
âĢ Ļ
Ġ D
Ġp l
Ġ R
Ġp our
Ġs e
d i
Ġ Â
er s
l es
Ġ in
Ġ F
i r
Ġ G
Ġ T
Ġc h
Ġs ur
t a
o s
Ġ 20
Ġ e
a c
un e
a le
it Ã©
Ġqu i
Ġcom m
u l
Ġp ro
i g
t u
u x
o p
Ġ j
o g
Ġ r
Ġ h
el le
t re
i c
Ã© r
Ġ I
Ã¨ re
Ġ que
Ġ E
f f
a m
a b
Ġ J
u t
o t
or t
) ,
Ã¨ s
a it
il le
i que
Ã ª
qu es
is t
ur s
ou v
Ġpl us
o c
p e
en d
Ġ N
Ġs u
i v
ve c
o is
Ġ H
it e
Ġ il
i on
u e
Ã© s
Ã© es
g e
t er
ĠL e
a ire
m i
Ġa vec
Ġ V
a p
in e
Ġs on
c es
c tion
an d
p h
a i
Ġ ou
on n
) .
ag e
ĠL a
en s
il l
Ã §
Ġ an
Ġs ont
Ġe x
s t
ĠÂ »
Ġp e
p ar
Ã© n
ĠÂ «
Ġ o
Ġ ,
Ġp rÃ©
p r
i m
u is
au x
ĠC h
Ġt r
v i
ou s
ch e
Ġpar ti
m b
Ġ ;
Ġp r
u re
Ã© ri
ti que
or d
Ġcomm une
l le
a d
on d
u m
or s
u b
u i
er t
et te
Ġ .
is e
ar d
Ġn om
a y
Ġp as
Ġs a
ĠI l
on s
Ġ20 1
Ġ20 0
ent re
o ire
Ġcom p
an ce
Ġm o
Ã ´
te ur
i er
Ġ ra
1 9
t es
n es
Ġc e
Ġau x
Ġ %
o i
d u
p p
Ġt ra
Ġ Ġ
Ġa v
o ir
Ġa c
l Ã©
en ce
ran Ã§
L e
r u
re mi
Ã ¢
Ã© ra
Ġ te
ti n
Ġf or
ation s
Ġd i
en ne
Ġa r
Ġa l
Ġt er
a v
Ġ K
ĠL es
r it
in s
is te
Ã© c
Ġde ux
ment s
b re
i Ã¨
Ġn e
Ġc ar
ra ph
ain t
Ġ O
Ġ W
m es
Ġp remi
i mp
Ġ19 9
tu re
Ġ1 8
Ã© g
Ġ 2
L a
Ġc ont
Ġcom me
ranÃ§ ais
Ã© t
Ġs es
l a
ĠP ar
ol og
ĠÃ© tÃ©
ti f
s ent
Ġm ar
i d
t res
i b
Ġcomm un
Ã© m
h e
Ġf ait
Ġm ais
Ġf ranÃ§ais
o it
Ã ī
og raph
r ou
Ġ entre
E n
o b
ĠE n
ant s
ĠF ran
Ã ®
al l
i en
ci p
Ġt ou
Ã© d
as s
U n
ĠM ar
an g
Ġ -
er m
c u
ain e
si on
our s
e c
Ġcon s
in g
al es
ĠÃ© ta
o y
t s
Ġm on
ĠdÃ© c
p o
o ci
ran d
us si
on ne
om m
al is
l is
t at
i ques
ale ment
a ce
Ġd is
ĠrÃ© g
en ces
Ãª me
ĠÃ ī
ai res
c o
Ġan n
te ment
ĠS aint
ig n
Ġc l
s s
ou ve
e x
ro is
f Ã©r
Ġa ussi
ub li
pr Ã¨s
a mp
an te
tion s
ĠFran ce
Ġf in
Ġ19 8
er v
m in
Ġ 3
a ti
d es
Ġd ont
Ġ elle
on g
c t
le ment
Ġ ont
al itÃ©
Ġc ette
ĠA n
ol i
ĠÃ© c
or m
er re
Ã© tÃ©
ĠJ e
Ã ł
Ġs ous
r ie
it u
Ġf il
t ra
ti tu
1 8
ĠÃ© g
Ġ or
Ġ es
Ġg Ã©n
v en
si d
ur es
ig ne
an n
Ġp o
el les
Ġpe u
Ġin ter
Ġp uis
Ġ ti
ar i
ograph ie
Ġc ol
Ġa m
Ġ imp
Ġ ro
Ġparti e
ti v
in si
in t
Ġl ui
ti s
st ru
Ġa pp
L es
Ġdi ff
Ġ19 7
Ġa d
Ġnom bre
a te
Ġle ur
p uis
Ġm e
us e
Ã©r ie
Ġa t
u ti
Ġn o
ers onn
l an
ĠdÃ© par
Ġp h
Ã ¹
our n
Ġch e
i f
Ġs ol
Ġm a
Ã¨ res
Ġm Ãªme
ie u
Ġtra v
A r
Ġre c
i ens
ĠÃ ª
Ã© v
ouv er
ĠPar is
e u
Ġpr in
ag es
e au
o de
t h
ĠÃª tre
0 0
end ant
b le
g l
Ġte mp
i ch
l Ã¨
Ġpe ut
e mp
Ġal ors
ri c
ot es
ĠD e
ag ne
Ġo b
Ġs er
r on
ci en
Ġ 4
ay s
o d
er n
ab le
Ġp os
fÃ©r ences
Ġm il
Ġ res
an is
Ġre p
f in
iv ers
Ġa insi
ti c
Ġo Ã¹
A n
Ġp erm
ri v
Å ĵ
Ġn ation
l u
ĠÃ©g alement
ag n
Ċ Ġ
Ġ y
ĠrÃ©g ion
Ã© p
Ġl ors
Ġs t
Ġc rÃ©
i x
g es
ĠJe an
ĠA l
Ġp ubli
Ġs itu
on c
Ġg rand
Ġt rois
ais s
t en
ain s
Ġj us
Ã© di
is s
mb re
u tion
Ġs y
Ġse c
ou p
Ġtr ans
i ent
qu i
Ġ1 7
en ti
Ġ 5
Ġpro p
ĠÃ©ta it
ou l
y p
ĠdÃ©par tement
Ġa prÃ¨s
Ġ U
Ċ Ċ
a re
h Ã©
rou pe
Ġc es
li m
ie ux
Ġf ut
at ure
o v
it s
Ġs p
ur op
Ġter rit
Ġtr Ã¨s
au t
r n
er g
Ġcont re
ĠÂ» ,
ist oire
Ġb as
r is
Ġv ille
Ġ19 6
at h
u es
u d
or te
uti lis
Ġ ans
ie urs
j et
ent s
ti ques
Ġex p
Ġa p
Ã ¯
Ġs c
Ġp oli
t ant
N otes
ĠdÃ© b
Ã©ri c
ĠdÃ© p
Ġde puis
ent e
Ġpremi er
i a
cu p
i es
ti ve
Ġm us
Ġ oc
olog ie
m ment
ch er
l s
m an
ĠĠ ĠĠ
Ġ |
Ġs oci
itÃ© s
Ġpro du
ĠE lle
om p
l o
Ġ z
on e
I n
Ġm in
Ġ Y
Ġcommun es
ĠÃ© v
Ġpremi Ã¨re
Ġg u
Ġv ers
ction s
u v
Ġac c
Ġn Ã©
se ment
Ã¨ ne
op ul
Ġa b
Ġc our
Ġ Q
Ġe ff
a z
il les
Ġr en
u g
Ġp ersonn
e m
li g
Ġann Ã©es
Ġc or
Ã© rÃ©
ri m
ĠA r
Ġs ou
ou e
ul ture
Ġsu iv
ĠG u
om me
Ġ on
Â ł
ĠI n
ai ent
Ġc el
Ġprin cip
Ã©r al
in es
iÃ¨ me
Ã© lÃ©
ĠprÃ© sent
a ille
a Ã®
ri b
c l
ĠC e
Ġde rn
Ġa g
Ã¨ me
el on
Ġperm et
Ġ 6
ĠÃ© le
Ġp ays
om b
rÃ© sent
Ġdiff Ã©r
Ġau t
ch es
Ġ âĢ
a teur
Ġex ter
ier re
ĠĊ ĠĊ
aiss ance
at s
Ġ X
Ġplus ieurs
Ġ Un
Ġm an
Ġjus qu
Ġcon n
ĠfranÃ§ais e
o le
ce p
i ve
Ġ utilis
ist or
Ã© ta
Ġp Ã©ri
ain es
Ġa ss
Ġd onn
ais on
v el
ĠĊ Ċ
t r
Ġfil m
is ion
Ġs oit
Ã »
Ġcon c
Ġc in
Ġs iÃ¨
t o
in d
ĠrÃ© fÃ©rences
op h
ĠÃ© p
se mb
Ġn ature
i ci
Ġl i
Ġcon f
Ġno ta
te urs
Ġp opul
it es
en n
Ġl ong
r ent
a k
Ġc ert
p ort
Ġcon stru
ĠJ o
ri g
il i
el l
Ġrep rÃ©sent
Ġm ort
ĠrÃ© s
Ġ19 5
tat s
ran de
Ġmo y
Ġexter nes
vi ent
Ġc ap
Ġav ant
Ġ1 5
Ġtou t
f ic
ou t
L iens
Ġl oc
Ġf ond
ĠÂ» .
Ġ Z
on om
ant es
ar t
Ġj u
re t
ĠR e
Ġn ouv
Ġs ans
Ġp er
u c
Ġfor m
Ġr ou
an c
Ġ19 4
I l
Ġ 7
Ġd ire
on de
Ġm ont
Ãª te
ĠM ont
Ġs Ã©
f orm
Ġo ff
Ġc lim
ĠrÃ© alis
Ġterrit oire
tion n
Ġ1 6
Ġg roupe
Ġam Ã©ric
au l
Ġes p
Ġc o
ol ution
ĠC ar
Ġf am
Ġen v
ĠCh ar
v ent
c le
Ã¢ te
ab it
Ġre mp
i Ã¨re
Ġj e
1 7
Ġnota mment
our g
m a
i ti
Ġpe ti
Ġpro f
on es
s u
Ġap par
Ġv ol
tÃ© s
ist ra
Ġf ois
Ġau tres
ĠC l
re r
ne x
Ġ 8
co re
r y
si tion
a ch
Ġ| |
Ġmon de
p er
ie l
ĠT h
Ġb ien
Ġr om
Ġsol s
Ã©ra tion
as se
Ġde v
er ie
us es
ĠQ u
Ġd ro
Ġ ent
a h
Ġn ouve
ĠrÃ© p
cup ation
Ã´ le
Ġin s
ne ment
A l
a de
Ġm at
Ġpas s
ĠC on
li er
ol es
Ġqu at
Ġmo ins
v es
end re
vel op
Ġc ours
Ġn on
min istra
ĠC ette
v er
us s
Ġimp ort
Ġsu c
z e
Ġf on
as si
Ġc an
p i
il s
Ġo f
Ġn ord
a me
ch Ã©
Ġv ill
Ã© ro
amp ion
Ġd om
Ġsu d
g anis
Ġque l
f ois
Ġm Ã©t
ist es
ĠÃ Ģ
Ġc ou
Ġa ff
Ġtemp s
ĠdÃ© velop
Ã© b
Ġpl ace
lle m
ent es
ĠdÃ© m
ĠpÃ©ri ode
n ation
Ġ19 3
ab les
y n
Ġe mp
ch n
rÃ© e
t on
Ġpoli tique
Ġc elle
C h
Ġ ri
es se
l ie
ĠT he
ĠdÃ©b ut
our d
Ġv ie
Ġnation al
ouv ent
Ġ 9
a ur
i ce
l ise
Ġ "
Ġc as
l les
ri Ã¨re
ĠdÃ© f
Ġen core
on y
ou is
l us
Ġ op
Ġcons titu
20 0
ap p
Ġs ite
Ġpar t
Ġl Ã©g
Ġle urs
Ġmo d
Ġf a
qui pe
Ġ201 8
Ġra pp
I I
Ġgu erre
Ġsu ite
ĠP h
ĠC or
ĠgÃ©n Ã©ral
ri x
elle ment
Ġc ant
Ġt our
ĠÃ© tu
se au
an e
Ġn ive
am b
an ge
l er
Ġparti r
is me
ĠS e
urop Ã©
Ġ â
r Ãª
Ġav oir
el s
Ġti tre
o w
Ġg rande
Ġav ait
o re
1 0
Ġparti cu
Ġv ari
ĠprÃ© c
tif s
Ġch ar
Ġh istor
ib li
u le
Ġ% ),
Ġp ouv
Ġcomp te
ur b
ĠprÃ© sid
ti er
Ġp at
Ġl ieu
rÃ© s
or i
nex es
Ġt hÃ©
Ġm al
b les
Ġg r
oi res
Ġre t
Ġv er
Ġcomp os
Ġd ou
te l
om e
is sion
Ã© ci
Ġf aire
. .
Ġt ous
ti e
Ġs ign
Ġs elon
Ġc ent
Ġcel ui
Ġpubli c
Ġr est
Ã¢te au
i ers
ra m
Ġ k
l and
ĠN e
b um
c ul
as t
ĠD ans
ĠU ne
an de
olog ique
Ġd ur
y ant
Ġj oue
Ġh abit
it al
m ar
a que
g u
Ġf er
Ġt Ã©lÃ©
au tres
Ġ1 0
tÃ© g
it aire
ĠÃī tats
Ġb at
ĠS t
un i
et s
al le
ci d
en se
i le
Ġd onc
Ġp ort
m Ã©e
Ġb i
en nes
Åĵ uv
ĠgÃ©n Ã©ra
s erv
u it
us t
Ġg ouver
Ġro i
Ġnive au
a x
Ġm en
Ġe uropÃ©
Ãª tre
Ġin d
1 6
Ġse p
Ġfam ille
Ġc a
h ui
tic les
Ġnouve au
Ġin f
Ġapp el
g n
ĠJ ac
Ġfor me
Ġ1 2
ri p
Ġin c
ot h
le x
1 5
ro p
Ġs Ã©rie
is es
Ġc Ã´
Ġsitu Ã©e
or is
Ġl im
po que
Ġpro v
Ġin di
au d
Ġs i
r Ã¨s
Ġpl an
a ill
Ġcar ac
an ces
Ġquat re
Ġ1 4
V oir
s p
ic t
Ġtr ouve
Ġtou te
ĠÃ© t
tÃ© rie
k e
ri ce
pe c
di tions
ri que
Ġsp Ã©ci
Ġre g
ĠS h
a il
h n
oc cupation
Ġf em
p es
en c
ac c
R Ã©
Ġ ).
o se
Ġl igne
ur ent
Ġcant on
ass in
li c
ti ent
ĠA u
Ġv is
ĠC ol
M ar
emp le
Ġte chn
au me
Ġl ang
Ġde vient
Ġp endant
ĠB ar
ĠM e
19 9
es s
s ur
Ġa yant
j ourd
ĠO n
Ġs or
Ġg ra
Ġ1 3
1 4
Ġp res
Ġd iv
Ġcon sid
ex p
Ġvill age
b e
y s
Ġa s
Ã¨ de
ra ge
le ction
A u
Ġâ Ķ
a di
il m
i enne
Ġ ouv
Ġ im
Ġcl ub
ĠP ierre
Ġfon ction
Ġf r
Ġcom pr
Ġg Ã©
Ġ201 0
semb le
ĠâĢ ĵ
ĠdÃ© s
is tre
c teur
Ġmar qu
si ons
Ġnouv elle
ro s
Ġad ministra
Ġquel ques
it er
ro g
ais e
Ġil s
Ġsu b
P ar
p s
N aissance
vi ce
D Ã©c
a Ã¯
Ġpopul ation
Ġm et
ra in
Ġ( )
ĠM ich
ti Ã¨re
Un is
ranÃ§ ois
Ġpro g
te mp
Ġp ra
Ġinter nation
Ġmoy enne
Ġme ille
Ġl ib
ig ine
Ġma j
D e
Ġl og
Ġmon di
v al
au tÃ©
Ġ( ),
co le
Ġsy st
Ã© l
y pe
Ġm ise
Ġcon se
ivers itÃ©
omm un
en ant
Ġcomm er
Ġau tre
ĠL ouis
o ine
urop e
Ar ticles
Ġc ulture
y d
Ġbas e
Ġcon nexes
ĠG e
1 2
Ġsoci Ã©tÃ©
m Ã©
Ġac tu
ci enne
Ġdes s
Ġ19 2
Ġz ones
is on
oi x
Ġfil s
o x
alitÃ© s
po sition
ir on
ol y
Ġdis p
Ġre pr
v ille
Ġt ourn
ri er
ĠâĶ Ĥ
a vi
y si
iv re
Ġdern ier
Ġpos s
i tion
o k
Ġv i
Ġnombre ux
l ac
p endant
Ġpeu vent
Ġs ouvent
ĠamÃ©ric ain
ra it
i me
t ent
ĠrÃ© v
m er
Ġpl u
Ġs aison
5 0
Ġeff et
Ġc at
c ont
ĠG rand
Ġcom b
Ġl it
Ã¨ g
Ġt he
D ans
Ãī tat
1 3
n Ã©
l in
Ġro y
H istoire
ĠC an
Ġsec ond
Ġt h
ou se
Ġm uni
ĠD es
s on
ĠP ro
Ġf ort
ĠR ob
Ġen f
Ġsu p
f s
il li
Ã© li
aÃ® t
o ot
o ie
au te
Ġm ouve
ar ch
Ġtemp Ã©ra
er a
c rip
ra s
Ġ199 0
ĠsiÃ¨ cle
Ã¨ te
Ġsuc c
v ers
Ġ200 0
ord re
f or
Ġt yp
or igine
al ie
Ġc entre
Ġr Ã´le
k i
DÃ©c Ã¨s
a ff
Ġser vice
Ġs ens
ĠrÃ© c
ou est
c s
Ã¨ rent
Ġmon u
su ite
il es
a e
Ġpr Ã¨s
ces s
o in
Ġf l
Ġcon tin
Ġd ist
Ã Ģ
Ġ id
ĠÃ©ta b
h istoire
il itÃ©
Ġau jourd
ĠP e
Ġsu pp
Ġc ir
res s
Ġche z
O r
u li
po se
Ġ% ).
ĠP our
ran g
i Ã©
Ġc ri
Ã©v olution
P ersonn
Ġclim at
ĠS on
Ġch Ã¢teau
Â °
Ġj ourn
Ġde ven
Ġm Ã©
Ġch ampion
Ã¢ ti
ĠÃ© tant
Ġ20 2
Ġnation ale
i o
Ġm Ã©di
al iste
Ġmuni cip
ĠdÃ© si
Ġs erv
Ġan gl
ran ce
Ġex emple
ibli ographie
Ġoff ic
ĠÃ©le ct
Ġf ran
Ġpro b
Ġc al
Ã¢ tre
it h
Ġpro jet
ĠdÃ©velop pe
Ġc ro
vi er
ĠC es
llem and
Ã¨ le
ĠChar les
ĠB r
b all
Ã©g lise
Ġor ig
di c
u el
es p
ro ph
Ġb ar
v is
rit ann
Ġpouv oir
Ġj eu
Ġr is
c ture
Ġor ganis
ĠdÃ© fin
Ġhabit ants
rim oine
ĠM on
Ã» t
Ġes s
us ion
Ġtrav ers
ĠV al
ĠÃ©ta ient
an ti
Ġd oit
Ġcin q
Ġan cien
ate urs
si onn
Ġgouver nement
Ġc amp
Ġd ens
Ġc ad
j ours
ill et
di tion
Ġres te
Ġ201 4
ois e
Ġcar te
Ã´ t
la ce
Ã¨ nes
ĠC ou
19 8
ĠL iste
Ġres s
Ġa fin
l ant
Ġm ois
Ġat t
i res
Ã¨ se
ann Ã©e
p pe
Ġt ard
c k
o te
Ġsyst Ã¨me
Ġann Ã©e
Ġpar c
ar s
r in
is sement
in ter
Ġfor Ãª
Ã¨ tres
Ġcert ains
ĠprÃ©sid ent
ra g
Ġag ric
i k
Ġs our
RÃ© fÃ©rences
er ne
Ġj ou
p ond
Ġt ype
ĠN ord
Ġf ace
ol l
l l
a tique
Ġrapp ort
an ique
Ġ urb
Ġc oup
mb res
Ġm er
ĠF ranÃ§ois
B ibliographie
ti tion
c on
ic ation
cid ent
ĠA m
Ġa ur
Ġph ot
tiv itÃ©
i an
Ã¨re ment
is se
que l
Ġpo int
Ġcarac tÃ©
Ġpr end
Ã «
Ġgrand s
ap on
al if
Åĵuv re
enn ent
Ġ200 8
h t
ĠdiffÃ©r entes
ti en
Ġche f
ĠAn d
Ġd oc
Ġp or
Ġmil li
Ġj our
= "
au v
Ġs ix
ograph ique
ubli que
u p
ĠJo hn
Ġen suite
Ġg ar
tra ction
Ġparti cip
Ġm es
Åĵ ur
Ġcont ra
ra tion
ou te
Ġd Ã¨s
ille urs
m ont
Ġdeux iÃ¨me
j o
du it
Ġrec onn
ur Ã©
om mes
Ġch aque
ĠM an
Ã© ch
e ur
Ġren cont
ĠIl s
ĠS ch
man de
er b
m on
Ġdur ant
tiv es
Ġ /
rib u
ust rie
o ta
Ġm ot
Ġre lig
Ġl ar
ĠĠĠĠ ĠĠĠĠ
Ġc ul
ĠB e
Ġsup Ã©rie
Ġ200 5
Ġ w
Ġpersonn es
tÃ© ra
Ġz one
Ġtou jours
ĠÃ©c rit
res pond
Ġ200 6
ĠÃ©c onom
Ġ19 0
ĠH en
Ġt ant
ou d
Ġ and
ar g
anis me
Ġtrans port
is c
Ġrom an
ĠB el
ĠGe or
os s
Ġb Ã¢ti
Ġorig in
en g
qu er
Ġp orte
ti t
Ġs imp
y l
Ã© lÃ¨
v oir
du ction
Ġm is
ĠR o
Ġp Ã¨re
ĠM al
in c
Ġ201 5
y le
Ġcap it
Ġre Ã§
ĠS a
ĠN o
ĠNe w
Ġ200 4
le ur
Ġqu ar
s ence
Ġre cher
Ã©ri que
Ġre f
si ble
Ġse ul
Ġcons erv
Ã¢ ce
l or
Ã© quipe
ĠI I
Ġtou tes
m is
Ġnombre uses
Ġ199 9
ap rÃ¨s
Ġagric oles
oc k
ĠrÃ© par
Ã©m a
Ġmondi ale
Ġprov in
Ġ( âĢ
Ġb eau
ati ve
Ã§ on
Ġ200 7
g rÃ©
Ġmus ique
Ġt aux
ĠS ud
Ġcor respond
Ġp rix
Ġsuiv ante
Ġsy n
Ġa illeurs
Ġprop ri
Ġh um
ĠR en
ĠÃ© ch
ĠP aul
Ġj ours
ĠdÃ© ta
ain te
Ġesp Ã¨
ĠeuropÃ© enne
alis ation
ĠR oy
Ġa llemand
ĠM ais
ur g
u tÃ©
Ã© qu
Ġcol l
C omm
Ġsc Ã¨ne
Ġp ers
Ġass oci
ĠA d
Ġdonn Ã©es
ay e
Ġb ritann
ra le
Ġhistor ique
de ment
Ġre l
ĠJac ques
19 7
Ġser a
Ġr end
Ã© poque
o des
Ġcommun autÃ©
re g
Ġme mbres
Â «
r om
Ġb ut
ĠGu erre
x im
crip tion
ard s
tive ment
Ġse igne
Ġc ath
j ec
Ã© tique
Ġpe in
Ġ(âĢ ł
Ġf oot
F rance
ysi que
Ġdro it
Ġb ois
Ġch ange
Ġv ale
b ert
ag it
Ġd it
A c
ĠtempÃ©ra ture
ad a
p rÃ©
r ond
G Ã©
as ion
ĠRob ert
iÃ¨ res
Ġmat ch
o ins
Ġf ais
ĠĊ Ġ
g ment
le v
ac es
Ġs ta
Ġat te
r ist
ra Ã®
ĠD i
Ġte x
1 1
onom ie
Ġpat rimoine
o Ã»t
Ġin st
Ġlong ue
Ġpo in
Ġr ue
ĠR Ã©p
p l
Ġ200 3
Ġg en
res sion
ati ques
Ġcl assi
ĠrÃ© seau
Ġd im
Ġ20 20
au tre
n er
Ġr Ã¨g
Ġch ap
Ġ18 9
ĠdÃ©veloppe ment
all Ã©e
6 6
en v
Ãī c
gl ise
onne ment
Ġ200 9
Ġ ital
Ġ 0
Ġst ation
or k
Ġtrav ail
tiv itÃ©s
ci pe
ĠS u
s titu
Ġs al
u te
Ġprodu ction
tis te
Ġl oi
Ġf ai
y c
ol d
r il
lÃ© ment
di o
at t
ter n
Ġp riv
Ġn um
ĠprÃ©sent e
Ġv ict
or itÃ©
o ff
Ġpremi ers
Ġf ont
au de
re ur
Ġb lan
Ġsitu Ã©
le c
Ġh omme
Ġ200 2
es tion
Ġsucc Ã¨s
Ġra pi
Ã´ ne
au teur
Ã ¼
r ant
Ġpro che
Ã ¡
rÃª t
Ġob serv
Ġv oit
Ġce ux
ĠPh ili
Ġcl ass
F ilm
ĠcrÃ© ation
ĠM us
S aint
Ġ )
Ġse u
al ais
Ġrou te
d it
ic es
as e
ĠÃ ¢
ĠdiffÃ©r ents
Ġconstru ction
Ġcor ps
os Ã©
i ment
ĠMich el
Ġs us
que lle
Ġpro c
ill er
n at
ac tion
t ation
m Ãªme
qu Ã©
Ġme mbre
s y
Ġse in
Ġmonu ments
ol u
us se
ac t
or g
u f
v ision
Ġt en
er c
ib le
Ġter me
in f
Ġv a
ri es
or ie
ar a
Ġmais on
Ġparticu li
Ġ201 3
Ġ18 8
ct ures
Ġla quelle
c oup
Ġp iÃ¨
ĠâĢ Ķ
te mbre
Ġ18 7
ĠH e
Ġc et
id Ã©
ĠP l
J e
Ġsign if
ĠA prÃ¨s
Ġ200 1
ic k
c rit
Ġ201 1
imp ort
Ġ201 2
A ut
ci de
Ġd ivers
Ġsu per
ion s
Ġpar fois
b y
Ġse mb
ĠrÃ©s ul
Ġb ou
Ġs ci
ĠprÃ© f
Ġgr Ã¢ce
ĠsiÃ¨ ge
a ir
at traction
Ġju in
h i
ne ur
E urope
Ġlang ue
Ġlar ge
Comm une
Ã©t at
ĠMar ie
Ġal bum
se e
Ġcar tes
titu de
ĠRÃ©p ublique
a w
ous s
tÃ©rie ur
Ġ &
ti ers
i de
ĠcaractÃ© ris
Ġcont r
fÃ©r ence
ĠS al
op ony
Ġret our
Ġan im
Ġparticu lier
Ġc iv
Ġra ison
Ġmil itaire
Ġb ord
Ġentre pr
our t
ab or
ie ur
re c
Ġre v
Ġt Ãªte
Ġm ai
Ġv oy
to bre
l Ã©e
m ie
Ġtrois iÃ¨me
on ce
ĠdÃ© n
Ġangl ais
ou n
Ġmar s
Ġf eu
Ġje une
Ġpeti t
ĠdÃ© j
Â »
Ġenf ants
ul aire
Ġpar mi
e ff
| -
igne ment
og ne
i ra
Ġemp l
ĠC om
ind re
un es
Ġf rÃ©
ĠG al
Ġs tat
E mp
Ġa Ã©ri
l y
Ġch ans
Ġt ot
ĠO r
Ġsep tembre
t or
ar mÃ©e
Ġenv iron
ĠD an
Ġeff ec
Ã© on
Ġh uit
an vier
d er
Ġsor ti
le y
du c
Ġpr om
ta it
ĠL and
ĠI s
Ġlit tÃ©ra
Ġb r
Ġju illet
oc ra
ab b
ĠA b
ĠnÃ© cess
au che
an o
Ġre la
di que
llem agne
Ġdev ant
t ures
Ġbritann ique
par t
il os
ĠP remi
Ġris que
h an
ĠG r
en semble
ĠS ur
ĠMar c
ĠdÃ© t
i ographie
ou x
or n
t alie
u les
Ġfem me
Ġmin istre
Ġpas se
Ġver sion
Ã©m ie
Ġconsid Ã©rÃ©
u elle
h a
as c
Ã´ me
Ġr ur
Ġf ig
Ġprog ram
t out
iv er
Ġau c
ĠCou pe
l oit
ig ue
ĠprÃ© v
Ġp ol
b ourg
olog iques
A m
ĠdÃ©j Ãł
Ġnom mÃ©
i z
Ġqu alif
Ġdis par
ĠdÃ©c ouv
ri ch
ĠS p
temp s
it aires
Ġ201 7
C ar
ĠT our
ite ur
ĠS c
Ġf ille
Ġseigne ur
Ġf ac
Ġ17 9
ĠG ar
av ant
Ġdis tin
ĠS te
19 6
ce mbre
Ġcol on
o ch
in a
s c
Ġd ate
e ux
en de
Ġc r
rond issement
Ġl et
ĠH ar
U ne
un iversitÃ©
Ġmar i
Ġd o
Ã¨ ve
Ġdess in
Ġ199 8
Ġj anvier
ĠÃ©tu des
u mi
Ġar ch
lig n
Ġcad re
Ã¨ mes
g Ã©
Ġaut our
3 0
fic ation
GÃ© ographie
Ġt u
19 4
ĠP ays
E lle
Ġte lle
ie d
Ġm ag
is ation
cien tif
Ã©ta b
l it
Ã© tu
u ment
Ġdire ction
Ġcommer ci
Ġd onne
Ġconn u
Ã® le
ig nes
er ve
Ġjoue ur
at ur
In see
Ġ198 1
Ã©b ec
ĠB er
ĠÃ©p is
an a
ul ti
Ġmouve ment
Ġh e
Ġma Ã®
ĠS ec
ĠB ern
ie lle
end ance
Ġbeau coup
Ġprodu it
Ġmil ieu
des s
r ans
Ġprop re
Ġv illes
r al
Ġcomp agn
Ġh ommes
Ġdern iÃ¨re
Ġpuis s
Ġcar riÃ¨re
Ġf urent
u ve
ĠP at
si ve
di f
ĠcÃ´ tÃ©
P our
Ġpar ois
ĠrÃ© sid
ra ges
ĠC as
oli tique
Ġre jo
Ġim m
Ġ199 1
et tes
Ġin t
Ġ198 0
ti ne
Ã©v rier
cep tion
Ġau gment
D Ã©m
ĠS oci
Ġqu it
r ite
and is
Ġst yle
ert s
ĠdÃ© cembre
ĠcrÃ© Ã©
e d
a j
ĠprÃ© sence
Ġtrav aux
ur t
ĠÃ© quipe
Ġ [
Ġs aint
Ġdire c
ĠdÃ©c l
m and
an ne
Ġress ort
in i
Ġutilis Ã©
O c
Ġmeille ur
o z
Ġoc tobre
Ġdi x
Ġ3 0
Ġre tra
Ġs cientif
at oire
Ġd at
de c
Ġpr is
Ġposs Ã¨de
Ġprof es
ve mbre
Ãª que
ĠHen ri
est re
Ġet c
Ġsur tout
ol ique
Ġh aut
li que
Ġpeti te
ĠB ou
Ġ( Â°
a f
Ġcert aines
.. .
ord s
Ġa ra
iv ent
Ġ ord
ci ens
ven tion
y on
Ġpro t
qu ent
tic le
Ġaur ait
Ġbat aille
ĠR ou
ĠCh e
Ġdes tin
en ir
Ġm or
Ġ199 7
Ġex iste
Ã ¶
k a
Ġcat Ã©g
Ġp a
ĠÃ©le ctions
Ġ197 1
in tÃ©
aÃ® tre
an cien
Ã©n Ã©
di tionn
Ġsep t
Ġseu lement
Ġ201 9
DÃ©m ographie
am es
Ġ18 6
Ġre ven
Ġprovin ce
Ġvi ol
Ġcar t
Ã© ment
P ierre
ĠN ic
oci ation
Ġs ort
om in
Ġ1 1
Ġplu part
l as
ci er
i p
in st
Ġ is
Ġst ru
res se
Ġc rois
ĠM or
r ont
tiv al
c asion
âĢ ¦
Ġ =
ĠR Ã©
Ġ elles
ĠPhili ppe
Ġ201 6
ard in
Ġform ation
fic ie
y m
ĠQu Ã©bec
ĠprÃ©c Ã©d
Ġ199 6
Ġ iss
Ġfai ble
Ġce pendant
Ġactu elle
Ġat ta
Ġcommun ale
Ġlim it
oy en
ab ord
ĠĠ Ġ
ĠmÃ©t ro
ĠR ich
Ġmus ic
Ġfin ale
oly mp
lan de
p os
al d
ĠforÃª ts
ot te
Ġt omb
Ġ199 5
Ġcin Ã©ma
Ġlog e
Ġter re
Ġf Ã©vrier
Ġmoy en
Ġdom aine
Ġ18 4
E sp
Ġconse il
ab lement
Ġloc ale
Ġl iv
Ġinternation al
ĠB eau
es tival
ouver te
Ġpubli Ã©
Ġ olymp
ar n
Ġan cienne
et erre
ur ant
Ġe ux
. ,
ĠP er
ti enne
ĠS ainte
b er
orm ais
ĠG en
Ã¨ que
Ġun ivers
| |
Ġm om
import ance
Ġno vembre
t Ã©e
erg ie
Ġl ivre
d am
ĠgÃ©nÃ©ra le
Ġs au
ograph iques
l et
Ġca use
A prÃ¨s
Ġt able
Ġli Ã©es
Ġf ra
Ġn i
ra stru
m et
ĠC omm
Ġt andis
Ġ us
ti me
Ġvari ables
ĠF in
ĠamÃ©ric aine
Ġ197 0
ĠE d
l am
O u
Ġc ouv
y th
f ace
Ġdens itÃ©
Ġtyp es
Ġc elles
Ġa oÃ»t
ĠP rix
Ã©m in
Ġa lign
Ġn orm
A s
ĠCon se
O n
o vi
Ġav ril
riv ain
al y
Ġpoin ts
Ġman iÃ¨re
ir onnement
omp agn
Ġimport ant
Ġfem mes
Ã Ń
Ġ2 5
Ġj am
ĠÃ© qui
ĠC el
Ġpoli tiques
ĠespÃ¨ ces
' s
ro che
Ġremp lac
ĠthÃ© Ã¢tre
B iographie
ĠÃ©le v
Ġsu ff
ĠD u
an ie
b ilitÃ©
i ff
gl eterre
ĠY ork
ĠdÃ©si gn
d re
Ġpro te
le urs
ra d
Ġ199 4
Ġdu c
Ġrapi dement
ĠgÃ©nÃ©ra lement
Ġen g
ĠB en
ĠF or
Ġg auche
ta ire
Ġacc ue
r b
Ġfoot ball
lex and
Ġ2 4
Ġrecher che
ici le
f rique
ĠtÃ©lÃ© vis
ri d
C e
ĠdÃ©partement al
Ġun ique
Ġgrand es
ĠN ouv
h am
po le
Ġn av
ant Ã©
Ġle quel
Ġ199 2
ĠdÃ©s ormais
sy ch
d ire
Ġcol lec
Ġt rop
Ġcomb at
ĠX V
stitu t
Ġgen re
al bum
Ġpeu p
Ġent raÃ®
Ġcomm and
Ġre tr
Ġcom te
ĠR om
Ã ³
c a
Ġtrav aill
Ġreg roupe
ĠPar ti
Ġcomm ence
Ġind ustrie
P olitique
form ation
c ommun
Ġch er
Ġprop os
ĠT ra
Ġjam ais
ĠrÃ© f
Ġterrit oires
Ġserv ices
n Ã©es
Ġv allÃ©e
Ġoc cup
ĠT hÃ©
ĠrÃ©alis Ã©
it y
Ġpremi Ã¨res
Ġnouv elles
ort h
Ã« l
ĠrÃ© un
or ganis
iv es
Ġse ule
Je an
u y
ĠC our
Ġc y
Ġprincip alement
ĠT e
avi d
Ġmarqu Ã©e
Ġph ilos
Ġclim ats
ĠD el
pr ise
ad es
ĠC ap
S ur
Ġd ra
Ġ199 3
t ta
Ġprofes sionn
Ġm Ã©tÃ©
19 5
ĠdÃ©ta ill
ĠB o
Ġm Ã¨re
ĠJo se
Ġin tÃ©g
Ġ198 8
Ġnature ls
age ment
Ã©r it
Ġ18 3
Ġf ab
Ġsec onde
ĠS i
ubli c
om Ã©t
ĠConse il
ĠL ond
ĠdÃ© rou
Ã¢ ge
Ġcons ac
ĠM i
ĠÃ© d
Ġl iste
Ġdis c
Ġob ten
ait e
ĠdÃ©velop p
Ġter res
Ġm Ã©d
ar es
rastru ctures
ĠC o
a illes
rÃ© es
ĠR h
u me
en f
Ġmes ure
rou p
rib ution
ĠÃ©conom ique
Ġsuc ces
Ġv e
Ġde mande
ra ine
Ġm ain
qu ant
b res
e reur
onne ur
os t
Ã©di tion
ĠrÃ©par tition
c ons
oup es
jet s
Ã©c ole
ĠC al
Ġn Ã©g
ar c
ĠM o
Ġrencont re
ĠCan ada
Ġt ota
ĠÃ©tu di
oi le
Ġtr ouv
b erg
or de
ĠR ome
Ġprob lÃ¨
emp l
tÃ© es
v in
ĠE x
ing t
Ġadministra tion
et er
Ġcon st
Ġdom in
Ġnature l
Ġsour ce
Ġdonn Ã©
ad Ã©mie
Ġess enti
Ġimport ante
Ġpersonn age
ĠM ad
Personn alitÃ©s
g ue
ĠÃ© qu
Ġdro ite
t Ã¨re
ot t
si tions
h um
ov er
Ġ Åĵuvre
Ġmilli ons
ol as
Ġtot al
Ġm ulti
Emp ire
ĠE urope
Ġprincip ales
Ġin iti
ĠmÃ©tÃ© or
Ġe u
Ġnature lle
Ġ2 2
ĠB l
qu is
Ġr uis
ĠC ro
ĠmÃ© dec
lÃ¨ ve
I G
ĠL ors
Ġmom ent
A d
ic a
Ġre mar
Ġmus Ã©e
Ġt ent
Ġvict oire
ĠL u
Ġg rec
Ġm aire
al og
g ique
âĢ ĵ
ĠL ib
Ã©c ur
n om
Ġfr Ã¨re
Ġ18 5
Ġter rain
Ġmar que
di d
ministra tion
Ġri vi
Ġ ?
P ro
ĠS an
Ġappel Ã©
Un ion
Ġmouve ments
m oins
ĠĊĠĊ ĠĊĠĊ
et h
C l
ig e
ri ge
ĠCh ampion
se ments
Ġt rib
20 00
ti ce
ĠW e
g er
les s
ĠÃ© lÃ©
ĠF er
Ġeffec tu
te x
Ġinf rastructures
Ġf Ã©d
Ġcel a
ĠÃ© poque
ĠCe pendant
Ġser ait
Ġter min
it ations
ĠA c
at ta
ĠlÃ©g is
j or
ret agne
Ġdiv ision
Ġnum Ã©ro
Ġc Ã©lÃ¨
Ġpropri Ã©tÃ©
Ġoffic iel
Ġsor tie
Ġphot os
Ġprincip al
ĠH aute
Ġqu and
Ġf ourn
Ġpo sition
ĠÃ©t rang
rou ve
Åĵuv res
Ġv oix
ĠCh ris
Ġch amp
Ġv ic
Ġlors que
Ġpos sible
ouver ture
Ġp u
o od
Ġrur ale
ĠD avid
Ġret rouve
L iste
Ġn oir
Ġin v
re d
ĠG ra
h omme
Ġf av
ĠÃ© m
k er
ai x
Ġtr oupes
Ġm Ã©c
Ġtoute fois
T opony
Ġesp agn
ĠB ro
Ã©ta it
ĠV ill
ĠJose ph
Ġv ue
ĠA insi
Ġconc ern
Ġp ied
ĠE l
C ette
Ġv idÃ©
2 2
ĠÃ©tab lis
Ġc i
ĠM aur
Ġin tÃ©
Ġch ois
b es
Ġ198 9
y r
v ant
E st
i Ã©e
illi am
j ou
ĠÃ©p ouse
Ġsp or
ĠR uss
rou pes
L ieux
Ġb an
iti Ã©
ĠAn g
Ġde r
Ġse m
Ġm ati
ĠV er
Ġ196 0
us tr
u er
Ġital ien
Ġpos te
D es
ur i
Ġpein tre
ĠI II
Ġv al
g ne
ĠS er
ĠmÃ©t h
Ġsuiv ant
19 3
Ġre lie
Ġchap elle
ĠA s
Ġchampion nat
Ġan ti
lu ence
au g
se z
Ġar g
Ġap pr
an moins
ve ur
Ġtechn ique
d on
lim at
2 1
alis me
ĠP lus
ma jor
Ġid en
rig ht
v re
st es
ar rondissement
ar k
Ġor ient
Ġad ap
ari o
ĠreprÃ©sent ations
In stitut
Ġvale ur
ĠdÃ© cide
ite ment
ĠM ac
ĠÃ© tat
C L
Ġpra tique
ĠGeor ges
Ġv iv
E x
Ġv oie
Ġv oir
land ais
Ġin fÃ©r
Ġsuper ficie
p ons
m ine
Ġb assin
Ġp ont
in Ã©
t rice
ĠB as
2 5
Ġsc Ã©n
ĠdÃ© g
Ġhistor iques
ĠsupÃ©rie ur
Ġind Ã©p
c les
Ġoc Ã©
ĠC entre
20 10
Ġcontr Ã´le
Ġpl ate
ĠJ apon
Ġla tin
ne y
Ġb ande
Personn alitÃ©
Ġsec teur
Ã©c u
yd rog
ĠNouv elle
ai de
d Ã©
Ġla iss
ri ve
Ġ2 3
ĠFran c
ĠCl aude
c te
Ġn ous
f ort
ĠÃ©v olu
pec ta
ĠprÃ© cip
for me
ter min
00 0
o que
Ġv Ã©
Ġtra ditionn
Ġp sych
ut es
es ti
Ġli bre
Ġche min
Ġremp orte
ag er
Ġconstru it
Ġ198 2
Ġquar tier
Ġgr ille
ĠMar tin
Ġou tre
Ġcompos Ã©
Ġob tient
ĠaÃ©ri ennes
un g
Ġ18 0
ĠB ourg
an cienne
Ġcour onne
e mb
ĠT ur
ill on
C on
ĠG i
Ġen reg
le ct
Ġprop or
Ġin form
Ġrest aur
rÃ© al
Ġparticuli Ã¨rement
Ġpopul aire
esse ur
I s
Ġjourn al
Ã¨ ce
ul t
Ġsemb le
Ġfa Ã§on
Ġl ut
Ã©d ie
en si
ĠG rande
ais se
pe ct
Ġdes c
Ġfilm s
U rb
ol f
che v
Ġb el
Ġar m
li r
Ġsy mb
Ġe aux
Ġv end
ĠS ite
Ġac teur
Ġfin alement
Ġcompr end
le ctions
Ġg roupes
Ġprodu its
Ġindi vi
in o
k y
Ġm aint
Ġroy aume
Ġruis seau
id es
Ġoffic ielle
ĠrÃ© fÃ©rence
Ġje unes
ĠR Ã©volution
ma tique
Ġt ri
Ġres pons
Ĥ ge
Ġv it
d uis
Ġpermet tant
Ġcl asse
IG N
ar de
19 50
am bre
Ġcommun al
Ġp le
Ġparti es
an che
ĠrÃ©g uli
riv Ã©e
an i
qu Ã©e
ĠS ta
Ġche val
ĠÃ© lu
ĠW illiam
Ġas sez
Ġpr ise
ĠA w
u il
ist ance
ĠC assin
Ġar rÃª
b il
Ġa li
T yp
ĠgÃ© ographique
Ġparti cipe
Ġ5 0
m ond
Ġprote ction
Ġv ois
ur a
Ġte ls
2 3
ĠJe ux
m y
8 0
Ġpour su
ĠM c
lic ation
4 0
Ġsur face
Ġpers onne
ĠcrÃ© Ã©e
Ġpl ac
C ulture
Ġ( Â«
ĠsÃ© par
Ġj apon
Ġl anc
Ġs it
Ġs ac
Ãī glise
Ġav aient
gl om
en e
Ġperm is
Ġfais ant
Ġar tis
om as
Ġde mi
6 0
or Ã©
Ġb l
C om
Ġv ingt
ĠdÃ©p end
o di
d a
it re
ĠCassin i
Ġ uti
Ġh ors
Ġchans on
Ġdi rige
ot s
Ġf ix
ĠrÃ©v olution
Ġh ab
Ġen d
Ġdens es
ĠdÃ©taill Ã©e
Ã¨ tre
uis se
Ġf usion
ac itÃ©
ĠtÃ©lÃ©vis Ã©e
aille urs
en sion
aul t
Oc cupation
ĠrÃ©gion ales
Ġsitu ation
Ġdro its
ĠCh ine
alis Ã©
ĠdÃ©par t
Ġg l
ĠSoci Ã©tÃ©
to ine
Ġcapit ale
j e
Ġb on
Ġdisp on
ĠT oul
Ġles que
Ġg are
ĠÃ ®
Urb anisme
Ġpr endre
Ġpeti ts
ti l
Ġcon v
ĠB al
Ã© lection
Ã¨ ge
Ġper d
o f
Ġvoy age
Ġc it
X e
Ġa lÃ©
ĠLond res
Ġp il
Ġch aÃ®
ch i
ĠreÃ§ oit
Ġen semble
ne ments
Ġlongue ur
ĠdÃ©fin i
in te
ĠdÃ©t ru
ĠM il
temp or
c al
Ġf aut
Ġg al
ĠW al
Ġv ites
2 4
ĠP al
ĠD ou
qu et
Ġrou ge
Ġac tivitÃ©s
os c
an im
Ġnouve aux
an tin
Ġpubli que
oi es
Ġ202 1
ĠL oire
Ġcommer ce
Ġutilis Ã©e
Ġ198 6
R e
o Ã¯
Ġcomp Ã©
Ã©cur itÃ©
at es
ĠvidÃ© o
Ġinternation ale
c ent
Ġpro tÃ©g
ro it
Typ ologie
Ġp al
tin g
ĠR Ã©g
ra ins
Ġloge ments
ĠtÃ©lÃ© vision
ĠC over
Ġcons Ã©qu
Ġdire cteur
ĠS im
a ie
Ġ ant
ill ers
Ġca us
Ġt Ã©m
Ġen tiÃ¨re
ibli oth
Ġop Ã©ra
Ġb Ã©nÃ©
un is
Ã© rer
Topony mie
Ġl ance
oi ent
ony me
ap par
Ġme urt
Ġcri tique
ĠNo tre
Ġv en
ĠÃī ditions
ĠRich ard
Ġfran c
Ġ ĠĊ
ang er
ĠBern ard
Ġsit ue
ĠCh rist
Ġrivi Ã¨re
Ġ2 1
Ġman if
Ġcan did
Ġp ens
b el
Ġdi rig
a el
ul p
ĠCor ine
ĠDe ux
ar m
ĠforÃª t
ĠS es
on ie
Ġpl ut
oph ysique
Ãª mes
18 66
at a
Ġmont agne
h onneur
ĠAnd rÃ©
Ġdoc ument
Ġurb aine
Ġk il
Ġaut om
or tÃ©
Ġt aille
Ġ2 7
Ġcamp agne
Ġmod Ã¨le
c ol
intÃ© rÃªt
Ġh auteur
ain que
ĠdÃ©f ense
I talie
Ġrec on
ĠS am
ĠM in
ĠÃ©lÃ© ments
our ces
ri cole
Ġfor mes
Ġra tta
ar ts
18 20
II I
onn es
Ġscientif ique
Ġcompagn ie
ĠBel gique
Ġre d
ob jet
semb lÃ©e
Ġmaj e
qu Ãªte
Ġsci ences
Ġm Ã©m
oph ie
Ġc itÃ©
ĠM oyen
ĠprÃ©cip itations
Ġe mb
ĠA g
Ġor g
as h
ĠG re
Ġ Åĵuvres
Ġtr ou
aly se
ch Ã©e
Å į
Ġbi ophysique
on ge
Ġpass age
d s
p t
ol a
ĠP rÃ©
Ġfor te
CL C
Ġn aissance
ĠÃ© ditions
Ã´ tel
k s
Ġla c
is sent
ac tivitÃ©
ol s
Ġtra itÃ©
Ġqu alitÃ©
Ġlimit roph
ĠmÃ©tro pole
ĠÃ© n
ch et
ĠIn ter
ĠMont rÃ©al
ĠÃ© l
Ġ198 7
Ġtrans f
is Ã©
lace ment
Ãª tes
ĠdÃ©m ocra
Ġobserv Ã©e
ĠGu ill
D ame
Ġmar chÃ©
A g
b on
ĠS elon
Ġcan adi
ĠocÃ© anique
omÃ©t rie
Ġd yn
A llemagne
Ġ2 6
Ġs im
Ġcon tempor
A t
Ġ !
ĠL or
Ġch rÃ©
Ġdim in
ĠsÃ© lection
os se
Ġag ricole
Ġp Ã©n
ĠRoy aume
ĠR ec
ĠP ort
Ã´ te
Ġprincip aux
Ġann uelle
Ġad op
ĠA t
Ġprogram me
ais ons
Ġre li
ro t
ĠT erre
Ou est
Ġs pecta
Ġf Ã©min
us te
c y
cep ti
" ,
Ãīc onomie
ĠL yon
ĠÃ Ĥge
a tif
Esp agne
ĠS av
Ġ( ).
Ġ198 5
Ġsc ulp
rÃ© g
M e
ric ulture
Ġplut Ã´t
iv al
r un
Ġchar ge
ĠV ict
Ġab and
ĠrÃ©gion s
Ġ2 8
port s
arch ite
Ġv Ã©g
n Ã©e
ĠB on
ĠbÃ¢ti ments
Ġdiff us
glom Ã©ration
Ġch ac
Ġ198 4
n a
Ġmod erne
19 0
lÃ© g
Ġsour ces
Ġc av
Ġcommun ication
Ġv ra
Ġcomp lex
Q u
ĠreprÃ©sent e
Ġcath olique
Ġl ieux
ul Ã©
Ġsimp le
di en
oue ur
Ġmet tre
Ġb ourg
y rÃ©
ĠB our
ĠB ra
en tin
ĠC ons
Ġlang ues
ĠC omp
Ġm assi
Ġacc ord
Ġmar ch
Ġappar aÃ®t
Ġcomm enc
ert es
onn Ã©
Ġjoue urs
2 6
Ġde mand
c it
ĠC am
Ġfin an
Ã©d Ã©
Ġau prÃ¨s
Ġann once
d y
Ġ1 00
Ġje ux
Ġmo itiÃ©
f ique
omm ages
L ors
m en
Ġv ient
Ã¨ les
2 7
a vec
ent rÃ©e
h abit
ir ie
Ġch in
Ġcons omm
P h
Ġs tra
Ġtex te
h ic
Ġf ron
ra t
Ġ ),
ĠSec onde
Ġcent rale
ri r
av oir
ie use
ĠE sp
s es
ti m
Ġchange ment
Ġmaj oritÃ©
Ġpro xim
Ġc er
as te
Ac adÃ©mie
re ux
Ġsus cepti
Ġcon ditions
ĠSe ine
ĠG l
Ġcir cons
Ġtyp ologie
Ġch an
Ġp rim
Ġmulti p
T he
ag Ã©
Ġins titu
ydrog raph
2 9
Ġstru cture
i ries
o ti
Ġatte int
p ital
Ġcom tÃ©
Ġph Ã©n
Ġvol ont
op he
Ġdou ble
ĠdÃ© termin
Ġh Ã©tÃ©
Ġmeille ure
Ġcomm ande
ĠC ommun
Ġdi pl
An gleterre
Ġkil om
Ġ198 3
S elon
ĠdÃ©cl ar
as sement
8 9
i che
Ġl ignes
ou le
Ġb es
A S
. )
ĠA lexand
w e
ĠM ag
Ġ202 2
L ouis
jec tif
F F
Ġproxim itÃ©
ĠÃ©tu de
vent aire
Ġal li
ol ue
Ġra dio
ro y
tis me
Ġblan c
Ġa ire
Ġvites se
Ġpersonn ages
ĠrÃ©sul tats
Ġn or
l og
Ãª che
Ġmin ist
Ġessenti ellement
Ġcart ographiques
dess us
ul ation
Ġprin ce
Ġmort s
o ign
on i
Ġs omm
ĠD ire
ĠÃ©c ologique
ill y
Ġcontin u
l ent
A ss
Ġm as
ĠDe puis
Ġmal grÃ©
Ġreg roup
Ġentrepr ises
Ġlim ite
2 8
duc ation
A vec
enti el
Ġn uit
ĠF ranÃ§ais
ĠA ut
Ġaut or
ĠT er
r en
Ġoc cident
Ġsoci al
Ġs alle
ri ques
ran che
ĠdÃ©c rit
Ã ¤
ĠCh amp
ĠN ation
Ġac cep
Ġpropri Ã©ta
tu di
Ġins crit
ĠS ar
ĠdÃ©c or
abb aye
Ġarch ite
18 9
Mar ie
se ur
ĠS y
tu g
Ġan ciens
v ie
ran ge
Ġexp Ã©ri
c teurs
ĠrÃ©alis Ã©e
Ġpass Ã©
Ġp ri
Ãī v
op e
Ġil lus
7 0
ric k
ĠS uisse
olog ne
oc casion
Ġdo ivent
Ġparois se
Ã§ ant
Ġse x
ĠJ ames
Ġauc un
Ġtota le
gu er
Ġprincip ale
z a
ĠV i
ac k
Ġm Ã¨tres
Ġvale urs
ĠL uc
ĠS tra
Ġ195 0
Ġr usse
. -
Ġf erm
ĠpiÃ¨ ces
ĠD is
Ġfor ce
Ġres pec
Ġfor ces
ĠD on
ron ique
Ġsol d
ĠV ille
Ġcoll abor
ue il
De puis
Ġmonu ment
Ġcon dam
du ire
Ġti tres
Ġter rains
Ġc Ã©rÃ©
ĠÂ» )
Ġen c
Ġp ot
arg ent
ĠTh omas
r ise
ainque ur
Ġma xim
ĠM a
ĠcÃ©lÃ¨ bre
g Ã©n
Ġterrit ori
Ġp ierre
ĠD Ã©
Un i
Ġen se
ĠP ont
Ġn ot
ar itÃ©
ĠL igue
Ġlors qu
Ġg estion
Ġdern iers
Ġf it
ac tu
Ġlib er
Ġpropor tion
ĠÃī glise
Ġp oly
oris Ã©e
Ġsu jet
Ġstat ut
tif ic
S e
ur Ã©e
Ġempl oy
ĠT rois
d el
Ġf isc
Ġp ub
Ãī cole
ĠR os
Ġ% ,
Ġt o
ĠrÃ¨g ne
Ġnom s
esp ace
ab ilitÃ©
ĠX I
Ġh istoire
Ã©s ie
Ġmo de
Ġin stru
Ġexp loit
Ġr endre
Ġa lle
ĠNic olas
Ġpos si
ti stes
Ġtechn iques
l d
Ġp ap
Ġdis pose
ĠF re
Ġdiff ic
ĠRuss ie
Ġc Åĵur
ĠCh Ã¢teau
Ġ4 0
al ise
Ġclassi que
ou g
Ġex tra
Ġ2 9
am a
Ġ +
Ġ ir
- ),
ĠÃ©lect or
ĠR og
Ġs Ã©curitÃ©
ĠB ri
mp h
ĠPremi Ã¨re
Ġhe ures
vi ennent
ĠB u
Ġpres que
ĠÃ©pis ode
ĠCl ub
Ġimport ants
c Ã©
ĠP or
Ġs antÃ©
Ġh ame
ta ble
ath Ã©m
Ġc ime
ĠdÃ©c ision
ĠA ug
Ġpro pose
Ġ197 3
J oueur
ar iste
Ġcol lection
t y
t rÃ©
ĠfrÃ© qu
Ġappar ten
yrÃ© nÃ©es
b us
Ġg ros
Ġm ission
Ġcou leur
ĠA vec
Ġm ieux
Ġph ysique
olog ue
Ġf ro
Ġqu estion
Ġlet tres
Ġb less
Ġplu vi
Ġ197 8
Ġcom par
ĠM at
Ġ197 5
ĠM er
ĠB lan
po sitions
Ġch asse
ex ist
Ġparticip ation
ĠM ax
ĠGeor ge
ĠM Ã©tÃ©
ĠrÃ©g ime
ĠthÃ© orie
Ġmari age
ĠC a
ĠK e
Ġ196 8
ĠN ap
ur y
ĠvÃ©g Ã©t
es te
ĠhÃ©tÃ© rog
ri Ã¨me
Ġac trice
Ġcomp lÃ¨
Ġinst all
Ġh aute
ĠG au
Ġcrois s
ob le
ĠJ u
ĠvÃ© hic
en is
Ġse mi
c ar
emp ereur
Ġex ist
Ġtrans form
ĠE m
ĠP o
Ġappel Ã©e
Ġinter prÃ©
Ġaff ir
ti qu
ĠK ar
ĠL ang
Ġdeven u
ad ie
ort ent
a une
p or
un d
Ġprof esseur
un esse
lÃ¨ ge
ĠC ent
Ġ197 9
ĠpiÃ¨ ce
Ġalle mande
exp loit
ĠF C
Ġ197 6
Ġl Ãł
Ġar riv
Ġg az
Ġmil ieux
ĠF ont
ĠR ay
Ġref us
Ġal l
Ġpres se
Ġolymp iques
Ġ197 7
ĠMÃ©tÃ© o
ort s
ĠH istoire
are r
Ġfond Ã©e
iblioth Ã¨que
Ġcir cul
Ġmais ons
A frique
Ġmil itaires
Ġcon cep
Ġl ois
er se
Ġconf ir
op Ã©ration
c om
pr it
Ġtransport s
A b
ĠN orm
ĠV ol
ĠmÃ©tÃ©or ologique
ax e
Ġkilom Ã¨tres
R is
B as
os ph
m Ã©di
a ci
A ire
ĠfranÃ§ais es
ĠJ uli
m ann
du ite
Ġatt ribu
Ġs ang
En tre
An d
Ġtable au
c el
Ġpr Ãª
ĠA ss
istor ique
p in
ĠCh ap
ĠL o
Ġ197 4
Ġv Ã©rit
G ar
est er
ĠGuill aume
o Ã¹
ais sent
ĠrÃ©s erv
at rice
ĠnÃ© anmoins
ug by
ĠÃ© dition
Ã©n agement
ĠmaÃ® tre
ĠhÃ©tÃ©rog Ã¨nes
Ġ197 2
l ieu
ri ct
ĠeuropÃ© en
and es
Ġancien nes
organis ation
Ġdeven ir
ra y
Ġrelig ieux
Ġa ires
Ġindivi du
s h
ĠVict or
rÃ© d
Ġen fin
Ġm and
ĠGu y
Ġd ommages
Ġfon ctions
d ou
ĠMaur ice
ĠF l
Ġ i
Ġprob ablement
re ment
Ġmont re
n ent
est ations
cu le
Ġauc une
Ġcert ain
ici er
Ġsa voir
ar y
Ġcons ul
env iron
Ġins pi
ĠA ir
ĠV an
au tes
Ġsoci ale
Ġ riv
Ġa mb
Aut res
b alle
a ment
sid ent
ag nes
Ã©r ant
Ġrejo int
ci Ã¨re
ĠAl bert
Ġconstitu e
Ġfig ure
ĠM et
ĠCon st
Ġurb anis
Ġmo dif
Ġra s
Ġin tit
ĠphÃ©n om
Ġcime tiÃ¨re
Ġde me
ro duction
ĠbÃ¢ti ment
in tÃ©rieur
Ġcour ant
Ã©rÃ© e
ati s
Ġs ites
Ġr u
Ġs ovi
ĠRen Ã©
Ġparti s
Ġc ode
ĠL i
ur r
s is
Ġpermet tent
ur ation
ig ht
ĠT rans
tel l
ri che
tex te
y ra
Ã©t end
Ġa mi
Ġtex tes
ĠP i
Ġch iff
N I
oy er
ti g
ri ent
ĠD ieu
ĠsupÃ©rie ure
3 5
ĠP as
Ġm i
ĠC ert
Ġre ti
Ġcircons cription
Ġfond Ã©
Ġsou ten
sive ment
Ġara bles
h er
ver se
en a
app el
ti an
ĠsÃ© cher
Ġl yc
Ġgu it
Ġali ment
Ã©b Ã©c
E S
ĠdÃ© ch
ĠB retagne
ĠchaÃ® ne
Ġc la
Ġpeup le
Ġcour se
ure au
Ġmunicip al
uc lÃ©
Ġde l
utilis ation
Ġprin cipe
te ments
Ġsu it
rit ure
ĠthÃ© or
om bre
Ġc li
is er
Ġretra it
Ġch ant
Ġmin utes
omm Ã©
Ġrel ations
Ġra is
ĠrÃ©gion al
Ġter mine
ĠC ont
Ġimp os
Ġbel ge
ti Ã¨res
rÃ©s il
Ġpra iries
ĠS ou
ĠM Ã©d
opul ation
8 5
Ġdirec tement
Ġin ond
Ġb al
ĠÃ©c rivain
P aul
Ġpr on
iss ant
di er
ĠP rin
Ġdisp os
in di
ĠMich ael
az z
Ġpuiss ance
end u
ind ustrie
7 5
ĠlittÃ©ra ture
Ġg agn
in ation
tr Ãªme
Ġpub lie
Ġd ite
Ġcarac tÃ¨re
Ġdivers es
ĠW h
Ġm athÃ©m
Ġ rang
Å Ĵ
onc Ã©
ĠÃ©g lise
Ġcommun au
Ġpour rait
Ġch oix
li min
o Ã®
Ġra c
or b
S on
ĠF estival
Ġinter commun
Ġconstitu Ã©
on ique
i Ã©s
enti elle
u k
rÃ© taire
Ġconn ue
Ġris ques
Ġp aix
Ġpluvi omÃ©trie
an es
Ġgu er
ĠlÃ©gis la
Ġacc ompagn
ch ant
ĠC ong
it aine
Ġconstru ite
ag ue
C ommun
ad ministration
Ġprog res
ĠJac k
Ġb le
Ġpro ven
he im
b or
ĠToul ouse
T h
Ġmati Ã¨re
Ġte l
Ġlimitroph es
it z
Ġcomp lÃ©
ath er
ĠreprÃ©sent ant
Ġrecon stru
at re
Ġapp ro
Ġrom aine
Ġdonn er
al a
Ġclassi fication
ic o
Ġob lig
Ġm ic
lu ent
Ġv ir
ĠB at
Ġliv res
S a
ĠrÃ©alis ateur
ĠE lles
ĠsÃ©cher esse
Ġv o
ib les
Ġtra dition
oul in
cl us
Ġac tivitÃ©
Un iversitÃ©
Ġaff ec
Ã© lect
Ġsou tien
Ġpa pe
te in
Ġ194 0
Ġmatch s
it ation
Ġ196 7
ĠMus Ã©e
Ġlong temps
Ġcin qu
Ġsignif ie
balle ur
Ã¨ tes
g yp
u ments
Ã©tab lis
ĠPremi er
An nexes
ĠÃ© cole
Ġquit te
ĠFranc is
n aire
Ġcro ix
al titude
Ã©ra ble
re uve
Ġsci ence
A C
ĠA llemagne
ĠprÃ©v oit
Ã©ro s
ĠtempÃ©ra tures
i ant
Ġroy ale
b lement
ure r
entre prise
Ġlarge ment
ĠprÃ© par
g Ã©e
Ġqu ant
ĠL Ã©g
F ranÃ§ois
o rer
Ġciv il
a uss
Ġs igne
P at
Ġappar tient
Ã©t ro
au ts
ĠS m
Ġdispon ible
iter ran
Ġrepr end
mi ques
Ġmat Ã©ri
ati ves
se aux
Ġrepr ises
4 8
Ã©n ergie
ĠI V
Ġju ge
b i
Ġtra itement
ĠB re
v a
Ġ196 9
Ġv on
A N
ir s
ĠN Ã©
L oire
um es
Ġqu Ã©bÃ©c
Ġculture l
ĠespÃ¨ ce
m ain
Ġsyn dic
ast roph
Ġm ur
Ġrela tivement
Ġm ine
it ant
Ġ x
Ġjapon ais
el li
Ġcl assement
Ġcontin ue
Ã©ro port
ĠÃ® les
Ġcomp orte
ĠV ers
un itÃ©
Ġpass er
Ġuti lise
ois eau
Ġl oin
Ġpublic s
ke y
b o
ĠT ou
Ġsc ol
Ġtourn Ã©e
k o
ĠdÃ©c la
ar ie
ĠÃ©v Ã©
omm age
Ã©tu de
M ont
ĠnÃ©cess aire
C limat
h iver
eu ve
ĠÃ© lÃ©ment
as tique
ĠcatÃ©g orisÃ©e
E R
Ġv u
Ġconc ent
3 6
ĠT or
ĠB ert
Ã©d Ã©ration
İ le
ĠcÃ´ tÃ©s
ar que
f t
Ġb our
u mb
Ġs ing
ĠM ay
Ġcent ral
ph e
Ġquat riÃ¨me
Ġm aires
Ġcher che
ar rivÃ©e
Ġ6 0
on f
un al
Ġconn aÃ®t
ous se
Ġpoli ce
Ġsta de
ĠÃ©qui pes
Ġs ouver
it a
Ġbas se
is Ã©e
env ironnement
ti ens
Ris ques
Ġcontra ire
Ġcal cul
id Ã©e
ĠcompÃ© tition
ĠdÃ© cid
9 0
cess us
ense ignement
ag o
oup age
ĠdÃ©si gne
Ġremar qu
on se
Ã© z
s bourg
Ġprot est
f ric
Ġb omb
Ġse ction
ole il
Ġp alais
S S
Ã©ral dique
ĠI talie
Ġgra v
y g
ol Ã©on
Ġs auv
ĠC et
Ġsu isse
Ġn Ã©e
Ġb onne
ort er
ĠG ab
m or
ĠO u
alis Ã©e
Ġdern iÃ¨res
si er
Ġsimp lement
a ve
n ov
ra c
Mar tin
ĠÃ©v olue
Ġn uclÃ©
Ġsou h
ĠcrÃ© er
Ġh yp
Ġcr ise
ien nes
Ġdou te
Ġn os
ĠH ug
ĠAn toine
u tÃ©s
ĠM aison
Ġtr ouver
Ġvill ages
ĠAn ne
ĠdÃ©p utÃ©
y e
Ġv ia
Ġvis ite
Ã©v al
Ġcompr is
Ġmondi al
ĠP ol
Ġpar am
3 3
Ġau teur
Ġfr ont
oir s
Ġquel que
Ġcompos Ã©e
in aire
Ġex c
Ġcontin ent
ing ton
Ġri ve
Ġcour t
Ġch ante
ux elles
Ġma ch
ig u
Ġh om
ub e
Ġappel Ã©s
ĠDan iel
ten tion
Ġcap acitÃ©
Ġnorm ale
Ġdur Ã©e
ĠL im
Ġenv oy
ign y
ĠB ul
Ġre b
ti ll
Ġconn aissance
ĠM el
di a
Ġmat Ã©rie
Ġperm an
ri re
ing s
tionn aire
Ġf le
ĠrÃ©p ond
Ġc am
ĠS ol
av es
ĠmÃ©m oire
6 5
ograph e
Ġstra tÃ©g
ĠH am
umi Ã¨re
ĠO c
Ġcat astroph
Ġqu oti
f ord
Ġsuiv i
ond ation
ĠC rÃ©
Ġpass ant
Ġutilis Ã©s
ĠB ien
ĠMarc el
ill Ã©
c tes
au re
ĠL Ã©on
Ġconst at
Ġc ab
ĠinfÃ©r ieur
ch estre
Ġ% .
4 5
ĠRog er
it t
Ġau teurs
ĠproblÃ¨ mes
Ġurbanis Ã©es
ul tÃ©
ĠAng el
e b
Ġf ru
y a
Ã©d er
3 7
ĠMar se
Ġpro cessus
Ġloc aux
Ġcapit aine
az ine
ĠB ois
ĠÃ©pis odes
ĠMe ille
ĠW ar
ĠV en
L oc
Ġcom ment
Ċ ĠĊ
id er
Ġp ian
Ġrel ation
Ġ3 5
ĠT r
er ies
6 7
ĠAw ards
ĠE s
ĠÃ©qui p
Ġint ro
Ġg raph
Ġchar gÃ©
Ġdev rait
et t
M ich
Ġv oire
ĠJ us
le m
i ale
en di
Ġ196 2
Ġ196 4
Ġter r
ĠG ir
Ġser ont
Ġcou leurs
ĠS ant
8 8
Ġrom ain
Ġfam illes
" .
Ġper form
ra ss
ĠAl l
Ġjou er
oute fois
Ġprov o
Ġcon Ã§
Ġchange ments
d ent
Ġpro l
Ġfort es
Ġatt est
Ġin aug
ĠP ic
re use
Ġ193 0
ĠE st
Ġcontra t
e k
s ki
Ġg erm
ap tiste
Ġ194 5
ag riculture
t Ã¨res
Ġlet tre
or y
ĠarrÃª tÃ©
ĠB ru
ĠrÃ© uss
Ã©ri es
Ġren for
ĠM ur
Ġder riÃ¨re
inst all
v an
ic itÃ©
ens es
am ille
ĠB an
Ġempl oi
Ġmo teur
7 7
ĠdÃ©c ouverte
Ġsold ats
en z
ĠL ac
ro vi
orde aux
Ch ar
R h
r ome
Ġab s
ir ent
Ġqu anti
P opulation
Ġpro ches
Ġte lles
g a
lÃ© gu
Ġplate au
ĠdÃ© di
Ġcomp tait
Ġm asse
Ġ196 6
Ġfab ric
ĠC amp
or es
5 1
ĠÃ©c oles
al li
ĠT ar
v ence
ob ile
Ġcont ribu
ĠM as
Ġph ase
ĠBer lin
om an
j i
n y
ĠP eter
ĠB ur
tu dio
en sement
d in
s Ã©rie
Ã©r ard
Ġdessin Ã©e
Ġh ui
ĠrÃ©g iment
Commun es
Ġn our
Ã® tre
J ac
lan tique
Ġsou ff
g et
and ie
Ġdes serv
ĠFran k
Ġb ret
tÃ©rie ure
Ġgar de
Ġretr ouv
ob les
Ġfor tement
tionn el
Ġve ut
ri ers
Ġeff ets
ĠL ou
it ch
s ons
Ã©c onomie
ĠThÃ© Ã¢tre
ĠF e
Ġremplac Ã©
Ġs enti
Ġs ert
ex position
c an
Ġv oc
Ġfais ait
c tu
Ġ196 5
Ġimp Ã©ri
us ta
ĠV e
Ġfav or
Ġs ensi
Ġsou ter
ĠO li
ag glomÃ©ration
g g
Ġ ordre
Ġph ysi
Ġesp aces
H Ã©raldique
ig h
Ġpersonn el
Ġg ard
n el
Ġcert aine
Ġjourn aliste
Ġapp roche
Ġchin ois
Ġb iens
Ġconse illers
ci ers
ĠÃ©tab lie
Ġj ui
si f
Ġmin im
Ġne uf
g in
ĠdÃ©cla re
Ġf ant
Ġcomp o
ac teur
Ġloc al
Ġ3 1
Ġchans ons
Ġfut ur
Ġd oll
ĠW il
exist ence
Ġar rive
Ġch im
Ġcl o
Ġdev ait
ĠAl ain
Ġb e
Ġt est
Ġqu in
c er
Ġf u
ĠN or
Ġma irie
onn Ã©e
Ġsyst Ã¨mes
ĠJ Ã©r
Ġfa ci
3 9
Ġd os
Ġ4 8
ĠF ilm
5 8
Ġdis s
Ġp ois
d is
Ġm ol
6 4
titu tion
ĠC at
Ġmal adie
Ġlut te
lÃ© ans
Ġv oul
Ġre ine
Ġmusic al
Ġcompos iteur
Ġob jets
ĠX Xe
Ġnature lles
gyp te
ĠBr uxelles
Ġar chÃ©
t ru
Åĵ urs
in formation
' '
Ã© tiques
ĠrÃ© alitÃ©
Ġr ugby
yra mi
Ġdiff icile
Ġs Ã©n
Ġc u
Ġro ck
P S
Ġ19 14
ist er
Gar onne
k in
Ġf ou
in ventaire
end ra
Ġ8 0
Ġexp lo
tionn elle
ĠA li
Ġcon tient
di r
ri me
Ã©d rale
t al
f er
Ġfa Ã§
Ġsau f
Ġsuiv antes
Ġc op
Ġb ron
Ġpar le
Ġm agn
Ġtrav erse
Ġter mes
et Ã©
Ä ģ
ĠgÃ©nÃ©ra ux
ĠdÃ© riv
C I
ĠAn n
ĠproblÃ¨ me
Ġpo Ã¨te
ĠBr un
d o
Ġmaj or
h ors
Ġpl antes
ather ine
ĠS Ã©n
4 7
Ġchac un
Ġouv ert
ĠPe tit
An g
Ġmot s
ro ss
Ġsec rÃ©taire
Ġri en
ĠC omme
Ġreconn ue
ov a
ass ociation
Ġmunicip alitÃ©
ce au
ustr alie
ĠH ol
ĠC onc
h ar
ti ennent
Ġpres sion
b an
omm Ã©e
Ġpouv ant
au c
Ġinf lu
Ġ orth
ĠrÃ© alise
Am Ã©rique
ĠL ar
Ã©s ar
Ġsovi Ã©tique
Ġti ent
ĠÃ©lev Ã©
m ise
ĠMarse ille
ĠB ay
Ġpeti tes
ĠJ ules
Ġiden tique
or me
Ġliber tÃ©
Ġre mont
Ġimport antes
ĠBourg ogne
g o
Ġfoot balleur
or ld
v aux
ĠÃ© limin
Ġdist ribution
ĠcrÃ© e
ÅĴ uv
Ġf estival
20 20
ĠreÃ§ u
Ġ% )
M ari
ĠC in
ac tifs
ĠbÃ©nÃ© f
5 5
Ġv ice
Ġport ant
lac k
Ġbut s
empl oi
Ġouv rage
Ġv ul
Ġcon duit
rÃ©d Ã©ric
Ġpar lement
ĠrÃ©alis er
exploit ation
Ã´ pital
Ġolymp ique
alis er
inc ent
Ġsomm et
Ġrec ensement
Ġnouv el
ĠAr t
G M
O rient
Ġsp ati
Ġform Ã©
3 4
Ġmen tionn
Ġrev ue
in et
ĠUn ivers
Ġdist ance
ĠP et
Ġre vient
Ġdis cip
Ġcel lu
i us
ĠL ong
S A
As semblÃ©e
ti Ã¨me
ru p
ĠcaractÃ© rise
Ġcri tiques
ĠcÃ´ te
l ing
Ġvari ations
Ãª t
ĠdÃ©c ret
ag u
Ġjus tice
Ġj uri
Ġtr ouvent
Ġorigin ale
Ġespagn ol
ĠdÃ© v
qu ie
ci ence
ĠN eu
Ġconf lit
ĠvÃ©rit able
ĠN otes
o tion
Ġfron tiÃ¨re
Ġl ie
3 2
ĠCel a
ĠrÃ©p ublic
6 8
ĠprÃ©c is
Ġv in
3 1
Ġa it
ĠM y
Ġra y
Ġfer rovi
H en
Ġgl ob
op Ã©ra
l at
ĠG o
ci a
ĠB erg
Ġe ut
Ġphilos ophie
Ġt ours
Ġcan al
Ġm auv
Ġ196 3
ĠrÃ©guli Ã¨rement
i ze
ĠB ordeaux
ĠC ant
ĠM os
d en
ĠGr en
Ġfer me
est ation
ist ant
ĠE mp
Ã© lev
ĠindÃ©p end
ĠmÃ©th ode
Ã©m ission
Ã©tab lir
Ġanim aux
8 4
Ġfr Ã¨res
Ġenreg ist
ĠK h
Jac ques
Ġar mes
In ter
Ġdis que
cu pe
Ġpar is
7 8
Ġconcern ant
i cien
ĠP ress
f ilm
ar re
im m
Ġadministra tive
ĠSu per
Ġoff re
Ġofficielle ment
ces se
ĠÃ©v Ãªque
Ġ194 4
Ġt re
P rÃ©
w ay
k et
Ġp ages
Ġper du
Ġc Ã©lÃ©
Ġ195 8
7 6
ĠDire ction
ap tis
ĠdÃ©f aite
anc er
am Ã©nagement
Ġchan teur
rag on
Ã©rÃ© s
Ġoc casion
Ġunique ment
Ġfro id
Ġlyc Ã©e
ge ois
z z
Ġcontr Ã´
ĠChris tian
ĠB i
5 9
am i
ĠdÃ©partement ale
Ġv oies
Ã©p endance
ti mes
7 1
Ġform er
Ġpar ents
er nes
he ure
in tÃ©g
d ie
ond es
4 4
ri en
oi ds
Ġb out
Ġpar f
ign on
om es
ĠG old
Ġsim il
A v
as tie
Ã©ra le
Ġri ches
Ġconse iller
H istorique
Ġh on
che ment
ul s
Ġfran ch
p ro
se ignement
ĠalÃ© a
Ġf Ãªte
ta b
Ġop pos
Ġrec ord
Ġ19 20
Ġgouver neur
Ġsur v
tis sement
ĠentiÃ¨re ment
Ġarg ile
qu Ã©s
ĠS il
Ġdoll ars
qu in
Ġfle uve
ĠÃ©qu ival
ar di
Ġa ction
ĠdÃ©sign er
Ġminist Ã¨re
Ġqualif iÃ©
Ġar tistes
ĠA p
ĠC os
Ġs orte
4 9
Ġclim atiques
ĠF lor
Ġmarch and
Ġtra duit
Ġapp rÃ©
3 8
Ġcou pe
ion n
Ġs ch
Ġcomp Ã©t
Ġbes oin
ant h
ĠV ienne
Ġl ic
Ã³ n
ĠB os
ĠBar b
m il
Ã©t h
ic tion
ĠD omin
ĠHen ry
Ġtrib unal
ĠT re
Ġa jou
Ġ196 1
Ġcatastroph e
Car tes
Ġc ra
j a
ĠprÃ©f ec
ang es
ĠNation al
Ġprof it
Ġcorrespond ent
Ġpopul ations
h ab
6 9
Ġf us
Ġal g
7 2
y me
ici ens
ĠL et
ĠE t
Ġl umiÃ¨re
ĠAr ch
17 9
Ġfa veur
Ã©lÃ¨ ve
Ġconstru ire
ĠH er
iÃ¨ ge
Ġimm Ã©di
ces sion
6 3
Ġclim atique
Ġprodu ire
Ġdat ant
ut s
Ġmes ures
Ġqu as
li ers
pe au
l ine
Ġc os
Ġtra in
Mich el
Ġpuis que
O ise
Ġpar all
Ġpo si
ĠAlexand re
E P
Ġpermet tre
Ġcont en
Ġun itÃ©
Ġf onde
f red
te lle
Ġorg an
Ġ193 9
Ġcomplex e
Ġartis tique
ie uses
Ġactu el
al i
Ġm Ã¢
ĠÃ©volu Ã©
Ã©ch al
Ġcul te
E s
6 2
Ġv ont
ĠF ab
Ġb ate
ĠB Ã©
Ġmen tion
m ission
ĠpÃ©ri odes
Ã©r itÃ©
y z
ĠÃ©conom iques
acc ord
re f
Ġc oul
j on
ĠC amb
ch Ã©s
Ġciv ile
Ġar ts
ĠT om
Ġdist rict
inf luence
al istes
8 7
ĠÃ©tablis sements
Ġexp os
Ġiden tif
ĠH ong
Ġarm Ã©es
ĠÃ© lus
Ġau tant
Ġch ute
Ġrapi de
Ġconc ert
Ġfam ili
F A
ĠG Ã©rard
Ġrelig ion
alog ue
Ġ195 9
Ġinond ations
Ġcroiss ance
Ġje unesse
acc Ã¨s
Ġs Åĵur
ul Ã©e
ĠCar l
Ġpuis qu
Ġmoy ens
Ġconsomm ation
Ġcy cl
ut enant
ar ticle
ĠN i
ouve au
Ġa x
ĠW est
Ġtomb e
ĠcaractÃ©ris tiques
us age
" |
uv es
Ġn u
7 9
onn Ã©es
Ġapp are
Ã» te
iti me
Ġb ureau
Ġprop res
enn is
Ġam Ã©li
Ġpriv Ã©e
ĠrÃ©sul tat
Ġfond ateur
B aptiste
onn ais
Ġp i
rie l
m ique
Ã© lo
4 3
ven ir
Ġclub s
6 1
am in
ĠP lan
di ci
ro ix
Ġfond ation
ill a
Ġmassi f
or a
ĠA frique
Ġm ess
r s
Ġactu ellement
ĠO p
ĠJean ne
t ur
Ar g
P lus
ĠEn tre
Ġt opony
ĠG Ã©n
Ġdiff usion
mar Ã¨s
archite cture
5 2
7 4
Ġas si
Ġbron ze
g Ã©rie
V ille
V F
Ġs oient
lis es
Ġress ources
ĠR iv
C he
Ġlesque lles
8 6
Ġt or
E FF
Ġex cep
ĠAn ton
Ġ202 3
onf lement
ĠÃ©lect rique
om ie
ow n
k h
8 3
r itÃ©
Ġg all
ĠF rÃ©dÃ©ric
ra ient
oph one
Ã§ a
Ġti t
Ġcol lÃ¨ge
t t
Ġesp ace
w ood
ĠRo che
mi le
ĠN av
ri Ã¨res
ie ls
ĠtÃ©m oign
ĠmÃ©dec in
Ã©r on
ĠL ille
5 3
Ġd Ã»
Ġhum aine
Ġprof onde
NI EFF
re y
Ġparam Ã¨tres
4 2
Ġcollabor ation
in v
Ġvict oires
Ġman que
ĠC Ã©sar
Ã© si
ĠPat rick
oise aux
Ġa ch
Ġm yth
l ais
ĠT outefois
Ġmand at
an alyse
8 2
Ġh yd
lÃ¨ ves
Ġ195 6
ar is
A R
ĠsiÃ¨ cles
ant erie
Ġpe ine
au ff
ĠPh il
ydrograph ie
or ient
. ),
5 4
Ġcoup le
d ont
Ġst and
e ction
Ġaccue ille
m ation
ĠG ui
Ġlog ic
Ġjou Ã©
Ġenv ironnement
av ait
is ode
Ġar ticle
Ġm Ãªmes
si de
ol te
Ġex Ã©c
i um
C es
Ġin cl
Ġd ange
Ġb ras
Ġcommun iste
Ġcanadi en
Ġtrav aille
ĠB R
Ġv ent
Ġp auv
5 7
oc Ã¨se
ĠB ob
Ġprojet s
ĠrÃ© seaux
ĠlittÃ©ra ire
ĠV ir
Ġrecher ches
crip tions
Ġscientif iques
Ġn obles
C F
ĠT im
Ġimp lant
al ign
ĠM ex
Ġcomp ortent
Ġpat ron
ch en
ĠPar lement
Ġf id
ĠR adi
Ġp Ãªche
Ġpar vient
ain c
Ġd on
ic ations
Ar t
Ġargile ux
Ġsem aines
v ue
Ġ Î
Ġf our
ĠrÃ©alis ation
Ġbl oc
al ys
Al bum
ĠB oul
Ġ7 0
Aut riche
Ġdeven ue
Ġcath Ã©drale
ĠrÃ©s istance
Ġa st
Ġdans e
dou ard
Ġli Ã©
ĠB rÃ©sil
Ã© ti
ĠJ ourn
f r
ign ant
ĠNorm andie
o h
G u
alif orn
ac te
5 6
ind Ã©pendance
ers on
ĠL Ã©
im age
l Ãł
ĠF orm
ar b
Ġv esti
18 0
Ġlesque ls
ĠL os
Ġsta tis
nation al
Ġsupp lÃ©ment
am our
ĠP an
Ġre ten
or ges
ĠintÃ© ress
Ġm ass
Ġpar ce
Ġ194 8
ĠÃ© dif
Ġjus te
ĠLa urent
Ġital ienne
ĠP yrÃ©nÃ©es
Ġsitu Ã©es
n ats
Ġpr ison
ab eth
ouv re
Ġv ert
ĠP r
par avant
Ġal tern
ĠD ie
ĠD r
ic al
ĠV ie
ĠConst antin
7 3
Ġclass Ã©
ent raÃ®
cent er
ĠRec ords
ĠdÃ©velopp Ã©
ec k
Ġs h
8 1
ĠÃ©c riv
Ġh os
G e
Ġdire ct
Ġmus ul
ac tÃ©
Ġdev int
onn er
ĠdÃ©p utÃ©s
Ġpart age
ĠĊĠĊ ĠĊ
Ġ194 6
Ġv ente
Ġrejo indre
ĠnÃ© er
vi d
at oires
ol Ã©
Ġfil les
Ġposs Ã©d
ort ant
Ġpar ten
in n
Ġv ieux
Ġent ou
Ġm ains
ĠP ologne
Ġsuiv ants
Ġple in
del Ãł
Ġp Ã©d
ier ge
Ġli Ã©e
Ã¨ che
th ur
Ġenreg istre
ĠPor tug
Ġv all
S i
ĠP uis
Ġvol ume
ĠSav oie
ĠpropriÃ©tÃ© s
Ġexter ne
Ġac cident
ĠĠĠĠĠĠĠĠ ĠĠĠĠĠĠĠĠ
Ġloc alitÃ©
Ġne ige
Ġmas cul
ĠquÃ©bÃ©c ois
P al
Ġm Ã©n
Ġregroup ant
ĠR ol
Ġv aste
ĠpropriÃ©ta ire
Ġin hum
Ġh erb
Ġab b
ĠfrÃ© quent
Ġpris onn
Ġguer res
Loc alisation
Ã¡ n
Ġouv rages
Ġb aiss
w n
es c
Ġp ay
Ġconc ours
ĠG as
M us
h ou
C ert
Me mbre
d its
An cien
Ġt end
z on
ĠGr Ã¨ce
Ġno te
ten sion
Ġh Ã©ros
enti ne
ĠH aut
C omp
ĠC D
ĠphÃ©nom Ã¨ne
Ġpein ture
ĠP au
Ġl ing
ut er
And rÃ©
Ġloc ales
che c
ar o
ĠRoy al
Ġtrans ition
Ġp oids
Ġch ambre
ĠscÃ©n ario
Ġtravers Ã©e
Ġla isse
Ãī t
M al
ĠÃ©tab li
ĠLor raine
ĠR Ã©s
Or lÃ©ans
ĠSim on
ĠSt ar
4 1
Ġcon ver
Ġdom icile
O N
b l
Ġj ardin
Ġhame au
ĠconsÃ©qu ence
ĠprÃ©sent Ã©es
ĠB elle
ĠÃ¢ ge
id ae
Ã© en
V al
Ġar mÃ©e
ĠdÃ© lÃ©gu
dess ous
ĠD om
aire ment
Ġsouver ain
iel d
ĠCel ui
erm ain
ie f
Ġfonction nement
ux emb
Ġtourn oi
ĠmÃ©d aille
ĠmÃ©dec ine
ĠCon f
ag Ã©e
enti tÃ©
Ġ195 7
Ġrepr ise
Ġclass Ã©e
ĠprÃ©cÃ©d ent
Ġroy al
os es
ic s
ol is
Ġcant ons
Ġ194 9
Ġs tudio
mon ie
di ction
Ġrelie f
ĠCro ix
ĠD ur
ĠvÃ©gÃ©t ation
nex e
Ġprofessionn el
Ġh ommage
aut om
t he
Ġapp li
ĠCommun autÃ©
H ydrographie
Ġ3 2
Ġno tre
ĠDis ney
ĠnÃ©g oci
Ġj ug
Ġra di
Ġs Ã©p
Ġh iver
ch t
Ġsecond aires
Ġmag azine
ĠPlus ieurs
ĠRay mond
Ġiss u
ĠW orld
Ġnom mÃ©e
Ġintit ulÃ©
Ġport es
ol ie
Al pes
Ã©r y
Ġs omme
ti r
Ġa j
Ġen ne
Ġcon cl
ol iques
ĠM ass
Ġenv ir
Ġ9 0
ul aires
Ġf rag
oris tique
Ġinc onn
Ġou est
ale m
Ġ195 4
4 6
se ud
Ġb ass
Ġpra ti
Ġ 000
ĠÃī c
a o
Ġconc erne
Ġsuff is
Ġpro duis
avi res
d om
Ġ195 5
Ġprodu cteur
ĠÃ©v o
ic tionnaire
ĠÃī tat
Ġt ente
ustr al
V D
Ġcul tiv
Ġe au
ĠNap olÃ©on
D Ã©p
n et
Ġvari Ã©tÃ©
Ġri che
Ġacc us
tor al
Ġhab itu
Ġin ves
Ġp ouss
Ġmod Ã¨les
al erie
Ġb ud
lo re
ĠEn fin
U S
Ġsuscepti ble
alis Ã©s
ĠÃ© lÃ¨ves
Ġrespons able
Ġutilis ant
ĠM onde
Ġju dici
T rans
is tique
ĠB ill
Ġconc urr
ĠD Ã©c
tÃ© rÃ©
Ġconsid Ã¨re
ĠdÃ©partement ales
ad rÃ©
ri ces
Ġdou ze
Hen ri
Ġretra ite
Ġangl aise
Ġn oire
erg ne
Ġsoci aliste
avant age
Ġcon texte
ot o
ĠdÃ©c Ã¨s
Ġdi z
ĠPar mi
m icitÃ©
Ġsem aine
ĠC op
or tement
Ġfonction n
ĠcÃ©lÃ© b
Ġproc Ã¨s
Ġcompo sition
Ġdom aines
Ġexp rim
s ter
Ġrep ro
ut ation
Ġ '
ĠrÃ© cup
Ġexp lique
u Ã©
Ġcul tures
Ġindi que
ĠdÃ©m ont
Ġan g
k m
ĠdÃ©m ographique
Ġmarqu Ã©
ĠB lack
ul le
Ġm ix
ĠrÃ©c omp
M on
Ġpublic ation
Ã© ducation
Ġautor itÃ©s
Ġth Ã¨me
w w
Ġren ouv
Ġcar b
Ġsus p
ou ch
n on
Ġcon g
h o
ĠC atherine
ist an
ĠG il
Ġc ru
Ġenf ant
ĠlÃ©gisla tives
G roupe
Mar ne
ĠA mer
oc key
Ġsyn th
Ġlang age
Ġat ti
Ġre ce
Ġconcep t
ĠdÃ©but s
ter ie
Ġ4 5
Ġdes tru
Ġpe int
Ġt al
Ã´ les
Ġtemp le
A D
Ġviv ant
Ġsign al
Ġrev anche
erm an
Ġsur n
ĠCert ains
h istor
I N
ab sence
ell ation
g ar
h Ã´tel
ĠA v
ad er
Ġvolont Ã©
ĠG Ã©
Ġdyn astie
Ġm y
ĠrÃ©p ublique
di fic
ardin al
Ġf un
Ġdeme ure
Ġmunicip ale
Ġprogres sivement
Ġ194 7
ol o
ĠBR GM
ac tions
ĠN antes
Ġs oi
ĠC ra
ĠÂ» ),
Ġsoci ales
m Ã©t
ĠR od
au ph
Ġdesc end
Ġaff aires
Ãī n
er ce
Ġam is
Ġobten u
Ġli aison
Ġcom Ã©die
Ġrou tes
Ġm orte
ĠD un
ag on
Ġpil ote
O p
Ġn avires
tu e
Ġob jet
cl am
Ġseigneur ie
ag ent
Ġc uis
Ġpriv il
Ã¨ dent
Ġrais ons
i pp
mÃ©di aire
ign Ã©e
Ġfr om
ĠrÃ¨g les
erm ont
ĠÃ©vÃ© nements
Ġr ares
ĠL ab
Ġs aisons
Ġs Ã©ries
Ã©c riture
Ġorigin aire
200 5
Ġmat ern
Ġfond s
A T
Ġprim aire
r lande
c in
200 6
Ġcons iste
Ġb ru
os er
l av
am ment
Ġpos t
ĠA rn
u z
Ġmeille urs
arch ie
Ġm our
ĠD iv
Ġpouv ait
ult an
ĠLe ur
Ġtr ente
anim ation
m age
is h
ĠcatÃ©g orie
Ġorganis Ã©
in er
am Ã©ric
Ġid Ã©
M P
Ġv an
al lÃ©
ĠsociÃ©tÃ© s
Ġac tifs
ul tÃ©s
ĠAn gleterre
Ġsub st
Ġth erm
Ġob jectif
Ġmaint enant
C O
Ġdispar u
um el
Ġb ot
ve y
Ġp ati
Ġposs es
exp ression
ĠĊ ĊĠ
Ġjourn Ã©e
ĠK ing
ĠC er
ĠP endant
Ġfeu illes
Ġli Ã©s
ang le
Ġcon ception
lic ations
p el
200 4
Ġcandid at
v et
ĠprÃ©sid entielle
Ġstat ue
C omme
Ġcont act
ĠM ath
Ġdra matique
ro Ã¯
Ġnav ig
ĠÂ» ).
ĠLÃ©g ion
ass er
T ra
Ã© an
Ã¨ lement
Ġmo bil
ĠlÃ©gis l
te au
ox e
Ġcommerci al
Ġal titude
Ġsa v
un ion
Ġb il
s er
at er
ĠGen Ã¨ve
Ġob s
Ġ195 3
Ġproc Ã©d
' Â«
Ġac ces
Ġcaus Ã©s
Ġpol on
Ġass assin
Ġeff ic
Ġtra duction
iss ue
Ã ±
J eu
Cl aude
Ġfabric ation
Ġfor ment
Ġorigin al
ĠmatÃ©rie l
ĠD Ã¨s
Ġ195 2
ĠamÃ©ric ains
Ġmaje urs
ak e
ĠdÃ©c enn
ve ill
ill age
ĠrÃ© d
ĠdiffÃ©r ence
Ġpl a
ĠEsp agne
r ons
Ġra dic
Ġred Ã©c
Ġpubli Ã©e
ĠR am
ĠQ ue
ĠJ an
Ġfait s
ĠAm Ã©rique
ĠL in
ĠgÃ©n Ã©r
Ġf i
Ġv ote
ĠAnd re
ĠMal grÃ©
Ġ5 4
An ne
am Ã©li
Ġ ici
du cteur
Ã©v Ãªque
ĠStra sbourg
Ġco opÃ©ration
Ġinform ations
ouv enir
n i
or ation
M an
ĠD ub
ch ent
ĠprÃ©sent s
Ġla bel
our ce
ĠreprÃ©sent ation
uv ergne
Ġpor tÃ©
Ġv ision
Ġprin temps
Ġbaiss er
trÃ© m
Ġun itÃ©s
Ġtourn Ã©
ul er
Ġes ti
semb l
b a
Ġfin it
ti es
Ġratta chÃ©e
ĠD urant
Ġdipl om
Ãī tienne
ann Ã©es
ĠChap elle
Ġre lev
ĠAl pes
ĠrÃ© di
re ction
vers itÃ©
y er
ĠN atur
Ġtr Ã´ne
ĠcomplÃ© tÃ©e
Ġm u
P e
itu de
ĠsÃ© j
ĠA th
ra ire
Ġan tique
ĠdÃ©rou le
aliforn ie
Ġcinqu iÃ¨me
f i
Ġes c
inf anterie
Ġdoc uments
Ġobten ir
ĠM ic
b urg
ĠspÃ©ci fique
cu it
Ġutilis ent
Ġadministra tif
Ġ193 6
Ġpian o
B retagne
eur os
Ġab rite
Ġentrepr ise
ĠCar tes
ĠMil an
Ġh a
Ġoc cupe
tes se
ĠH el
un ivers
Ġmaj eur
ĠÃ¢ ges
Ġdisc ours
ĠconsidÃ©rÃ© e
h yp
urÃ© at
Ġplu ie
Ãīn ergie
ce aux
ĠB ab
Ġcro Ã®tre
n Ã©s
c ourt
gn y
200 7
ĠrÃ©sid ences
En seignement
ĠÃ©tudi ants
ĠT ch
ĠopÃ©ra tions
in age
ĠrÃ©s erve
Ġparc ours
en ue
aff aires
ĠP a
ĠChampion nat
S es
Ġvoit ure
Ã© qui
u els
a Ã©roport
Ġ195 1
Ġaut oris
oud re
Ġaccue illi
ĠcaractÃ©ris ant
ag og
ĠrÃ©f ug
ĠM ons
Ġconstitu ent
aiss ances
S itu
tin ent
es prit
p our
Ã§ ons
Ġvul n
De ux
Ġcommand ant
Ġ ul
N e
ĠJ osÃ©
Ġmusic ale
ĠrÃ©g lement
h Ã©r
ĠD en
Ġorganis ation
ph ab
Ġrestaur ation
Ġb all
Ġfav oris
ĠCol omb
Ã´ mes
200 2
ĠrÃ© forme
g ra
Ġti ss
ĠdÃ©velop per
ĠprÃ© serv
Ġco ord
de ux
op le
ĠC Ã´te
ĠlÃ©g Ã¨rement
ag ers
Ġref use
Ġblan che
Ġch Åĵur
Ġdi am
Ã¨g re
Ġsp ort
u elles
Ã©tu des
Ad ministration
ĠdÃ© te
are t
rie d
Ġh umi
200 1
Ġc ord
om o
Ġv ous
Ass ociation
ĠdÃ©c lin
anc y
ĠC ompagn
man uel
m o
ob serv
an y
pec tive
Ġgrec que
ct ur
ar te
man ie
Ġguit are
in stru
Ġl y
Ã İle
at o
Ġdistin gue
rib ue
A lexand
ĠL is
ĠÃ© mis
Ġcy cle
ĠP ap
ende main
Ġrelig ieuse
Ġf leurs
Ġti ers
Ġmod ernes
Ġa fric
I S
Ġconsid Ã©ra
Ġbi odi
Ġmon ast
DÃ©p utÃ©
ac Ã©e
Ġy eux
ĠMar ia
Ġmarqu is
ĠdÃ©couv ert
tif ication
Ġmati Ã¨res
tiqu itÃ©
ĠS ous
ĠA ff
Ãī p
par tement
d ans
Ġatte indre
Ġa ctions
Ġpossi bilitÃ©
ac o
el d
9 9
Ġf leur
ĠM Ã©
Ġm onn
ĠprÃ©sent Ã©
Ġmic ro
Ġant Ã©rie
Ġconcent ration
ĠF Ã©dÃ©ration
Ã©r ite
Ġs ais
end ie
h or
Ġg ens
l Ã¨s
Ġ( ,
ite urs
ĠP eu
ĠPe ti
ĠV incent
Ġhabit ant
Ġst ations
ram me
ag a
ĠlÃ©g ende
Ġsuscepti bles
ĠT ex
olog ies
Ġtour isme
s a
Ġdimin ution
Ġpl ans
Ġcouv rant
ĠM un
ĠdÃ©par tements
Ġbiodi versitÃ©
D is
Ġcom itÃ©
d h
Ġpar ler
Ġg lace
ĠA llemand
Ġh ar
ĠÃ©v ent
m ins
z y
e ment
ord ogne
ĠRh Ã´ne
ĠO b
ĠSu Ã¨de
ĠComm ission
Ã©p isode
Ġsub s
Ġt Ã´t
if ication
ĠCom itÃ©
Ġiss us
ĠdÃ© li
Ġcommande ment
ai es
or ies
ĠRadi o
esp Ã¨ce
Ġg ui
ĠH an
atta que
ĠC ity
Ġfab ri
ĠCh ambre
ĠnuclÃ© aire
A P
Ġv ac
ĠN ations
ly mp
er ci
ĠT ourn
Ġmaxim um
s ous
oc at
Ġalbum s
Ġoccident ale
us alem
enc adrÃ©
ĠM es
Ġl endemain
ĠprÃ© t
Ġnum Ã©rique
ec t
A L
Ġb ibliothÃ¨que
Ġg ran
ari at
Ġble u
Ġrespec tivement
el in
u ch
Ġquanti tÃ©
Ġp ou
Ġcomb ats
Ġno tion
Ġb us
Ġqu art
Ġmar ine
qu Ã©es
ĠE ug
Ġcal c
Ġsupp rim
Ġj ette
ĠH all
ĠJ Ã©s
Ġsitu Ã©s
ĠB ell
Â» ,
Ġple ine
ĠrÃ©p ert
F in
Ġdesserv ie
ĠR oi
at te
end ue
ĠY ou
Ġseul s
Ġfran co
Ġre jet
Ġr up
A M
Ġde hors
U R
S Ã©rie
Ġar riÃ¨re
ond s
Ġutilis Ã©es
Ġp Ã©tro
ĠD am
Ġin gÃ©n
Ġmajor itaire
ĠM ah
ĠC r
C an
Ġc ouverture
Ġpour tant
Ġcit oy
in iti
val ier
ol k
us tin
Ġquar tiers
Ġac tes
Ġtu Ã©
lan c
guer ite
ĠCh ic
ĠC limat
Ġexp li
200 8
ĠS ab
ĠT out
ul a
G rand
Ġ194 2
ĠdÃ©tru it
os a
Ġam Ã©n
200 3
ĠB all
Ġfond ament
ass ade
M il
Ġex clus
er te
g en
ĠV I
Ġvic times
Ġra p
ĠR ock
Ġinf luence
Ġseigne urs
ĠmaÃ® tres
met tre
Ġcomm ission
Ġ194 3
Ġche fs
ĠrÃ©c it
ĠPortug al
E C
Ġr yth
ti le
Ã©ri ques
ĠEmp ire
Ã©m ique
re uves
A ub
ĠAngel es
Ġf oss
ĠgÃ©n Ã©ration
Ġl ien
Ġinspi rÃ©
ic an
ĠQu el
l ot
ĠI mp
Ġlie utenant
Ġde vi
Ã© les
Ġcorrespond ant
f ice
Ãī gypte
ĠL an
ĠÃ© rig
Ġat h
Ġpl aine
Ġau paravant
Ġapparten ant
ĠE rn
erg Ã©
re uses
ten ir
ĠV ar
Ġra v
Ġver sions
ĠC ulture
Ã©n ie
ĠdÃ©fin ition
abb Ã©
Ġfa unis
Ġfait e
Ġass ure
ĠÃ© to
ĠDomin ique
l ai
Ġemp run
j u
j oin
ĠFont aine
ar ra
Ġoff ici
ad o
ĠJourn al
ĠN am
ĠD oc
Ġcomp ose
Ġj aune
Ġferrovi aire
ĠC y
di um
Ġnom me
ens is
Ġbr Ã»
Ġt ax
Ġqu es
Ġn oy
D u
ĠB ig
h u
ĠE r
m osph
ie ure
Ġpoursu it
9 5
ĠLa ur
in Ã©e
ĠAr g
Ġar rondissement
ĠrÃ©sid ence
ul sion
Ġdist ribu
P remi
Ġb Ã¢
am ique
Ġreven u
Ġau quel
Ġfl oristique
Ġar ticles
ĠexpÃ©ri ment
Ċ ĊĠ
Ġcom Ã©di
Ġs core
ad is
Ġconsac rÃ©
Ġs an
Ġassoci Ã©
ul tes
Ġv ite
ab e
Ġ Åĵ
Ġrec omm
Ġbas Ã©
Ġpat ri
D urant
ĠG ard
B C
use ment
ĠMon te
Ġsa tell
ĠT ri
if e
Ġmaje ure
ĠÃ©ta pe
ĠRe d
tern et
ĠJ im
D enis
Ġb re
osc ou
Ġimp li
E l
Ġsp ir
Ġclass es
and a
Ġfaunis tique
la ir
re ts
ier res
y de
Ġt ur
ang a
ou pe
Ġmar che
Ġreconn aissance
rop ol
f on
ign ent
aut or
ad ap
ang Ã©
Ġpouvoir s
Ġab ou
Ġtra fic
ter res
ĠP in
Ġatta que
Ġconn aÃ®tre
Ġpubli ques
ĠCh amb
Ġ3 3
oph ones
Ġm Ã©ta
oll y
P endant
in ves
ĠG all
ĠP alais
ĠÃ©crit s
Ġmunicip ales
exp Ã©ri
Se ine
ĠJ on
ĠT V
Ġpl aces
Ġpr ennent
ĠL am
ow s
A qu
Ġd rain
ĠvÃ©hic ule
ĠÃ©c rite
Ġm ig
ĠMeille ur
ĠM use
m ans
ay a
Ġplan Ã¨te
ta ient
Ġparois si
Ġling uis
Ġg am
Ġv arie
Ġapp elle
Ġst ock
ĠD ordogne
Ġrom ans
oth Ã¨se
As ie
enf ant
ul l
Ġal ler
b as
A ri
ĠMar k
ĠSm ith
ĠÃ©p ous
Ġsur ven
Ġ194 1
J ose
Pal marÃ¨s
al iment
Ġremp ortÃ©
Ġid Ã©es
ra Ã«l
w in
ĠF ort
jec tifs
ig er
ĠmÃ©di Ã©v
ch ar
Ġ193 8
ĠB us
urb anisme
ĠdÃ©fini tivement
Ġ ouverte
Ġv ainqueur
ĠPar c
au f
ĠfÃ©d Ã©ral
ur o
Ġnive aux
Ġmol Ã©c
av al
Ġp an
ĠF ern
uc k
Ġretr ouver
Ġt oile
Ġcent r
ĠrÃ© fÃ©r
y o
Ã¨ ler
Ġacc Ã¨s
emp les
ĠÃ©c arts
Ġphilos oph
ĠÃ©tablis sement
ĠJÃ©r usalem
O S
ĠPro vence
Ġtota lement
Ġcontempor aine
ĠAllemand s
Ġm urs
ĠM oscou
Ġaut rich
Ġk m
H omme
200 9
Ġcheval ier
ing er
Ġenv is
ĠprotÃ©g er
ĠM Ã©m
ĠH u
Ġ193 7
Ġcommunau tÃ©s
V oies
Or ganis
re au
ĠV ierge
li ge
Ġsouh ait
ĠNo Ã«l
O M
Ãī tudi
Ġl un
Ġchante use
b ach
uxemb ourg
Ġcont rain
ĠdÃ©couv re
Ġspor tif
archite cte
ili bre
ĠS yl
pr Ã¨te
rang er
Ġhum ain
9 4
Ġcellu les
l on
ĠCh Ã¢te
Ã©ch elle
w ard
Ġh ydrograph
ĠfaÃ§ ade
Ġsecond aire
Ġtravers Ã©
ĠAl ors
z er
Ġc ach
Ġ oiseaux
Ġutilis er
Ġnation ales
ĠsiÃ¨ ges
Ġma tin
Ġ15 0
lÃ¨ te
Ġnav ire
Ġim ag
oot ball
Ä ĩ
Ãª tres
Ġsu Ã©d
ĠeuropÃ© ennes
ĠrÃ©volution naire
Ġb elle
Ġrest ent
Ġsc Ã¨nes
Ġsymb ole
ari a
ĠmÃ© lan
Jose ph
ĠP Ã©ri
n d
po si
ay ant
ig le
Ġb ranche
fic tion
I C
er y
ĠChar ente
o o
Pat rimoine
In de
199 9
ĠSta de
Ð ¾
Ġord res
Ġpens Ã©e
Ġen tier
ĠM en
Ġmo des
ĠO ff
Ã º
Ġindi c
ĠL ot
Ġdi ocÃ¨se
Ġh ockey
ique ment
d us
Ġpro tÃ©
ent ure
av is
B A
i tions
u ation
ĠÃ©trang Ã¨res
ĠpropriÃ©ta ires
aff aire
ĠÃ©v iter
ex ception
ĠRen aissance
ĠcaractÃ©ris tique
Ġara be
Par mi
ĠmÃ©t al
ĠX X
ĠD ar
Ġfl otte
S t
Ġpriv Ã©
An tiquitÃ©
ous in
am en
Ġad vers
ĠMar s
ĠL ivre
Ġsign Ã©
ĠQ ui
A p
ĠM od
ĠP asc
Ġt oit
ris ti
oc cup
Ġal lant
Ġrec ue
Ġ193 3
Ġex trÃªme
Ġs il
ĠrÃ©p and
op position
ĠAl b
ĠmÃ©c anique
Ġfisc alitÃ©
Ġdonn Ã©e
ÅĴuv res
Ġrepr is
ĠR ennes
Ġculture lles
ash ington
ĠfÃ©min in
ĠR ap
Ġprovin ces
Ġgall o
ĠW ind
ais es
ou che
Ġconn us
l oi
Des cription
Ġt ab
Ã¨s es
Ġr Ãª
Ġt op
ĠprÃ©sid ence
Ġform at
Ġstand ard
Ġcon dition
Ġc ardinal
Ġn az
a tifs
Ġp av
Ġtravaill er
ĠdÃ©p lac
9 2
g h
al s
Ġn at
ra k
Ġmar Ã©chal
Ġconstat Ã©s
Ġassoci ation
Ġhe ure
el la
Ġm it
ĠY ves
Ã©ra ux
Ġsoci aux
ĠC ab
jo int
is p
lo w
Ġa qu
Ġs oir
ĠAug uste
Ġs ki
Ãītudi ant
ĠindÃ©p endant
emp ire
omb e
ra tions
ĠdÃ©g rad
Ġb aptis
ĠOli vier
Ġper te
Ġspecta cle
rop ri
C ol
Ġg agne
Ġc ens
ĠG er
Ġch i
Ġb Ã©n
h yd
ĠA pp
Ġattest Ã©
Ġcons erve
Ġindustrie lle
m m
li f
L ien
Ġespagn ole
Ġbritann iques
T V
ĠdÃ©mocra tique
ĠC alifornie
du its
Ġreg ard
ĠB ol
Ġconstitu Ã©e
Ġclo cher
Ġdu re
Ġinter dit
Ġsol ution
Ġpays ages
ut Ã©e
ra ines
Ð °
Ġcomp ortement
Ġm ille
ou b
h r
ĠB or
ĠprÃ©c ise
Ġcommenc Ã©
ĠrÃ¨g le
Ġpar u
ĠC elle
ĠPar k
ĠV end
v res
ĠB oy
Ġ193 5
Ġpoin te
ĠvÃ©hic ules
il d
us crit
Ġhydrograph ique
An toine
Ġs in
Ġdis position
land aise
i ance
Ġ rois
ĠV ainqueur
A ug
ĠAn gl
Ġten u
Ġm ac
Ġt endance
ĠGren oble
Ġdiffus Ã©e
Ġcompr enant
Ġlim ites
Ġm oulin
ĠS w
ĠrÃ© action
ĠMex ique
ĠentraÃ® ne
ĠC re
um Ã©
ĠF ou
Ġaffir me
ĠB ir
Ġdonn ant
Ġconstitu tion
ard ins
Ġquit ter
ĠM agn
ĠS tu
ĠR a
ĠJ ui
Con se
lim ard
Ġan c
ĠtÃ©lÃ© ph
Ġdiffic ultÃ©s
ul te
ct rice
ĠrÃ©gion ale
Ġaur a
ĠT emp
Ġch ron
Ġremarqu able
Ġiniti alement
chev Ãªque
n o
Ã©t ant
ĠÃ©g yp
an iques
Ġculture lle
ab elle
ĠP en
Ġport ent
199 8
for mes
Ġdocument aire
Ġcont enant
Ġmin es
ĠmÃ©di c
Ġconf ond
ier ry
Ġa Ã®
igue ur
S ite
ĠmÃ©th odes
Ġmar itime
uss es
G ermain
ĠLe e
Ġis ol
Ġstru ctures
ĠreprÃ©sent ent
Ġfourn ir
ci ences
Ġoff icier
z i
ĠreprÃ©sent ants
lie ue
ĠRÃ©g ion
ĠM iss
Ġsupp ort
R E
Ġvuln Ã©rable
Ġv enant
ĠcomplÃ¨ te
ĠdÃ©m ar
ĠprÃ© p
Ġb aisse
Ġv ivre
Ar ch
Ġaut onom
till erie
ĠmÃ©d iterran
Ġorth od
Ġbe aux
Ġpeup les
Ġfac il
Ġ5 00
ĠN ouveau
â Ķ
ĠG od
i ro
Ġcarac tÃ¨res
P rin
ĠAr m
Ġtravaill ent
ĠR u
ĠInter national
ĠM ans
Ġab ords
m Ãªmes
ĠW ashington
ĠS eu
as es
ĠJac ob
Ġhui le
Ġ3 6
ĠeuropÃ© ens
rid ge
Ġt ennis
Ġparticip er
d rome
Ġes time
di enne
en sions
ĠCar ol
Ġav anc
or ph
Ġus age
u ellement
Ã¨ ques
ace ae
S ous
mon te
Ġp ierres
telle ctu
S yn
Ġ17 0
ĠO s
9 6
ati e
ĠÃ Ĺ
ĠN ice
tin s
Ġacc omp
Ġ192 6
Ġserv ir
ĠCl ermont
Ġ193 4
Ġpra tiques
ĠMar oc
Ġf iction
ĠD or
Par is
ĠS and
Ġautom obile
Ġser vi
h al
Ġh Ã©ri
Ġf ich
ĠN ob
Or dre
w a
ĠT Ã©lÃ©
Ġv igueur
Ġvers ant
199 7
ĠentraÃ® neur
Ġreconn u
Ġ19 00
ĠscÃ©n ariste
ĠB ritann
Ġm ent
Ġvol umes
Ġim ages
ĠJÃ©s us
ĠnÃ©er landais
âĶ Ģ
Ġconserv ation
ign er
Ġtransf ert
end rier
ĠmÃ©di as
Ġad resse
ign an
se urs
ap pr
Ġvis ant
a tement
Ġlanc Ã©
Ġmultip les
ĠK n
I e
Ġ193 2
vie w
Ãīv olution
ĠL uxembourg
Ġ3 4
ĠRh in
Ġm Ã¨ne
Ġorig ines
20 11
ci ation
er ait
Ġquas i
R Ã©s
ĠK er
i at
Ġhum ains
ĠmathÃ©m atiques
ĠR et
Ġcircul ation
Ġex is
c omp
Ġd ieu
Ġs Ã»
ĠSer ge
ouv rage
ĠR i
Ġac teurs
ĠS N
Ġvesti ges
ĠredÃ©c oupage
c omme
con tinent
eff ec
Ġdirig Ã©
Ġquin ze
Ġpr Ãªtre
Ġvic time
ĠA ub
ĠmÃ©tÃ©or ologiques
Ġques tions
M er
oris ation
ĠVen ise
Ġcolon el
ĠV is
Ġin ten
ann i
9 8
Ġbud get
l ov
ym ologie
or ge
ut h
ĠAl fred
Ġch ose
ĠM erc
Ġaff luent
Ġg la
Ġp seud
Ġrapp el
actu elle
Â» .
f iques
im s
Ã©m at
v o
ar me
tel lig
Ġautre fois
Ġcomp let
Ġjudici aire
Å «
Ġp ic
Ġrec ens
et y
Ġorgan ise
Ġr ues
Ġchois i
ois es
ĠAr ts
Ġtourn age
Ġinter ne
Ġon ze
Ġac qu
Ã©tablis sement
m Ã©s
ĠrÃ© el
Ġrup ture
Ġtra ces
ĠC ond
con te
Ġp iste
Ġassoci ations
Char les
Ġscol aire
Ġs ouvenir
m as
ĠRe g
ĠsÃ© qu
le ine
Ġv enir
Ġf lu
Ġconserv Ã©
ĠChic ago
ĠP uy
Ġ187 0
Ġin tellectu
ĠdÃ©cl en
ac re
Ġindustrie l
Ġchap itre
Ġal tÃ©rÃ©
ĠaÃ©ri enne
it te
Ġrend u
Ġtot alitÃ©
ric itÃ©
ĠsÃ© isme
Ġmanif estations
Ġfaci lement
Ġde viennent
ĠT al
Ġat traction
Ġp yrami
ĠG roupe
Ġp age
re lle
Ġp Ã´le
Ã¨ ces
reg istre
Ġper p
Ġac quis
st Ã¨me
Ġ192 9
Ġsouter raines
pi ration
eff et
ĠbÃ©nÃ©f ici
Ã©lev age
20 12
ĠMar y
ĠdÃ©m ission
du ctions
Ãī quipe
Ġa te
A F
ir al
Ġle cture
Ġast ron
ĠnÃ© o
n ant
Ġmen Ã©e
est res
ĠH or
Ġins c
ĠdÃ©ch ets
ĠNatur a
A ux
Ġprogram mes
oÃ® t
Ġprol ong
ĠGab riel
ass Ã©
Ġfl am
La urent
Ġj azz
Ġfai bles
Ġdestru ction
ĠÃ©trang ers
Ġcour te
ĠCong rÃ¨s
Ã´ ts
Ġgra ve
Ġban lieue
Ġt ome
Ġmis sions
Ġres pect
Ġallemand s
ex tÃ©rieur
Ġsal les
Ã©li x
ĠM au
ĠAw ard
ĠD o
Ġpl ante
ĠAss ociation
il ier
Ġch Ã¢te
9 3
ĠdÃ©b ute
i Ã©es
Ġtra ins
tudi os
Ġenv ers
Rh Ã´ne
19 18
i al
Ġfra pp
ĠF land
Ġmod ern
lev ard
Car riÃ¨re
ol et
ro l
ĠprÃ©fec ture
ĠrÃ© nov
E d
isse ments
ern ant
Ġpays age
Ġex Ã©cu
ĠÃ©lev Ã©e
aut oritÃ©
Ġbar rage
F er
lis abeth
ar tiste
ĠH al
tÃ© ph
s en
ĠMar guerite
Ġb rig
Ġtra ite
ob e
Ar mÃ©e
Ġprofessionn elle
E ss
it Ã©e
Ġinst allÃ©
C alais
ĠA lex
ĠT itre
9 1
Ġcommerci ales
ĠZ e
sc ar
ĠE v
ĠR es
Ġdestin Ã©
Ġdu chÃ©
ic ule
an iste
ĠGal limard
t te
di on
Ġmet tant
Ġmonast Ã¨re
Ġla bor
Ġ19 19
ĠAr thur
D Ã¨s
ĠCompagn ie
Ġet hn
ĠIn de
Ġ179 3
di ens
ĠVers ailles
h ommes
ist ribution
ĠCons titution
Ġcomb in
ĠÃī douard
ci Ã¨res
l ines
ap h
Ġcollec tif
Ġadministra tifs
it o
ĠB ibliothÃ¨que
Ġport er
Ġsu jets
ĠA ra
Ġ19 18
199 5
Ġparall Ã¨le
qu oi
Ġmo b
Ã´ mage
S ec
ment ation
ĠrÃ©uss it
Ġv aut
ĠprÃ©sent ent
prÃ© sident
ĠN ancy
Ġlib Ã©ration
ĠEx p
Ġm os
Ġchiff re
Ġspir itu
ĠS Ã©
ĠAn s
Ġinflu enc
ĠJo e
Ġp Ã¨ler
ĠR D
Ġcath oliques
Ġs ait
Ġaugment ation
Ġ erre
f ils
Ġreli ant
Ġra re
Ġg aul
Ġsucces sion
ĠMar ine
Ġac te
Ġinternation ales
ar rÃª
O rig
ĠA ux
Ġou til
Ġsuiv re
Ġab ond
. ).
v ad
ge ment
ĠP aci
Ġunivers itaire
Ġrest er
Ġl o
ĠC ast
d or
ĠG illes
Ġf eux
Ġprom otion
id en
Ġrec ru
ĠRo ch
ite d
id a
Ġsal ari
ĠRou en
Ġpersonn alitÃ©s
Ġ192 5
Ġ *
O ff
ĠH o
Ġb yz
Ġnom bres
onc er
Ġdim anche
Ġpor ta
Ġorient ale
empl aires
Ġsy s
op p
à ¸
Ġpr ises
ĠrÃ©p onse
h Ã´pital
end er
ĠLa val
m us
Ġrend ent
Ġhame aux
ar mes
f ait
ance ment
Ġord in
D i
Ġcon quÃªte
ĠM ou
Ġcon ven
Ġcomm Ã©m
ĠL og
our ne
ro b
Ġdess ins
S ources
aw a
ĠF ar
9 7
Mari time
ĠC ri
Ġ16 0
Ġport Ã©e
ĠCas tel
Ġfru its
ar riÃ¨re
Ġcent res
Ġor b
ĠmatÃ©ri aux
orient ation
Ġterritori ale
Ġ192 8
h el
Ġrec ouv
or ce
ĠMus ic
Ġcap able
iÃ¨ vre
Ġm ens
il a
iss ait
ĠrÃ© ussi
Ã©di c
Ġs oup
Ã©ra ire
ang lais
Ġor igine
ĠT ok
Ġmont agnes
ĠrÃ© tab
Ġch Ã´mage
Ġman uscrit
ĠH ans
Ġar tiste
ĠUnivers ity
ĠÃ©ch ange
ĠAn th
ĠLo ve
er o
A ustralie
om ique
Ġrep os
Ġn atur
l ation
w an
Ġarch ives
ĠXI Xe
Ġar bus
Ġpor tug
Ġsu gg
Ġinc endi
Ġphilos ophe
ĠÃ©to iles
Ġf en
ĠC ur
Ġv erre
au di
ĠR el
ĠP oi
aill on
Ġn ul
ĠMad rid
of t
Ã©g al
Ã©qui p
Ġdiv in
ad el
Ġun d
Ġco Ã»t
Ġ192 4
Ġproven ant
ti ls
ĠcompÃ© ti
Ġdispar ition
ĠrÃ© duire
at or
ĠQuel ques
Ġconc erts
inst alle
Aqu itaine
ĠS oleil
ĠCor Ã©e
199 6
V ie
Ġd ot
Ch ampion
o ol
Ġ193 1
autor oute
cit anie
Ġappr ouv
Ġjapon aise
in verse
ce mment
rÃ©s or
Ġche vaux
j an
Ġprof ond
ch Ã©es
ing Ã©n
m s
ro its
ĠCor se
Ġmil it
ĠMet z
Ġre lÃ¨ve
At lantique
ĠS yn
Ġv endre
Ġmilli ers
appar ition
pec ts
Ġiss ue
Ġnot er
Ġapp lication
Ġchampion s
ĠAd am
r Ã¨
ĠT ous
avi er
al g
ĠimmÃ©di atement
ĠSÃ©n at
Ġa mp
Ġdirige ants
ĠS tre
Ġcomp ter
S C
Ġparticip Ã©
L uc
Ġc rist
Ġsuff rages
m at
ie ment
ĠJui fs
ĠM ort
ĠM ade
Ġpol lu
ĠF ant
ĠPasc al
la ve
mb l
Ġret ourn
Ġch aud
f ond
Ġcon fÃ©rence
ra se
Ãīc rivain
ĠrÃ© duit
A th
Ġne f
Ã©b ut
Ġform ule
ĠSt an
pr ises
Ar ticle
ĠrÃ©f lex
Ġ1 20
s aison
Ð ¸
GÃ© ologie
ĠmÃ©lan ge
T hÃ©
Ġa ustral
Ġouv re
Ġchac une
Ġtour ne
Ġgra tu
P l
Ġ19 10
em ark
ĠprÃ©cÃ©d ente
Ġb oud
Ġprov oque
ori al
Ġa ide
Ġpers pective
Ġrelig ieuses
Ġh or
Ġcomp arer
ĠRol and
ir urg
adi es
Ġdoc teur
ĠinfÃ©r ieure
ĠZ NIEFF
Ġv Ã©ri
ĠM ol
ĠMus ique
Ġd ic
Ġp ense
tif iÃ©
Ġ rig
Ġprin cesse
tÃ©rie ures
ĠcomplÃ¨ tement
ĠÃ©lect ronique
Ġfin al
Ġpap ier
Ġbes oins
ĠrÃ©v olte
Ġappar ition
me ub
oc Ã©an
Ġcon duite
n ie
III e
ĠdÃ© ten
Ġexp osÃ©
ĠprÃ©v u
A z
p Ã¨re
Ġpr ie
Ġtent ative
h ard
ale ur
ol ith
ĠG usta
/ /
Ġquoti dien
c us
d itÃ©
C in
mi er
M ais
in cl
Ġun if
Ġbret on
ra ux
h en
Ġren v
ov ie
Ã©rÃ© es
Ġim age
ĠAn ti
Ġcan icule
Ġmach ine
Ġsc ru
Ġt ran
Plus ieurs
t ain
Ġfix e
Ġre monte
ta ires
Ġtraditionn elle
ĠLors que
oun d
Ġc iel
Ġtrouv ait
P yrÃ©nÃ©es
ĠQu and
Al gÃ©rie
un s
Ġpe au
ĠÃ©l abor
in ture
Ãª ts
Ph ili
Ġ5 1
ĠS au
lu es
Ã £
ĠÃ©v oque
Ġent rÃ©e
ĠChrist ophe
Ã ¦
ĠD enis
Ġcons cience
Ġvis ible
ĠP ra
us qu
Ġ192 1
ĠH av
he m
Ġv ien
ĠreprÃ©sent Ã©
Ġdiv er
trÃ©m itÃ©
f ense
Ġmaint enir
Ġc re
olog ues
oth ique
M aur
Ġac tive
Ġmer c
Ġ #
Ġn aÃ®t
ĠÃ¢ gÃ©e
ĠcÃ©lÃ¨ bres
Ġle v
p it
20 13
sis micitÃ©
] ,
Ġsec ours
Ġaur aient
ĠP Ã©
ĠdÃ©rou lant
emp lacement
rup tion
Ġ6 4
ĠalÃ© as
Å ¡
Ġd avantage
E N
Ġassoci Ã©e
Ġplac Ã©
ill ot
Ġess ais
Ġemp Ãª
Ġt ox
Ġpois sons
il Ã©
ĠD ictionnaire
ĠG ro
g onflement
el a
Ġorganis Ã©e
Ã© ph
in form
un k
Ġdis posi
ĠCh al
La urÃ©at
re l
Ġcomp lÃ©ment
199 4
ĠrÃ©v Ã¨le
Ġinstitu tions
Ġappar aissent
ĠH ill
ĠlÃ©gisl ature
ĠD ra
P o
Ġsy mp
Ġloge ment
Ġt on
Ġdis positions
ĠRe ims
ĠB rig
Ġes tim
Ġjus que
Ġr h
B ien
ĠP Ã©r
ĠD um
Ġm Ã©ri
Ġtrou bles
Ġvra i
Ġs ainte
ĠdÃ©b at
Ge orges
Ġtrans formation
Ġpopul aires
r omp
Ġlaiss er
Ġprofonde ur
Ġnobles se
Ġ192 7
Ġparticuli Ã¨re
ĠchrÃ© tiens
and s
ograph ies
en sive
Ġla it
Ġcav itÃ©s
C or
ĠcÃ©rÃ© monie
iterran Ã©e
ĠMuse um
O b
pel lier
tu aire
Ã©ta ient
Ġprincip es
er on
Ġch ronique
Ġche mins
Ġlim itÃ©
en registre
Ġla tine
Ġsemb l
ĠB onn
al tern
h ib
ĠS omme
199 3
Ġs oleil
ha us
ch a
20 14
Ġloc alisÃ©
f e
ĠM ore
ĠB ud
Ġcondam nÃ©
si fs
ive ment
ĠL ion
Ġpo se
Ġm ul
Ġcir cuit
Ġn ations
ĠM u
Ã©b as
au gment
ĠCon vention
us ine
Ġv ais
Ġdim ension
ĠCh aque
omin ation
l its
Ġm ys
ve u
ĠimpÃ©ri ale
Ġprisonn iers
Ġ3 8
Ġb u
Ġremplac er
Ġsucc Ã¨de
Ġchamp s
B ar
ĠÃī tienne
Ġpeu pl
f ield
Ġv ec
h ol
ĠOc citanie
Ġrelie fs
ist Ã¨re
ĠM az
ĠspÃ©ci ale
Ãīc osse
Ġp reuve
re urs
Ġpoursu iv
Ġra conte
Ġdra peau
ĠdÃ©n omb
p ire
Ġ192 2
Ġa chev
Ġ179 0
w ell
atta che
Ġt axe
li a
Ã©ta ire
ak i
Ġam en
ĠHong rie
Ġcal endrier
Ġintro duit
Ġenv ah
ĠM ul
ette ur
ĠF r
Com position
ĠH auts
Ġdom es
Ġprov is
Ġth Ã¨se
ĠintÃ© rÃªt
Ġinstru ment
ĠP ou
cul aire
ĠV all
ĠdÃ©b it
ĠR ose
ĠdÃ©fin it
Ġc itÃ©s
Ġmus icien
Ġt ch
P R
c lÃ©
en ay
Ġl iens
Ġdonn ent
Ġbas es
Ġbar on
Ġgerm anique
din and
Ġherb acÃ©e
Ġ os
ĠIn ternet
R oy
ĠJuli en
ĠU l
Ġdess ous
w ick
Ġras semb
Ġhistor iens
ĠT ours
Ġg re
Ġtrouv Ã©
Ġcitoy ens
194 5
Ġdrain Ã©e
ĠÃ©g lises
Ġadap tÃ©
roph Ã©e
g Ã©s
Dis tin
Ġor age
Ġre m
Ġarchite ctur
Ġh i
Ġob jectifs
ĠP C
Ġ3 7
ĠÃ© lo
z o
de puis
Ġpot entiel
Ġdu e
an itÃ©
Ġcomm iss
ard o
Ġcandid ats
Ġaux que
ĠS k
ĠchrÃ© tienne
ex Ã©c
ĠXI V
ĠBert rand
Ġaccep te
Ġqu ad
end aire
Ġspor tive
P ublic
ou Ã©
Ã©c rivain
Ġcycl iste
ĠrÃ© cemment
Ġnation aux
A vant
Ġb oue
Ġpl ant
ĠC ir
ĠnÃ©cess aires
Ġenvir ons
ĠS tÃ©ph
Ġbas Ã©e
Ġinstru ments
ti les
ĠD VD
Ġb ran
ist oires
Ġ17 89
Ġr Ã´les
Ġ19 12
ĠV it
ĠLe g
ĠH autes
Ġ5 2
Ã©di fice
Ã©val uer
entre r
E ure
au mes
ĠR ac
ĠÃī mile
I rlande
ĠSc ott
ri on
ĠT arn
ĠspÃ©ci fiques
Ġindustrie lles
Ġf es
ĠT rÃ©
Ġex erc
ĠP S
ĠF ront
Ġsp orts
Ġcong rÃ¨s
ar in
Ġinc ar
onn Ã©s
ar r
Ġsur veill
ĠBrun o
Ġconten u
ĠMar ne
Organis ation
ĠmÃ©t ropol
Ġra don
ĠSant a
Ġe c
ĠJ ud
199 2
Ġcanadi enne
Ġre pose
Ġcont ro
ĠP u
Ã©bas tien
h om
ap pe
Ġ7 5
Ġdevi endra
Ġsur f
Ġsys tÃ©
Ġprie urÃ©
is Ã©s
ĠFrancis co
de mment
rÃª ts
im a
ci o
ĠMont pellier
Ġindivi dus
ĠDan emark
ony mie
ĠT ro
: //
it ent
Ġmus iciens
ag Ã©s
art he
ĠNÃ© anmoins
O C
ri a
Ġ4 2
Ġ192 3
Ġblan cs
Ġparc elle
Ġscru tin
oul ins
autom ne
ti lle
Ġprofessionn els
C ont
Ġ Ð
Ġp anne
que mment
Ġa chet
' ,
20 15
Ġch oses
ti a
ex iste
le ft
Ġdou b
Ġdirec te
y b
Ġcan on
Ġsa tis
ĠL iÃ¨ge
ĠL oc
ĠQu atre
Ġs Ã©v
Ãª ques
ign Ã©
Ġlogic iel
o e
Ġcolon ie
ul g
ĠL iv
ĠdÃ©cid Ã©
ff e
ĠdÃ©c Ã©dÃ©
Ġoffici ers
A pp
Ġsc and
ĠâĢ ł
Ġsimil aire
Ġcon nexe
ĠH a
Ã´ tes
Ġenvoy Ã©
Ġmal adies
Ġmilli ards
A ls
el ier
en berg
Ġj ur
Ġaugment ent
Ġb andes
R C
et z
igne ur
Ġcer cle
Ġposses sion
ĠD al
imp os
t ations
ĠbÃ©nÃ© ficie
ak a
Ġmo teurs
ĠTh ierry
Ġrapport s
Ġs ph
ĠLou ise
Ġclassi ques
ĠSoci ety
S c
Ġrencont res
Ġt un
Ġdes cription
Ġdirig Ã©e
Ġpauv re
onc le
at on
Ġpl ais
ĠH istor
Ġser aient
ĠL ag
ĠW ill
ac Ã©es
ow er
Ġoccup Ã©
olog iste
tic s
Ġp Ã©r
ĠR on
Ġav al
Ġsing le
Ġint Ã¨gre
ĠTur quie
Ġcent aines
0 1
d t
Ġpersonn alitÃ©
inter vention
olf e
ci des
ĠB es
ert urb
illi ers
Ġ5 7
ĠM aj
ĠF our
Ġmen ace
ĠSte ph
ĠRom ains
Å Ĥ
ro w
mi ens
Ġcouv ert
ĠJu an
ell ent
ĠdÃ©m on
Ġw eb
ou reux
Ġsec ret
inter prÃ©
Ġar tific
utilis er
Ġh ong
ĠD er
ĠprÃ©sent er
Ġdiam Ã¨tre
0 3
Ġremp lace
le ver
esp Ã¨ces
Ġgen res
ĠT ib
Ġcart ographie
Ġappr end
ex emple
Ġm am
Ġen ch
ĠÃ©quival ente
u fs
ĠS ix
qu ier
ĠBour bon
Ġsucces seur
Ġl our
ĠAl ph
ĠD up
ul f
Ã© mi
Ġinform atique
Ġeffic ace
Ã©t ranger
onn ier
Ġcro y
Ġn ette
c Ã©e
ĠdÃ©f ait
Ġreven us
ĠH ow
Ar c
ĠC omb
ĠL amb
Ġcap ital
Ġg rot
Ġaccompagn Ã©
r ine
Ġtemp or
ĠL ap
ĠÃ©v olution
Ġp ur
ĠcompÃ©t ences
Ġti r
Ġparticuli ers
ĠNor v
ĠprÃ©cis Ã©ment
Ġprol onge
ix e
R el
h l
z ac
ĠT ru
ĠConstantin ople
g el
je ction
ĠF ay
Ġsyndic at
- -
Ġeffectu e
Ġrou ges
ĠconÃ§ u
Ġfron tiÃ¨res
ĠfrÃ©qu ence
ex trÃªme
cy cl
Ġp on
199 0
Ġmonn aie
ast ron
ĠÃ©n erg
Ġne ut
Ġt Ã¢
n is
Ġdange reuses
ĠRe vue
Ġmo indre
s ant
j ac
Ġmauv ais
rÃ©sent ation
Ġrec ueil
ori z
Ġf aute
ative ment
Ġch oc
continent al
Ġtit ulaire
Ġvall Ã©es
Ġcri min
Ġfra is
Ġc urÃ©
ĠCol le
Ġfort er
ym n
od ore
ĠEug Ã¨ne
res sionn
ĠÃī cole
Ġro che
Ġbat terie
Ġadap tation
Ġmilli on
ĠF al
op sis
Ġent er
- )
ĠM aine
qui ert
ĠB le
ĠUn iversitÃ©
is Ã©es
Ġaccue ill
av a
Ġdi ale
pe ur
Ġmag as
Ġpro position
tu mes
ob tenir
ĠAngl ais
ĠdÃ©clar Ã©
Ġh autes
ĠE ss
Ġcompr endre
or p
an tique
Ġpartis ans
Ġsouh aite
Ġf Ã©
ans ion
Ġcompos Ã©s
Ã©ri r
as tiques
ĠN orth
ĠBar cel
Ġinstall ations
t ro
Ã©ra tions
d ite
ĠfÃ©min ine
Ġrepr endre
Ã¼ r
Ġfor es
Cert aines
Ġs is
Ġperform ance
M ort
D oc
Ġp ure
os itÃ©
Ġlaiss ant
n aires
Ġintercommun ale
ĠPl ay
Ġfac teurs
Ġv ot
tr ise
Ġp Ã©
Ġpo Ã©sie
ot ype
N ic
Ġp erturb
Ġac tif
tÃ©rie urs
tÃ© ritÃ©
expÃ©ri ence
Ġf Ãªtes
ven u
ĠV os
Ð µ
Ġbour geois
Ġdestin Ã©e
ĠÃ©m ission
Ġbate au
ĠprÃ©sent ant
ĠW all
ĠE li
ÃŃ a
p ie
Ġcontempor ain
ĠG h
os h
Ãī lections
Com tÃ©
Als ace
Ġver tic
eng age
ĠBro wn
Ġfran cs
ĠJ ones
ĠFor ce
Ġchiff res
ar rÃªt
Ġjuri dique
Ġav ions
Ġrenouv el
Ġ19 17
um ine
Ġsix iÃ¨me
ter r
altern ance
Ġtechn ologiques
ĠV oy
as tre
N om
di fication
Ġdomin ation
ĠV II
o che
Ġtour istique
ĠdÃ©termin er
Ġoblig atoire
Ġboud dh
imp lant
Ġcoul Ã©es
Ġcamp agnes
Ġprovis oire
ail li
anti ll
Ġtopony me
Ġ183 3
r ue
Ġch irurg
Ġth Ã¨mes
raire ment
Ġvien nent
Ġ4 4
ĠF ootball
Ġpied s
Ġvi de
Ġj ardins
Ġ3 9
ĠRe ich
Ġparti cul
Ġc iter
Ã©c rit
ĠT emple
Ġmont Ã©e
ĠpÃ©d agog
Ġacces sible
Ġ Å
Ġvir us
ĠFlor ence
ĠconsÃ©qu ences
ĠD re
Ġfavor able
ĠVir gin
Ġpar ent
ĠBlan c
M in
Ġar bres
D F
ĠAm Ã©ric
Ġconstru its
Ġvais seau
ĠJ am
l Ã©s
ĠrÃ© form
ret te
Ġarbus tive
y cl
Ġremp lacement
S y
Ġ19 13
ue ur
ĠFranÃ§ois e
Ġhum aines
ci al
Ġrela tive
app lication
198 9
Ġdoc tr
end rer
ĠfrÃ© quemment
u ge
H om
Ġcomm en
quis ition
Ac c
ĠC N
Ġlog ique
Ġb aie
ĠD j
ĠrÃ©un ion
ĠM ess
ĠIn d
ĠCh er
Ġsensi blement
ĠrÃ© duction
st ra
ill ons
Ġstatis tique
Ġmo ines
ip el
E E
ĠS un
Ġtechn ologie
Ġlong ues
Ġvoit ures
alis Ã©es
Ġsol aire
Ġprivil Ã©g
Ġrou es
au jourd
Ġar c
Ġc yc
av ion
ĠMad ame
Ġf re
Ġrapp ro
ĠGre en
Ġf ief
ul ent
Ġn oc
Ġminist res
Ã£ o
20 17
ĠLib er
Ġg ris
Ġlic ence
Ġform ant
ĠrÃ©s ist
Ġmet tent
Ġpro vient
Ġinter mÃ©diaire
iss es
Ġsculp teur
ĠexpÃ©ri ence
ĠT ony
Ġren ommÃ©e
ĠRom an
199 1
Ġar t
N ord
Ġmatern elle
ĠL ud
t z
alis ateur
20 16
Ġop position
Ġcanton al
Ġminim um
ĠB au
Ġmach ines
Ġmaxim ale
ĠHar ry
Ġ el
ĠP la
n ier
Ġaugment e
ĠA z
ĠF ried
Ġ3 00
ins on
Ġab rit
ar tillerie
Ġb oÃ®
O R
ĠstratÃ©g ie
Ġrur al
ĠM and
cl av
ĠcÃ´ tes
ĠD ol
ente ur
Ġl ourd
Ġs able
ĠdÃ©di Ã©e
Ġc rit
ĠCert aines
i di
Ġspati ale
ĠCong o
ĠT unis
R oman
ĠF ra
Ġm ises
Ġt rip
Ġpubli Ã©s
Ã©rit age
ĠW ood
ram m
Ġcou che
Ġchin oise
in al
or ta
Ġcompagn ies
Ġsorti r
ĠT u
Ġlance ment
ĠDiv ision
re z
ub ert
ĠS or
ĠS he
oun g
Phili ppe
ne au
ĠG ran
Ġf oi
ron yme
en euve
Ġvois ine
Ġsub it
Ar m
Ġgra ves
Ġcontraire ment
Ġpolon ais
Ġdispon ibles
Ġurb ain
ĠMÃ©d iterranÃ©e
Ġ19 11
D Ã©
Ġa Ã©ro
ab and
T our
ĠMar io
Ġrapp elle
ĠA vant
ĠEm manuel
vid ence
m ant
Ġpl ur
ĠT op
ĠsÃ©par ation
Ġvill a
Ġc ancer
Ġin Ã©d
G en
G E
Ġinternation aux
Ġmix te
Ġc ur
Ġparti ellement
Ġb anc
Ġl ire
ĠcatÃ©g ories
ĠdÃ©sign Ã©
Ġhistor ien
ĠFern and
app ellation
Ch rist
ill ac
Ag riculture
Ġbas ket
Ġposs Ã¨dent
ĠC ah
ch on
cit an
Ġar b
Ġd an
Ġch auff
T A
al ors
Ġdiffus Ã©
s ch
Ġvoyage urs
Ã©ri en
Ġop Ã©ration
Ġis ra
Ġs anc
Ġbou levard
Ġde grÃ©
p ent
g arde
Film ographie
lu ant
Ġpuis se
Ġcol lÃ¨
ĠÃ©tu die
Ã©qu ilibre
ĠD Ã©m
Ġbat tu
ĠÃ©mis sions
Ġpr enant
is ne
Ġenv oie
Ġcab inet
p lus
Ġcommerci ale
ĠC ode
ĠS ac
ob jectif
Ġsignif iant
e v
Ġform ations
ĠÃ ¨
as y
Ġimport ance
Ġrecomm and
Ġp Ã¢
Ġmont rent
commun alitÃ©
ĠB ach
ing ue
Ġs oix
ĠB asse
Ġpl at
ĠPrÃ© sident
Ġgr en
ĠS pe
Ġchois it
In d
l oy
Ari Ã¨ge
I A
ĠChar l
Ã©lo ignement
Ġpri mi
Ġillus tra
cl aves
ĠB ad
st on
Ã¨ne ment
en ci
Ġsou tient
dom ad
histor ien
ĠH ab
r Ã¨te
Ġconstru ctions
ĠI b
op pos
b Ã©
ĠV iv
Ġca f
Ġpar oles
Ġv ern
Ġparoissi ale
Ġv as
op ie
Ġb er
auss Ã©e
amÃ©li orer
Ġsur nom
Ġconn ues
Ġpr it
ĠV ic
Ġtrou pe
ĠKar l
ĠAff aires
Ġs ab
ch y
Ġadop tÃ©
Ã©c onom
ĠpÃ©ri ph
Ġvend u
Ġcl in
ĠdÃ©f endre
de z
Ġcin Ã©mat
Ġreven ir
ĠK ir
Ġconcurr ence
d un
b domad
habit ants
ĠA ustralie
Ġretour ne
Ġpo Ã¨mes
b at
in ondation
it ter
ĠA uvergne
S u
Ġnor me
ĠI r
ĠCh ab
Ġp el
end o
ĠLe on
cont re
Distin ctions
Ġin vent
imp ose
Ġh Ã©b
ven us
dÃ© partement
Ġemploy Ã©
Ġmusul man
Ċ ĠĠ
Ġv entes
phab et
ĠF red
Ġex tension
agn os
Ã©lÃ¨ ne
ĠA mb
ĠAs ie
Ġten ue
ĠTe chn
ĠT y
Ġcouv re
Ġan alys
Ġcours es
ĠA f
ĠrÃ©par tis
ĠrÃ©guli Ã¨re
ĠdÃ©f end
or chestre
Ġ190 5
Ġ ott
ĠChamp agne
Ġt ub
lis sement
Ġdistin gu
Ġsol o
ĠmatÃ©ri au
ĠHug o
S tation
ch amp
Ġass urer
O T
y an
Ġmont rÃ©
Ġd ig
qu ette
or tÃ©s
Ġra ch
ĠWal ter
ĠPeti te
C C
Ġsimp les
tex t
Ġant h
Ġn otes
ĠR oc
ĠBarcel one
ĠÃ©ta pes
Ġexploit ations
Ãī tats
Ġcherche urs
in tes
th i
ĠrÃ©v Ã©l
Ġpar aÃ®t
tra it
Ġfourn it
ath an
n am
ĠrÃ©public ain
Ã© lu
ci le
ĠÃ©v al
ĠV in
od ie
b ie
ĠÃ©t ro
Ġsignif ic
f eu
Ġcomp il
ĠÃ©quipe ments
Ġenregist rÃ©
lig ne
te aux
ĠK en
Ġlit toral
Ġcommenc ent
Ġgagn er
Ġne ur
ĠNob el
ĠS ans
ĠF lam
p a
Ġvari able
Ġdisp ute
Ġann oncÃ©
ĠAl li
B ois
ĠLet tres
Ġtrans mission
Ã¨ vres
si bles
ys te
Ġ190 8
ri f
aut ant
ou c
Ġ5 5
mosph Ã¨re
Ġmar ais
ĠAnton io
Ġper Ã§
Ġpo Ã¨me
Ġtrans p
Ġpeint ures
ol le
ras se
o igne
Ġterr estre
a che
ĠÃ İle
Ġtable aux
Ġconf ront
ti ss
erg ence
Ġan alyse
Ġra rement
Ġtechn ologique
ĠR em
erci ce
ĠR oss
Ġten ir
ĠSte ve
A isne
Ġrespons abilitÃ©
T Ã©lÃ©
U N
ĠB aud
Ġag glomÃ©ration
ĠÃ©d itÃ©
Ġlaiss Ã©
Ġm Ãª
ĠmÃ©diÃ©v ale
Ġlanc er
Ġcoll ine
Ġ rand
Ġprop osÃ©
Ġl inÃ©
Ġconstitu ant
Ã¨ vre
Ġrel ais
ĠprÃ© nom
Ġ4 1
d al
E M
ĠBri an
ĠprÃ©par ation
Ġch risti
Ġviol ence
J o
ĠamÃ©ric aines
Ġcommer ces
Ġsemb lent
d oc
Ġex position
Ġs en
il ique
Ġ om
Ã© ens
ĠN ov
ĠH it
ĠWilliam s
olith ique
Ġsur mont
Ġattribu Ã©
ĠL y
Ġmar ins
ĠapprÃ© ci
En f
ota mment
Ġbi ais
ĠGil bert
Ġfou illes
0 6
un t
Alexand re
Ġimp rim
Ġg oÃ»t
titu des
e p
i i
Ġperform ances
vey ron
C al
Ġrece voir
R S
Ã© lande
Ġjourn aux
Ġpour quoi
actu el
um a
ĠCor n
Ġfig ures
0 5
Ġconsac rÃ©e
Ġve ille
ĠMos elle
Ġemp ereur
ou tes
ĠF ondation
ĠsÃ© lections
Ġalli Ã©s
Ġou b
198 8
Ġdiffic ultÃ©
ac ts
ĠJohn son
ĠÃ©c oss
Ġgal erie
an z
Mar c
0 2
x e
Ġsou mis
at ures
tis h
res sions
ĠPaci fique
Ġproc Ã©dÃ©
ĠPrin ce
Ġcon qu
Ġ4 3
Ġm ou
ĠFer dinand
Ġm Ã©l
Ã¼ n
ĠÃ© chec
initi ative
Ġin tra
eng endrer
Ġmascul in
qui de
ĠÃ©lector al
198 6
Ġautonom e
aiss ant
ĠV au
ĠF u
Ġcoup s
ĠUn ion
Ã©d Ã©e
Ġess ai
ĠBritann iques
temp Ãªte
Ġparf aite
ĠmÃ©t rage
ĠB a
ĠD auph
Ġne u
il ien
Ġouv riers
cien nes
A cteur
Ġv Ã©cu
Ġnom ination
ell er
Ġadministra tives
Ġcarb one
Ġcolon ies
ĠÃ® le
ri k
Ġs oli
Ġcou ches
Ġsecond es
ĠP ers
Ġchampion nats
jec t
R en
Ġpo sitions
Ġru ines
C onc
ĠW at
ĠC ad
ĠS up
op in
ak er
ĠsuÃ©d ois
ro log
qu a
Ġphot ographie
me d
all Ã¨lement
Al bert
c or
la di
ã ģ
ard ie
Ġass is
h ann
co ol
Ġquar ante
ĠGi ov
on a
v itÃ©
rou nd
Ġpl aque
Ġ4 7
Ġinsc rite
Ar d
Ġatt endre
ĠAmer ican
Ġcinqu ante
Ġintit ulÃ©e
ro ir
onn a
Ġlib res
Ġconv ainc
An jou
Ġsuiv ent
ĠH erm
are il
Ġtraditionn el
Ã©ch ange
Ġg ross
ou z
Ġv ivent
Ġb ra
tif ier
ĠM ach
Ġpos tes
ur rection
Ã©n ario
ĠÃ©lector aux
ĠT w
Ġh ect
Ġautom atique
d an
ĠJ ane
ĠNorv Ã¨ge
or at
ĠprÃ© s
ag i
ĠfÃ©d Ã©rale
Ġj et
is si
ĠextrÃªme ment
ch ard
os te
ĠJ ul
L ang
av ie
Ġassoci Ã©s
Ġsec teurs
ĠLang ue
Ġis lam
ĠS el
it an
Ġd ieux
Ġal ent
lis ation
ches se
ĠÃ©trang Ã¨re
ĠMÃ©d aille
Ã©lect ricitÃ©
og es
Ġcar rÃ©
Ce pendant
Ġgam me
ĠsÃ©j our
Ġcour ants
ĠWh ite
k ov
ĠP Ã¨re
Ġv oient
ĠGar onne
ĠM oulin
ĠprÃ©f et
ĠÃ© dit
ili ers
Ġlimit Ã©e
ĠLa v
Ġconse ils
Ġch aleur
Ġconst ante
Ġfl or
Ġten sion
ĠL ive
ĠC itÃ©
ĠI m
Ġinter prÃ¨te
ĠB lo
ill us
à ¤
ol phe
clÃ© si
ĠprÃ©sent es
Ġd anger
Ġra ce
Ġc ouvent
Ġutilis ation
Ġconstitu er
m Ã¨re
Ġcli ent
Ġpossi bles
Ġas c
ĠMan uel
Ġindividu elles
Ġdiz aine
Ġviol on
ĠgÃ©n Ã©tique
v ail
Ġsu ici
Ġ186 0
ĠÃī g
ĠH aw
av enture
Ġph on
Ġ4 00
Ġ180 1
or mes
Ġco Ã»
ĠprÃ©c ision
ĠO l
sp an
ĠL as
Ġchar ges
Ġret ard
la me
od y
aliment ation
Ġcomplex es
Ġnoir s
en ait
enti ss
Ġconsac re
it tÃ©ra
j amin
ĠdÃ©fin ie
Ġid Ã©e
ocra te
Ġt ardi
Ġprop ag
end es
Ġenc ou
m ir
ap arte
Ġmor ceaux
ou reuse
um ul
Ġch amb
u lier
) ;
Ġfinan ciÃ¨re
ĠfÃ©d Ã©ration
n ature
ĠR ub
ĠL ie
Ġjui ve
Ġf aux
b onne
ĠdiffÃ©r ente
Ġar rÃªt
En tra
1 00
tÃ© roÃ¯
Ġterritori al
Ġinaug urÃ©
v ous
Ġconserv er
ĠP res
ĠmÃ©ri dion
ĠB ut
Ġconf lits
ĠrÃ©p utation
Ġ190 7
Ġ4 9
Ġeng agÃ©
ou in
ĠÃ©d iteur
Situ ation
hÃ© tique
Ġcir con
Ġou tils
ces seur
aÃ¯ que
Ġd iversitÃ©
ĠS S
ĠBen oÃ®t
ĠĠĠĠĠĠĠĠ ĠĠĠĠ
ĠAr d
ĠD uc
ris on
Ġlinguis tique
op old
Ġrapp roche
ĠRou manie
Ġremarqu ables
b s
j ug
Ġpays ans
Ġv ins
ĠarchÃ© ologique
ĠS A
Ġsurf aces
lic itÃ©
ĠrÃ©d action
Ġti re
est es
Ġanim al
Ã¨ve ment
ĠprÃ© d
ĠIs abelle
Ġrespons ables
Ġtri om
al ition
ĠMeille ure
it res
Ġsol id
Ġsuiv ie
Ġ190 6
ĠLib Ã©ration
pr Ãªme
oc ation
Ġf ame
Ġ ign
" :
ĠG ame
ĠCan al
Ġir rÃ©
si ves
ĠdÃ©tru ite
Ġense igne
ĠdÃ©di Ã©
ic ale
ĠRou ge
Ġatta ques
Ġg ri
ven ue
D istribution
Ġre mise
Ġallemand es
ĠG ouver
ig ration
U E
ven tions
Ġli quide
Ġqu oi
T rois
Ġmin i
Ġhon or
Ġch anger
Ġs ignes
ĠCan nes
ĠLe w
ĠrÃ©alis Ã©s
ĠÃ¢ gÃ©
se ctes
ĠDÃ© fense
ĠM id
olog y
Ġcord es
Ġnoy au
Ġme ur
Ġtrav ailleurs
Ġcol lections
Ġ5 3
ĠmaÃ® trise
h ouse
Ġbil an
Ġ4 6
tu me
aÃ¯ s
ĠreprÃ©sent er
ĠTrois iÃ¨me
ĠErn est
ĠWind ows
P C
ins ule
... )
ain issement
Ġtu er
Ġun ies
ing en
Ġ184 8
Ġdim ensions
Ġdis ques
Ġexp lor
ĠaÃ® nÃ©
ĠB et
ĠDe b
Ġend roit
Ġdipl Ã´me
ill ard
ĠinterprÃ© tÃ©
Ãª ne
Ġforter esse
ub a
em me
ĠJack son
Ġp ertes
Sa Ã´ne
0 4
Ġarchite cte
Ġpro clam
Ġbr ill
ĠS erv
ĠF Ã©lix
lÃ¨ve ment
Ġapprouv Ã©
uti ve
Ġchim ique
c our
f a
in k
Ġ188 0
ĠGas ton
UR SS
ĠS ing
Ġlimitroph e
p le
ĠP orte
ĠCa en
Ġdeven ant
ĠrÃ©un it
Ġphysi ques
ĠÃ©ch elle
Ġav ion
ĠB ret
at ri
Ġconf iance
ĠdÃ©velopp Ã©e
Ġorganis ations
dific es
Ġdu quel
ĠJe ff
Ġdu o
ouve ment
ĠdÃ©couv ertes
Ġinscrit s
mi f
erg er
Ġpass agers
198 5
ĠB assin
ĠsupplÃ©ment aires
c omm
un a
ĠCh au
Ġinhum Ã©e
ur ance
ĠdÃ©c is
app ro
ins titu
ĠO t
ĠdÃ©couv rir
il de
ĠColle ge
ĠP ot
Ġemploy Ã©s
olly wood
ĠFland re
ĠBat aille
S ta
u Ã©e
Ġparticu les
ĠnÃ©cess itÃ©
ĠM ot
Ġ18 30
Ġ190 9
Ġsurven ues
ĠV allÃ©e
Ġcomm is
ro c
ĠB Ã¢
Ġappro fon
Ġar rivÃ©e
Ġrapp orte
Ġfer a
20 18
Ġv erts
ĠprÃ©sent ation
Ġbate aux
Ġcro ise
ient Ã´t
ĠdÃ©cenn ies
ouv oir
exÃ©c ution
Ġvic om
ne urs
app elle
ĠSy rie
act rice
col or
Ġcons Ã©c
ent ures
ĠO ne
ĠvÃ© lo
u ta
Ġprog rÃ¨s
Ġinst allÃ©e
Ġunivers itaires
ĠdÃ©b ar
er Ã§
Z Ã©lande
ĠlÃ©g er
ĠR ic
ĠE c
Ġaband onnÃ©
ĠVos ges
y t
Ġro se
m al
ĠRiv iÃ¨re
ĠC li
ass assin
vi ation
ĠĊĊ ĠĊ
Ġrec ours
I D
198 7
Ġav ocat
ĠTok yo
Ġpro sp
k raine
Ġh Ã´te
Ġst ric
ĠspÃ©ci aliste
198 0
L og
Ġ6 5
ĠspÃ©ci al
Ġmyth ologie
ati cien
Ġdestin ation
m ois
tu des
ĠDi dier
Ġpuiss ant
Ġenne mis
Ġces se
enti els
off ice
Ġmusul mans
ĠgÃ© ologique
Ġlabor atoire
ĠMan che
ĠchaÃ® nes
Rh in
attache ments
ĠD ay
ĠF ord
Ġsign ature
20 19
ĠGold en
Nic olas
ac itÃ©s
I mp
ĠLond on
Ġv ar
ain cu
J umel
lo ie
Ġ190 1
ap per
Trans ports
Ġl u
Ġch or
Ġangl o
Ġc Ã©ra
ĠS ciences
ĠSa Ã´ne
h uit
Ġconfir me
ĠX III
ĠR av
Ġvois ins
Ġar me
or ith
on ction
ĠA st
ĠCe ci
II e
Ġcar di
ĠBon aparte
ĠK im
Ġcompar aison
ff is
Ð ½
Ġp in
ĠMun ich
ĠconsidÃ©rÃ© s
Ġst y
ĠP oli
ab il
Ġexist ent
yrami de
ĠindÃ©pend ante
ĠA h
Ġcon vention
Ġb actÃ©
Ġdiscip line
Ġen ti
ĠG are
Q uel
ess entiel
Ġv ise
vi a
ĠC av
Ġad joint
ĠcompÃ©ti tions
Ñ Ģ
ĠStÃ©ph ane
ĠÃ© lÃ¨ve
ĠA ur
Ġs Ã©di
ĠSam uel
r um
Ġmont ant
ĠtÃ©lÃ© film
rond issements
ĠlittÃ©ra ires
Ġcon duis
ĠÃī ric
ĠCan adi
app u
Ã©l ite
ĠMi ke
org an
ĠrÃ© Ã©d
Ġtra m
ĠJ ura
ĠEd ward
at us
ĠN ik
T e
um in
Is Ã¨re
oug os
Ġfl ux
Ġcav alerie
ass urer
acc ueil
Ġmunicip aux
ĠLe ague
Ġaj oute
198 3
Can ada
ĠpossÃ©d ait
ĠdiffÃ©r ent
Ġlib Ã©ral
198 4
ĠsystÃ© matique
I V
Ġque ue
est aur
ĠintÃ©g rÃ©
Ġimpos sible
inv asion
Ġmaint en
ĠS in
Ġh Ã´tel
Ġver te
Ġhect ares
Ġla Ã¯
Ġb in
Ġexpos Ã©e
ĠrÃ¨g lement
Ġexclus ivement
ci f
entraÃ® neur
ran te
Ġcons ta
Ġd a
s ta
Ġcorrespond ance
Ġfranc ophone
age ments
Ġmentionn Ã©
ĠLe m
Pro vence
ĠvÃ©ri f
N H
ĠintÃ©g rÃ©e
Ġf asc
h Ã©m
Ġa ir
ĠÃ©lect riques
ur n
Ġreconstru ction
f ec
te chn
t yr
Ġpl aines
au tique
enregistre ment
Ġparlement aire
ĠingÃ©n ieur
ĠCol lÃ¨ge
oc tobre
Ġqualif ie
ĠintÃ© rÃªts
urg ence
ĠArch ives
di ques
ĠBr est
Ġaugment Ã©
Ġparc our
Ġ1 15
Ġdur able
ĠÃ©v Ãªques
ĠÃ©tab lit
Ġc ub
Ġappare ils
ve ux
ess es
ĠCl assi
ver sion
Ġnour riture
S O
Ġv Ã©n
ĠNap les
Ġv Ã©ritÃ©
Ġ19 15
or ne
ĠH erb
Ġsch Ã©ma
Ġfac teur
ti ge
ĠL une
ĠCin q
ĠÃ©p reuves
Ġnor mes
fin ale
Ġpouv aient
Ġmajoritaire ment
Ġex ac
et ure
Ġban que
c ell
Ġt y
Ar ts
ch o
for Ãªts
n otamment
Ġmon te
ĠCh i
aill Ã©
ress er
Ġparis ien
en tion
ĠP omp
att an
ĠdÃ©b arque
f esseur
ĠÃ©c rire
Ġchar gÃ©e
U MP
du le
anti ne
Ġcul min
ill o
enti er
ĠrÃ©s olution
g ues
Ġserv ant
Ġvir tu
app ui
ĠH ou
avi Ã¨re
ĠI t
cu les
lis me
Ġinter nes
Ġryth me
Ã©v el
par tie
Ġg othique
ol les
Un itÃ©
ĠL ind
Ġunivers itÃ©s
Ġfes tivitÃ©s
Ġl igue
Ġ6 8
ĠR as
ati ne
Ġop p
Ġcla ir
in ois
Ã©v ille
Ġ190 4
ign ons
lÃ©g ation
r ales
ac adÃ©mie
Oc cident
Ġpens er
Ġsep tiÃ¨me
Ġsouten u
Ġec clÃ©si
Ã® mes
Ġch ien
O lymp
et ta
ĠFran ces
ĠP on
ussi ons
l ain
Ġcivil isation
198 1
Cin Ã©ma
en h
Ġprodu ite
Ġre met
Ġbless Ã©
Ġf au
ĠdÃ©p lace
ĠLu cien
ĠSN CF
ĠT ak
ĠPh ot
Re p
install ation
ĠGau lle
un n
id entitÃ©
Ġph il
ĠMar g
E m
anc Ã©
Emp loi
ĠF el
Ġh tt
ĠdÃ©partement aux
Ġdra me
Ġen ce
entiss age
Ġcol onnes
Ġch a
Ġport rait
0 7
re b
Ġex emplaires
ai d
Ġvis age
F amille
ivers aire
uis e
ĠP ier
Ġtra cÃ©
a igne
Ġ19 16
aff ir
Ġman oir
ag an
Ġenf ance
Ã©li que
I B
Ġag ents
Ġaff ich
Ġclass Ã©s
ĠR ab
Ġva peur
ĠR ib
Ġquat or
ils on
P rix
s Ã©
Entre prise
Ġcri ti
Ġpro ch
Ġsucces sivement
G V
tific ations
Ġas pects
Ċ ĠĠĠ
Ġdiv isÃ©
ĠdÃ©p os
ĠMon aco
an k
ĠCol l
us h
o dique
S ainte
z Ã©
Ġr ent
stru ction
Ġ189 0
ĠdÃ©clar ation
Ġf ar
ĠY oung
ĠK ong
ĠrÃ©pert oire
e use
ĠC ass
Ġlong s
ĠVill eneuve
A mb
Ġorthod oxe
S al
ĠPhili pp
ok s
cycl op
Ġhumi des
et ti
ĠT rib
Ġb ri
Ã©r Ã¨se
ĠrÃ©c ente
bdomad aire
C D
Ġcommun istes
u an
I M
ĠP ass
anis ation
Ġmont rer
ĠS ig
Ġconn aissances
Ġn age
Ġr all
ĠCar n
ĠmÃ©di ca
ĠÃī d
198 2
ĠnÃ©goci ations
ro i
ĠB ass
Ġprodu ctions
Ġvois in
or Ã©e
Ġdisposi tif
ĠW olf
ĠmÃ©diterran Ã©en
Ġh auts
Ġguit ariste
ĠSch w
ĠH on
ron iques
ĠreprÃ©sent Ã©e
Ġc yl
ĠS icile
ĠdÃ© lim
ĠT ay
ĠSer vice
S ports
g i
Ġal pin
ĠCarol ine
Ġmarch Ã©s
ĠMons ieur
ob ert
ĠM ik
Ġcap acitÃ©s
ib ilitÃ©
Ġpersonn elle
Ac tivitÃ©s
ĠM att
ĠT i
ĠJ as
eng er
Ġtra ditions
ak h
Ġcuis ine
ĠS ophie
Ġmain tien
du ites
tis sements
Ġp air
Ġt ribu
Ġdou ce
Ġciv ils
nature ls
ĠVal ence
Ġsatis f
ĠAr c
ĠPro duction
ÃŃ n
Ġa iles
abor ation
B ains
c ence
se pt
ĠLa w
ian a
N Ã©
Ġmess age
k ins
Ġau di
ĠdÃ©mocra tie
si m
ign ac
ĠSt ock
Ġ18 50
int endo
Ġvingt aine
ĠComp any
f es
Ãī lÃ¨ve
Ġmen er
Ġfont aine
Ġsuffis amment
Ġterritori ales
in tre
ĠB Ã©n
e y
ĠphÃ©nom Ã¨nes
Ã® t
Ġdoc tor
ĠIs raÃ«l
ĠWe b
E sc
ĠS l
Ġpl age
Ġam ont
Ġper dre
ĠSou th
ens tein
Ġmor ale
ĠT in
ang s
Ġs el
onn et
Ġsouten ir
Ġad ultes
Ġtre ize
si gn
Ġcollec te
Ġt ac
ĠprÃ©sent Ã©e
ust ries
an at
Ġsalari Ã©s
Ġpas sent
Ġcollec tivitÃ©s
Ġquoti dienne
ĠPoi tiers
ex trÃ©mitÃ©
Ġvie ille
install er
ĠC u
Ġre mis
Ġg enti
ĠA ri
assade ur
Ġsau ve
Ġdyn amique
Ġcomp tes
Ġeffectu Ã©
Ġsurveill ance
ĠY e
Ġrec ons
ĠU S
li on
Ġmo i
erv Ã©
Ġmet al
Ġcu ivre
Ġhi Ã©r
alle mand
Ġd ame
en quÃªte
ise mbl
ĠgÃ©n ie
Ġplac Ã©e
ĠthÃ©or Ã¨me
ĠÃ©vÃ© nement
Ġlois irs
ĠÃ©ch anges
Ġcre us
O uv
ĠM am
end ances
Ġconf orm
os iteur
ans on
ann a
Ġpay er
Ġretrouv Ã©
ĠJÃ©r Ã´me
Ġsu prÃªme
Ġreconn aÃ®t
Ġbas que
A veyron
H Ã©ra
ĠM is
Ġc lÃ©
ĠpÃ©n insule
Ġt ap
ĠC lÃ©
ĠrÃ© cep
Ġform Ã©e
ul tats
ĠBoul ogne
Au de
ĠChe valier
v Ã©
Ġf ur
ĠnÃ©cess ite
ĠOu est
Ġpauv res
ĠR io
us anne
lu ents
ta le
ĠSe pt
Ġp en
Ġro tation
Ġgar anti
Ġdirige ant
Ġdiz aines
z iÃ¨me
ĠJo hann
li Ã¨re
Ġrest es
Ġjou ent
Ġapp orte
ro ise
Ġimm ob
Ġv ents
Ġcommun i
Ġchim ie
on el
ou ille
ĠstratÃ©g ique
ĠprÃ©t end
ĠB ag
ene z
Ġb o
ĠdÃ©te c
ĠC ath
Ġdistin ction
Ġcalc aire
ĠC ru
E r
Ġentre r
Ġpart out
ord in
A li
ri enne
Ġc ass
ĠJ os
197 0
ĠL oi
ĠmÃ© tier
ĠMade leine
Ġgar n
Ġma illot
ĠT rin
Ġactu els
ĠV ieux
mi ra
Ġvi ande
ĠrÃ© elle
ittÃ©ra ture
C et
ĠB art
ĠG erm
Ġmo dific
Ġen quÃªte
og n
exp Ã©dition
Ġr al
Ã©p reuve
ĠStre et
Ġassassin Ã©
C ap
Ġpl omb
Ch er
Ġdistin guer
Ġne veu
ĠBen jamin
R ou
og Ã¨ne
Ġdi agnos
Ġstatis tiques
Ġstat ues
Ġm m
ĠÃ©p oux
ĠÃ©lector ale
Ġcom tes
Ġpour raient
ĠT o
Ġ187 1
Ġin tÃ©rieure
Ġren se
Ġv ou
Ġfil iale
ã ĥ
ob i
Ġtu Ã©s
ĠN at
ĠprocÃ©d ure
R Ã©c
ĠCarl os
Ġcont est
ĠsÃ©n ateur
Ġs oins
ĠJ ord
yp t
Ġh an
ĠrÃ©pond re
E T
ĠGiov anni
Ġinc endie
ĠG ib
Ġj ud
end um
Ex p
Ġb ris
Ġacc ords
Ġpu its
b ou
Entra Ã®
Ġpil otes
Ġloc aliser
Ġfinan cier
Ġoccup Ã©e
Ġrivi Ã¨res
c roix
Ġcol onne
ĠdÃ©p lacement
Ġv euve
Ġfac ultÃ©
itÃ© es
ran c
Ġprogram mation
Ġb ibli
Ã©g alitÃ©
B eau
Ġor chestre
Ġapp lications
Ġprot oc
Ġferm eture
Ġb ientÃ´t
ĠT am
tellig ence
ĠL ouvre
ĠarchÃ© ologiques
ist ent
tin t
Ġcommunau taire
ort Ã©e
Ġsynth Ã¨se
Ġex emples
k en
At lan
ÅĴuv re
ĠJ er
Ġven us
Ġrep ouss
as pect
si Ã¨re
Ġcons Ã©cu
Ġman ip
Ġparticip ent
ou f
Ãª chÃ©
Syn opsis
entre tien
Ġchristi anisme
Ġh oriz
Ġcent aine
E L
Ar tiste
ĠMc C
ad op
ar chÃ©
Ġsatell ite
ĠPro vin
ĠAr mand
b aye
ĠR ouss
ĠmÃ©dec ins
a us
an Ã§on
ĠdÃ©c ern
Ġess ay
âĢ¦ )
mi ers
In dre
Ġdemand er
ĠH ay
ĠEn g
Ã¶ n
Ġbran ches
Åĵ il
Ġmon archie
Ġ5 8
Ġin tÃ©rieur
he ur
An nÃ©es
Ġcont ribue
ĠLe v
Mil ieux
V ers
Ġin su
tionn els
ai le
Ġrac ines
I v
u a
ĠUn ited
Cl ub
ster dam
ĠCol umb
ĠXX Ie
197 9
g ent
cid ents
0 9
Ġinter vient
Ã§ onn
ĠrÃ©sid ant
Ġbless Ã©s
Ġâ Ĩ
Ġunivers elle
Ġp es
ĠG ros
ĠE ric
R attachements
ch ester
ĠF ir
and re
ĠprÃ© dÃ©
Ġtou che
ĠdÃ©f aut
Ġs Åĵurs
ro ch
m ad
H e
I T
Ġsculp ture
Ġle ader
C A
Ġportug ais
a cide
ĠM ill
mp er
In f
nex ion
ĠprÃ©serv er
Ã©quip age
ĠG reg
ĠM assi
ĠBos ton
Ġmar iÃ©
Maur ice
Quel ques
hi p
Ġdiffic iles
Ġapprofon dir
ĠG and
anc Ã©e
Ġconserv ateur
Ġ190 2
am ine
Ġdonn a
Ġdestin Ã©s
Ãīt ymologie
Ã© enne
Ġretr ouvent
g on
ĠS ir
Ġro ches
Ãªte ments
op s
Ġtra ce
z aine
interprÃ© tation
Ġa im
di vision
Ġpeupl Ã©e
ve urs
Ġ oncle
Ġg onflement
Ġr usses
Ġdev aient
ĠAu jourd
Ġas pect
Ġsenti ment
Ġb oul
op pose
ĠB onne
x ford
si a
Ġac ad
ĠI tal
Ġchar te
E D
ĠS en
Ġc Ã¢
Ġt a
op pe
Ġc ousin
Ġex tÃ©rieur
Ġsymb olique
ĠconsÃ©qu ent
ar th
hyp othÃ¨se
c Ã©s
Ġs tudios
ell y
ĠRÃ© union
Ġsoix ante
C ons
Ġb ulle
Ġd en
ĠC it
Hom onymie
Ġ5 6
Ġag rÃ©
rig ue
w er
Ġseu les
Ġmor ceau
z an
ĠD ern
V ict
y ne
ĠrÃ©c its
ĠrÃ© duite
hui le
Ġisra Ã©li
Ġdessin ateur
ĠprÃª tres
ĠdÃ© cident
Ġb lo
Ġrep roduction
ur os
Ġex ig
habit ation
Ġcontrain tes
ĠF ig
ĠdÃ©fin ir
Ġann uel
ĠCam ille
Ġsauv age
ro se
hum anitÃ©
intÃ©g ration
id s
ĠCons erv
b ack
Ġcontra int
Ġpoursu ivre
Ġ190 3
S P
gl as
am iral
Ġfin ancement
Ġvoc ation
Ġre de
ĠÃ© tats
ĠlÃ©g Ã¨re
Ġcomb us
Ġha usse
b in
ure ur
ĠAn t
ĠvariÃ©tÃ© s
Ġph arm
or um
st yle
oul Ãªme
ĠV ern
Ġtrib us
0 8
ĠPr usse
ĠA k
Ġbot anique
d Ã©m
u alitÃ©
au teurs
ĠN intendo
ĠD ec
Ġjui fs
ĠT F
a qu
ĠÃ©le ction
Ġmodific ations
s k
ĠspÃ©ci alisÃ©e
ĠIn stitu
ĠdÃ©s ert
Ġpyrami des
li quer
N ouv
C rÃ©
ĠB aviÃ¨re
ĠMar ch
Ġdoctr ine
hÃ© sion
ĠIs land
ĠMe use
ic on
Ãª nes
ĠC le
Ġgraph ique
ĠK al
197 8
Ġhui tiÃ¨me
L Ã©g
M Ã©d
Cert ains
ĠAl gÃ©rie
P as
onne ments
Ġprom u
Ġar gu
Ġfranch ise
Ġchasse urs
ĠB la
ins crit
ĠpÃ©tro le
ĠGen e
ĠfÃ© od
ĠC oc
Ġ ur
Ġremp orter
ĠMon ument
ĠsÃ©p are
ĠdÃ©nomb rÃ©s
N o
pec teur
B el
ĠK i
Ġeff orts
Ċ ĠĠĠĠ
ĠBan que
Ġag ent
Ġl ux
ĠSteph en
ĠmÃ©n ages
T P
Ġtra its
S ud
ph y
Ġj amb
Ġmauv aise
ĠZ ur
Ġcher cher
it ain
Ġpont s
Ð¾ Ð
Ġco alition
Ġus ine
yl v
197 3
Ġ5 9
ĠIn f
Un ivers
ĠFl ori
ĠprÃ©c on
R om
ĠspÃ©ci ales
Ã© nements
Ġphot o
ro id
Ġaccueilli r
en aire
Ã¨ ves
acc omp
ĠchrÃ© tien
D isc
ĠprotÃ©g Ã©
ĠF i
m el
Ġre ct
ĠBeau v
Ġc ents
ĠÃī p
Ġsurv iv
or re
Ã©p id
Ġr oul
Ġperp Ã©tu
Ġax e
Ġch rom
tionn elles
Ġir landais
g Ã©es
Ã¢ ts
Ġinconn u
Ġ8 5
u tions
Ch ap
ore l
Ġgar dien
Ġtra itÃ©s
Ġz o
ĠGusta ve
rÃ© h
Ġcontempor ains
Ġw e
Ġfait es
semb les
Ġ189 6
Ġbyz antin
R ec
la te
er vi
Ġg rÃ©
ĠDe v
ĠrÃ©comp ens
Ġt enant
th er
ĠdÃ©riv Ã©
Ġalent ours
Ġc od
ra is
Ġbar b
Ġch Ã´me
Ġcaf Ã©
ĠL ife
ĠdÃ©ta il
Ġvois ines
M os
v ing
Ġf all
Ã¯ n
ai b
En fin
An ti
asc ar
A ff
la h
Ġvisite urs
Ġpe ur
Ã©d iteur
Ġbi ologique
Ġiss ues
Ġnette ment
Ġvern ac
G alerie
Ġsuc re
Ġtr on
Ġmassi ve
t rois
Ġt urb
ĠP oin
ĠCh ili
ĠV III
Ã©c art
Ou tre
r ants
um er
ĠIn c
ann y
Ġim meub
Ġ1 17
ĠrÃ© formes
om pe
ĠG rÃ©g
ĠdÃ©n omination
Ġbas ilique
Ġsus c
Ġlanc Ã©e
ĠT roy
ran e
u ki
Ġa igu
or ig
erc y
f amille
s ud
si ers
ĠMax im
Ġaliment aire
inves tissement
B ern
r us
Ġb lÃ©
ric ts
Ġcon cile
che cs
Ġriches se
b ois
c ie
l Ã©es
Ġn oble
Ġsim ultan
Ġferm Ã©
ĠOp en
inst ar
Ġsoli de
enn y
R A
ĠcrÃ© Ã©s
' t
Ġterr or
Ġw ith
M A
ont o
ĠdiffÃ©r ences
V er
Ġprodu cteurs
197 5
ĠDon ald
Ġras semble
adap tation
Ġpublic ations
ĠV Ã©n
Ġproduis ant
Ġex il
Ġremplac Ã©e
ĠC up
ĠthÃ© Ã¢
Ġmag istra
Z NIEFF
Ġfin ances
Ã©les te
Ġalli ance
p us
li en
ĠH ard
Ġexp lic
Ġm anga
ĠquÃ©bÃ©c oise
oug h
ĠB ec
ĠdÃ© l
Ã¨ ges
Ġparis ienne
ĠCe ux
ĠGal les
ĠdÃ©p Ã´t
onc Ã©e
ĠP rog
ĠA lan
ĠsupplÃ©ment aire
Ġ189 8
si le
Ġmar tyr
Ġcl airement
ĠapprÃ© h
Ġn arra
ĠdÃ©cide urs
Ġvis ibles
Ġtun nel
ĠD avis
int roduction
Ġ188 9
ĠN BA
ĠÃ©t oile
Ġo v
Ġfinan ciers
Ġdescend ants
Ġsyn drome
Ġcoll ines
ĠFin alement
ant on
Ġchar bon
Ġmarchand ises
Ġchi miques
ĠL yn
ĠG on
og ie
Ġass urÃ©e
app areil
Ġcellu le
Ġremp la
P yramide
ch est
Ġv ague
ĠK az
197 7
Ġexploit ation
observ ation
ĠL ut
ĠSch ool
ot on
di ff
all er
Ġaff ron
ĠCharl otte
it ale
Ġcomp ens
Ġpo table
Ġbrig ade
ĠB and
Ġvra isembl
Ġmeille ures
Ġvari antes
Ġh istoires
ĠBlan che
ĠBe aux
ou k
Ġmor ph
ĠRe al
ĠlÃ©g iti
ĠG ers
Ġs k
ĠBerg er
Ġl is
Ġincendi es
Ġa f
ĠÃ©g al
agn ac
tin a
Ġ6 6
ais sement
ou er
Ġexp Ã©dition
Ġl ente
ov is
Ġgra de
er ge
Ġfid Ã¨les
Ġsy mph
ot age
Mal grÃ©
ĠDi jon
ĠdÃ©li v
ĠdÃ©cenn ie
Ġorganis mes
ĠM iller
eu f
on ien
Ġcin Ã©
Ġnavig ation
Ġcrit Ã¨res
Ġsal on
et a
ĠÃ©t age
ĠchÃ´me urs
Ġexprim Ã©s
ĠH um
Jumel ages
v Ã©g
Ġvol s
Ġ ion
il y
ĠS n
Ġg end
ĠFried rich
S av
Ġ1 13
Ġindi g
Ġvend us
ĠBri tish
ĠM ai
ĠRÃ©g ime
Ġr omp
de m
Y ves
Ġo x
habit at
tu m
ĠcommÃ©m or
Ġsuff ixe
Ġsurn ommÃ©
ac tivitÃ©s
Ġoc citan
Mus ique
Ġj ury
ite cture
ĠE uropÃ©
ĠG ri
Ġaffec tÃ©es
197 6
ĠS ong
Ġrela tif
Ġiniti ale
Ġb ailli
tÃ© lÃ©
Ġca uses
in us
Ġcan ons
ĠL au
d ro
th Ã©
vel ines
197 4
Ġtherm ique
ĠL uis
ĠB ible
Ġes cal
ĠrÃ©flex ion
ĠÃ©le cteurs
Ġara bes
Ã©v iter
Ġin clus
Ġ189 5
ĠfrÃ©qu ente
Ġmon op
Ġpriv Ã©s
lÃ© tisme
s ol
Ġcontin uer
Ġnom mÃ©s
exp lo
ĠB ac
er i
ĠL omb
Ġdesc ente
Ġ7 2
org ue
Ġcommiss aire
ĠX avier
Ġc m
m od
yg Ã¨ne
Ġparticul aritÃ©
ur ie
Ġsau ver
Ġfru it
st an
Ġ1 10
ĠdÃ©p endant
ĠP ublic
er me
Ġf ic
an teur
ĠN on
P ays
Ġappar aÃ®tre
ĠVictor ia
ĠRe p
Ġrest Ã©
op tÃ¨res
Ġoccident al
Ġprob able
T endances
Ġr itu
Ġs l
el lo
ĠM oz
F orm
a un
ĠB ord
Ãī ducation
ig a
ĠCommun es
Ġparois ses
Ġfinan ciÃ¨res
ĠexpÃ©ri ences
ĠLew is
Ġfon ciÃ¨re
oi ci
ĠÃī gypte
ĠgÃ©n Ã©rique
Ġcompr ise
Ġ ouverture
Ġph ases
Ġtourn ant
P ont
ĠF ox
Par ti
ĠmÃ© tiers
196 8
Ġmanif este
ĠS Ã©bastien
eff ici
Ġjournal istes
Ġmob ile
Ġt onnes
ĠS yste
ĠB ond
ĠPress es
Ġvoul ait
ĠBul g
Conse illers
rom aine
Inter communalitÃ©
ar che
ĠgÃ© ant
is lam
ĠC lo
Ġcl ergÃ©
Ġaff aire
Ġs ent
Ġra m
ich y
oc ie
ri ens
ĠSu z
eff ond
ĠC ord
ĠHit ler
ĠÃ©dif ice
et nam
Ġcol ons
Ġph rase
ĠÃ©n ergie
Ġreconstru ite
Op Ã©ra
A ir
ĠB az
ĠLa usanne
ĠimpÃ©ri al
ur rent
ĠG ou
Ã©m ont
Ġsub stitu
vi ers
Ġmodif iÃ©
Ġfacil iter
Ġfond ateurs
Ġtechn ologies
Ġ184 0
ĠJo han
ĠÃ©trang er
Ġspor tifs
ĠCh am
iss age
ĠChe v
Ġfisc aux
ĠcompÃ©t ence
ĠW ilson
P Ã©ri
Ġam our
ĠL ouv
ĠP oly
Ãī poque
Ġat tent
ĠrÃ©alis Ã©es
Ġfamili ale
ĠH un
ĠH ouse
im b
Ġconsid Ã©rable
onn ant
Ġsa me
Ġaut oritÃ©
ĠdÃ©p asse
i ac
ĠdÃ©cision s
197 2
Ġvari ante
Ġb onnes
Ġr ub
ure aux
Ġch anc
En v
Ã©di tions
ĠM ouvement
Ã©tablis sent
I ls
O li
Ġnota bles
c ade
ĠP lace
ĠF rÃ©
Ag ence
Ġmo tifs
Ġsold at
c op
ĠF leur
ĠN oir
Public ations
ĠGir onde
Ġrom ane
st ances
lÃ¨ che
ĠN ous
Ġfu ture
A ra
Ġspor tives
F C
b ot
aj out
Ġassi mil
ĠJus tice
ĠChrist oph
Ġdom ine
ĠconsidÃ©ra blement
un ique
ĠS qu
ĠH y
ĠÃ©g ale
ĠL oir
Ġb rÃ©sil
Ġra men
Ġlib Ã©rÃ©
ĠFin lande
pr is
actÃ© ris
w ig
Ch amp
S D
Ġcam Ã©ra
mb erg
oli Ã¨re
Ġcontro vers
l ar
Ġpopul aritÃ©
Ġsu ites
ĠrÃª ve
ĠG ood
ĠGr Ã¢ce
Ã©ra pie
Ġappel Ã©es
Ġfort une
Ġco des
Ġpres tig
gu erre
Ġp ain
Ġ1 14
ĠD os
ĠGÃ©n Ã©ral
Ġprofond Ã©ment
Ġp omp
ĠÃ© vidence
il Ã©e
Ġv ag
ĠP re
ran o
ĠXV IIIe
Ġcamp s
Ġapparten ait
Ġtransform Ã©
ĠL Ã©v
Ġinc luant
Ġautrich ien
ro d
ĠS tat
ĠJus qu
c ass
Ġil lÃ©g
Ġent end
ĠGrand s
ĠprÃ©f ace
Ġp ul
or o
A insi
Ġpour suite
Ġrou tier
arch ipel
Ġlogic iels
Prin cip
Ġs aut
Ġpubli Ã©es
ĠR ue
Ã©l aboration
onc ent
ĠRÃ©s istance
m ou
ĠS par
o ivent
Ġt rÃ©sor
Ġpoli cier
ĠprÃ©cÃ©d ents
Ġbl ind
ĠS erg
ĠS em
Ġproven ance
Ġporta il
Ġf olk
ap port
197 1
Ġti rÃ©
Ġtourn er
enc ont
Ã© o
vi du
Ġlim iter
af ric
Ġpas sion
Au teur
ĠK y
Ġmine ur
ĠS C
ĠprÃ©v ue
Ġac quiert
ĠForm ule
; "|
Ġd ram
Ġv oile
oph y
Ġp istes
Ġfant astique
d ae
Ġqu alitÃ©s
ill Ã©e
Ġs ombre
ab s
onn ance
ens itÃ©
ĠFran co
ĠMar i
ĠGen er
Ġpar cs
ig re
Ġmo dification
Ġprof ite
ne c
âĢ Ŀ
Ġtardi ve
ĠAlph onse
app roche
isc op
alog ues
as hi
Al ain
Ġouv erts
mp e
uni or
avi ation
on ciation
ert o
ĠQu at
Ġmen Ã©
ref our
E A
Ġcat alogue
Ġfaci le
Ġculture ls
Ġ6 1
Ġsub i
ĠV el
oli tion
Ġcoord onnÃ©es
ci ent
Ġcel l
Ġimp ressionn
Ġ6 7
enc y
Ġchan tier
ĠRa oul
Ġconf ig
Ã¢te l
Ġinhum Ã©
if estations
Ä į
ĠC lÃ©ment
li p
Ġh al
Al ors
ĠBl ue
Ġtraditionn ellement
Ġiniti al
Ġserv ent
ĠCou n
off re
Ġfu ite
Ġmour ut
se c
Ġcri me
u ite
Ġsupp ression
ĠdÃ©fait es
Ġv ign
Ã¨ne ments
ĠS cience
ĠV oir
int he
r alitÃ©
ĠT est
op tÃ¨re
ĠO lymp
Ġsac rÃ©
Ġp ionn
agn ol
Ġgrot te
ĠR ud
vad os
Ġdo tÃ©
Ã©r ales
at tention
ram mes
ĠC la
Ã¢ me
pi ce
ra i
ĠH igh
om on
ĠS imp
Ġb elles
ĠF eu
Ã©t on
z ig
Ġmin or
196 7
ĠtÃ©m oigne
ĠinterprÃ© tation
ap olÃ©on
ĠK o
Ġemp ris
J uli
p Ã©
Ġaff ront
Ġf ins
por ation
ag ir
h on
Ġtransf Ã©rÃ©
ain tes
Ġobserv Ã©
ocra tie
O l
ĠV ladi
Ġcomp li
Ġ188 5
ĠHug ues
ag issait
ĠR T
ĠK am
ĠEn ter
Ġpseud onyme
ex tension
ĠBer ry
ĠS Ã©g
ĠN ight
Ã©qu ival
C roix
ĠrÃ© ception
id itÃ©
im ag
ĠJ ou
ĠV aud
Ġm ex
enf ance
ac quisition
ĠsupÃ©rie ures
cin q
Ġspecta teurs
as semblÃ©e
ĠT ime
ĠS pr
Ã¯ s
ose x
al cool
ĠS atur
Ġsu is
m atiques
Ġquator ze
Ġ189 3
ĠMi di
Ġinstall Ã©s
Ġcontribu Ã©
ĠTay lor
ic ain
Ġhabit ats
Ġindustrie ls
Ġense ign
ww w
Ġpein tres
Ġ189 7
ĠCant on
ta bles
M S
as a
onc tu
' .
ĠmÃ¢ le
ĠP av
Ġadop te
ĠrÃ©serv es
ĠthÃ©or ies
ĠB rad
ĠH ad
ĠCl ar
Ġaband onne
ne uf
ĠB ow
G Ã©n
ĠAt lantique
ĠSe igneur
ac teurs
Ġmar bre
ri ment
ci us
ĠG az
ph a
Ġsort ant
b ar
Ġt rophÃ©e
Ġar bre
tr y
ĠÃ©conom ie
Ġreti re
Ġsanc tuaire
Ġp ath
ã Ĥ
An cienne
Ã© chec
Ġ1 16
196 9
ig i
Ġdirec tive
Ġfranc ophones
Ġreti rer
ĠNav arre
ĠChar lie
Ġj o
Ġinter view
ĠÃī lisabeth
i as
Ġtal ent
Ġmari Ã©e
ĠBÃ© arn
Ġconn ait
Ġla cs
Ġse ize
Ġvoy ages
ĠRen ault
Ġtra it
Ġam ateur
ra mment
Ġnor vÃ©g
itt le
F I
par d
Ġagric ulture
ĠcÃ©rÃ© ales
ĠF au
Ġdo ig
Ġchois ir
Ġad oles
Ġquas iment
Ġpo dium
Ã© rance
ĠQu ant
Ġg ymn
u in
ĠF amille
ĠG ram
Ġend roits
Ġvac ances
ĠD in
Ġcaus a
Ġc Ã©leste
Ġcomp ortant
Ġrenfor cer
Ġp ousse
194 4
Ġlarge ur
Ġmention ne
ar l
at ti
Ġf ib
Ã©c ran
ĠD ark
Che valier
ĠÃ©p onyme
Ġren ommÃ©
ĠSp ir
ĠS erb
Ġport s
ĠToul on
at mosphÃ¨re
ĠM ir
ĠSal on
Ġun iversitÃ©
Ġincl ut
Ġmeur tre
ĠE sc
Ġdivision s
ĠS um
Ġanth rop
Ġra cont
Ġ189 9
Ġexis tait
Ġp ira
ne aux
Ġorb ite
Ġque lle
ĠGeor g
ĠSec ond
Ġcli ents
Ġrest re
Ġarg ent
Ġp ne
Ġp op
or f
ĠA le
Arg entine
Ġad min
Ġtravaill Ã©
Ġconcl ut
ony mes
Ġspecta cles
Ġappro xim
ĠD ragon
Ġreconn aÃ®tre
S h
ĠP el
ur Ã©s
ĠD im
Ġcap ture
Ġde g
ag Ã©es
Ġdiv isÃ©e
ĠprÃª t
ti ennes
er oun
ĠS ul
ĠG ord
Ġcou reur
Ġempl ois
ĠGar de
ĠCat al
Lors que
cip i
ous seau
ence inte
ĠD ick
ĠNation ale
Ġpois son
ĠZur ich
Ġb las
ĠS o
ag h
S antÃ©
Ġven u
Ġpar as
Ġgal ax
Ġcour ts
Ã¢ n
Ġinter net
Ġ6 2
hel m
augment ation
Ġa ider
Ġacc ent
ow ski
ĠP ie
Ä «
Ġf Ãª
ain g
Ġcommerci aux
om iques
ra its
ag en
Ġ189 1
ĠchÃ¢te aux
ĠM Ãªme
ĠCh ant
Min istre
H aute
ti de
w ald
Ġt ue
ĠT s
ĠintÃ©ress antes
ĠG roup
Ġentou rÃ©
m un
Ġtr omp
m Ã¨tre
Ã©c oule
ĠP ales
Ġmo ine
Ġmanif estation
Ġenne mi
J usqu
Ä ĥ
Ġprim aires
ar bre
ĠL NH
Ã©c os
Ã©t ain
anti ers
B i
Ġs ultan
Ġprin ces
och t
Ġex ige
Ġ179 2
ĠK on
ĠHol lande
Ġgar Ã§on
ĠLe b
ĠPat ri
Ġrac ine
Ġarchitectur al
ĠrÃ©c ol
Ġculmin ant
Ġgr Ã¨ve
ĠAndre w
Ġb ac
ĠdÃ©p it
ĠF is
ĠN et
Ġh as
Ġhoriz ont
ĠLoire t
I ran
ĠP il
Ġauxque ls
Ġ8 1
uni cip
Ġtent er
ĠTex as
en ge
raph e
Ġdisp utÃ©
rag ue
inc endie
Ġcav al
ĠmathÃ©m aticien
ĠV ichy
ĠaÃ©ri en
ĠStan ley
dic ation
Ġinter romp
i ales
ĠrÃ© Ã©lu
av er
ĠÃ¨ re
al phabet
ĠgÃ©n Ã©
P L
Ġdist ricts
Ġav entures
ĠcinÃ©mat ographique
Ġre man
RÃ©s ultats
Conc ernant
b al
og e
ĠâĢ ľ
ĠindÃ©pend ants
Ġf oyer
ĠcontrÃ´ ler
ĠâĶ ľ
Ġus ines
Ġcombat tre
Ġav enue
Ġid enti
Ġmodes te
Ġ er
ĠN ick
Ġpuiss ances
Ġtch Ã¨que
ĠprÃ© pond
ĠCamb ridge
as ter
ĠB erne
196 2
H er
ĠmÃ©di Ã©val
ĠSeu il
Ġv Ãªtements
Ġse ctions
ĠrÃ©fug iÃ©s
ĠB ess
op er
Ġrest ant
Ġsol utions
ĠdÃ©tru ire
ĠF a
ĠN u
Ġc ible
ĠA y
Ġpriv Ã©es
ini um
ĠGau le
Ġcon fÃ©rences
ĠCol lection
20 21
Ġfro ide
Ġmarchand s
Ġch Ã¢
ĠAn na
ĠSt al
Ġmam mif
ĠdÃ©si r
Ġate liers
ĠÃ© met
Ã§ ait
Ġperman entes
Ġenter rÃ©
dic ap
ingÃ©n ieur
ĠVill a
ĠBru ce
Ġbret onne
amÃ©ric ain
ĠhÃ©ri tier
av enue
Ġprotest ants
Ġpon tific
Ġver tu
ĠÃ©coss ais
inter mÃ©diaire
ie v
ĠColomb ie
D A
h is
l ay
fin i
ĠTor onto
Ġfl ot
196 0
Ġvra iment
ĠAmÃ©ric ains
Ġp onctu
Ġ1 18
ĠTra itÃ©
qu ait
ĠDou glas
th en
ĠmÃ©dic ale
Ġconstru ites
c ope
Ġsy mÃ©t
Ġcou ramment
Ġco hÃ©r
ĠF I
enti elles
Ġ7 6
Ġpour ra
ĠÃ©t end
âĶĢ >
ĠCom Ã©die
Ġaff luents
ĠGal erie
Åĵ uf
Ġbord ure
Ġconcl usion
Ġdoub lÃ©
ĠT el
ĠFran z
Ġcol or
Ġconf ie
x i
ON U
ĠÃ©labor Ã©
l age
ĠÃ©tudi er
Ġhyd ro
a oÃ»t
Ġ189 2
Ġbou le
ĠexÃ©c utÃ©
ĠBl ois
Ġproduis ent
Ġce inture
ĠVend Ã©e
ĠapprÃ©h ender
ran ch
Ġb iblioth
ĠGu er
dic at
Ġun ion
ĠS ib
omin ations
Ġsta ble
ĠR ot
ĠLand es
Ġinconn ue
ad re
Ġw all
Ġ9 5
Ġpratique ment
ĠP ay
Ġar chevÃªque
Ġcar n
our i
or dement
urg ie
Ġgra ines
c ts
ĠÃī lections
Ch Ã¢teau
f ont
Ġtent atives
ĠmÃ¢ les
ĠB ureau
Ġtraditionn elles
Ġmobil ier
ĠHe in
Ġfig urent
ĠprÃ© vention
enne mi
av ance
ul ations
Ġence inte
ĠdÃ©g Ã¢ts
r uis
Ġ ib
ĠGe off
Ġdoctor at
ĠS ub
m ur
ĠA ch
ĠRob in
ĠMont b
Ã« t
Ġ6 3
Ġarchite cture
Ġferrovi aires
ĠT an
ĠL ord
Ġancienne ment
s oit
Ġsaint s
ĠW ay
ĠdÃ©b ats
Ġbar oque
Ġhos pital
fec ture
Ġ188 6
Ġhar mon
Ġappare il
ĠM ira
Ġarriv ent
Ġerre ur
ĠE ur
ĠM Ã©tro
Ġinc or
ĠC all
Ġfen Ãªtres
Ġti rer
ach at
h os
Disc ographie
Î ±
Ġ7 8
Ġra yon
po ques
Ġv ed
ĠS id
ĠV ik
Ã©ri enne
ĠmÃ©di ane
ĠrÃ©p ression
m ens
ĠdÃ©c riv
Ġfa une
Ġfem elle
Ġpollu tion
ĠCh an
Fer rand
ĠlinÃ© aire
g han
ĠJe une
Ġmen ac
Ġcolon isation
t us
Ġp ous
ĠcrÃ© ant
ab ri
ĠÃī v
ĠnumÃ©ro s
ĠdÃ©c oupage
Mos elle
or ia
ĠA uc
Ġath lÃ¨te
F iche
ĠdÃ© esse
ĠJ i
Ġrand onnÃ©e
ol ic
ĠK at
imp orte
Ġratta chÃ©
anth rop
il er
ĠdÃ©lÃ©gu Ã©e
Ġmanif est
Ġpav illon
es que
ĠO scar
Ġ188 1
Ġfid Ã¨le
Ġjuge ment
ĠdÃ©mon st
Ġmis sionn
ĠBul le
ĠdÃ©lÃ©gu Ã©
ĠdÃ©c rite
Ġes claves
A miens
Ġsen sible
ĠRe v
ĠM ak
Ġdat es
ĠL at
Ġjou ant
ĠprotÃ© ines
hyd ro
) :
ĠdÃ©mocra te
ĠMÃ©m oires
Ġchamb res
ĠR and
tic a
ĠdÃ©b ordement
ou ter
al la
Ġtra g
re uil
Ġgarn ison
b ec
il ton
Åĵ ud
Ġl umine
ĠS ie
Ġ. ..
ĠG a
Ġsur prise
Ġex erce
Ġv ainc
Ġuti le
Ġdisp ers
els on
ĠP op
oi ries
Ġfer mes
Ġ7 7
Ġcontinent ales
e z
ry s
ĠrÃ© ellement
Ġd auph
ĠÃ© difices
Ġspati al
opin ion
Ġd ent
Ġmagn Ã©tique
ĠdÃ©m is
A uvergne
ĠD a
Ġfin i
Ġab at
Ġdemand Ã©
P ol
Ġad mis
Ġpsych ologie
Ġscol aires
Ġl istes
Man ifestations
ĠF ace
âĢ¦ ).
Ġin nov
or ique
ant aine
Ġtrans forme
Ã©vel oppe
ĠmÃ©c anisme
g an
ĠB rÃ©
Ġradic al
Ġh Ã©
Ġfort s
im on
Ġpass ages
Ġtermin Ã©
Ġrenfor ce
om et
Ġmus Ã©es
Ġop tique
ĠJohn ny
ĠGre cs
Ġra chet
Ġ18 00
Ġgard er
iv ern
Ġench aÃ®
Ã©r indi
alle y
assassin at
ĠD ig
Ġgaul ois
actÃ©ris tiques
ĠcrÃ© ateur
n oc
Ġa ient
Ġbr ut
Ġdomin ant
lis h
v oix
Ġdou x
ĠLim oges
Ġhabitu ellement
Ġpropre ment
are l
ĠrÃ©s istant
Ġsomm ets
Ġmus iques
Ġblan ches
erve au
Ġb y
ah n
Ġadvers aires
tif iÃ©e
ment aires
end s
end rait
ĠLÃ© opold
n els
ĠspÃ©ci alistes
om a
Ġg ramm
Ġco Ã»te
ĠSe p
bil itÃ©s
Ġobs erve
ĠexÃ©cu tif
A in
Aug uste
um s
ĠK le
Ġartis an
ra irie
tra le
ĠÃ©lÃ©ment aire
ang ulaire
ĠspÃ©ci alisÃ©
Ġl oup
Ġinsu ffis
k ing
Ġcl Ã©s
Ġgar es
Ġ18 15
onn ie
ĠÃ©v ac
Ġorganis Ã©es
Ġd ites
l ys
Ġsimil aires
Ġg olfe
ĠMath ieu
ĠS axe
Off ice
ĠI X
omp enses
Ġj umel
Al li
Ġconsid Ã¨rent
Ġb ons
Ġch angÃ©
Ġunivers el
g ie
Ġindi en
av enir
or tÃ©es
Ã¶ r
ĠK han
C E
ri min
Ġf res
ĠdÃ©m Ã©n
S ch
Ġv ass
ĠD ix
pr in
indi vidu
ti nes
ĠD Ã©p
Ġch at
Ġhyd ra
ĠmÃ©ta ph
R Ã©g
Ġbou che
Ġg lis
ĠÃ©vent uellement
ĠB uc
Ġpublic itÃ©
Ġ189 4
Ġad ress
Qu entin
Ġdispos ent
Ġ188 8
ĠgÃ©nÃ©r ales
ĠprÃ©p arer
P A
u aire
y re
ig an
g as
Ġnation alitÃ©
Ġli aisons
Ġprovin ci
Ġb ureaux
ĠChampion nats
ĠrÃ©c entes
Ġmy the
Ġhumi de
ul teurs
Ġmour ir
ĠrÃ©fÃ©r endum
z en
ĠChe z
g s
ra ham
Ġmar in
ĠA ud
agn er
rÃ©g ion
ĠTemp s
ĠpÃ¨ler inage
ĠD ame
ĠR ad
Ġes prit
H ar
Ġcom tesse
an us
ĠMic ros
Ġb ox
anc ourt
C our
Ġpro ph
tin i
ĠN Ã®mes
aff aissement
ĠTunis ie
R iv
ill ages
Ġeffectu er
e urs
ĠAlexand er
Ġcommun s
oc y
ll on
ĠComm une
ĠmolÃ©c ules
ti ble
qu ets
ac cep
Ã©r in
ĠreÃ§ ut
Ġm ill
Ġg o
ir us
Ġprof esse
Ġvolont aires
Ã©conom ique
Ġ8 4
ĠconsÃ©c utive
Ġsex e
Ġindic ateur
T S
Ġgar Ã§ons
ron ologie
Ġray onnement
Â ·
qu Ãªtes
dÃ©partement ale
p remi
Ġ186 7
Ġtr ent
Ġcr ue
ĠVi Ãªt
Ġall ait
Ġcalc aires
ĠMay enne
ĠT rÃ¨s
Ġloc alement
ĠRen aud
n il
Ġm ang
ĠF un
ĠH os
Ġdess ervi
op ota
Ġdispar aÃ®t
Ġpla ques
ĠâĨ Ĵ
Ġpart agÃ©
Ġpron once
ĠM ong
ĠN ag
iti mes
ĠÃ©criv ains
Ġsoi rÃ©e
ex ercice
Ġcap ables
Ġqualif ication
Ġsatell ites
ĠCh Ã¢
Ġadvers aire
Ġbass es
ĠboÃ® te
ri de
Ġbar re
j us
Ġf lore
Ġdu chesse
ĠH Ã©lÃ¨ne
Ġmilit ants
Ġa si
Ġm Ã©s
ĠÃ©t endue
Ġrencont rer
c ap
ĠindÃ©p endance
is mes
ĠO ut
acc ent
Ġgouver nements
Pat ronyme
clav age
ur ch
Ġb ap
M at
m it
o tÃ©
v ert
Ġ187 6
ĠOu tre
Ġ7 3
Ġc oi
Ġcont ribution
vent ures
Ġt ar
Ã´ tÃ©
hab il
F ranche
u en
id Ã©s
ĠP rom
G r
Ġpersonn els
Ġbat aillon
ĠarrÃª tÃ©s
cipi endaire
Ġcon join
Ġz Ã©ro
Ġab ord
Ġch ance
ĠW el
Al lier
ĠAnth ony
Par c
ĠTur in
Ġsymb ol
Ġann iversaire
Ġray ons
Ġsignific ative
ĠÃ©rig Ã©e
Ġperman ente
Ġt s
op ro
ĠIn stitut
d Ã©s
Emp ereur
Ġtraditionn els
ĠS us
nes s
ĠnuclÃ© aires
B at
m und
Ġex positions
ĠdÃ©p ass
Ġprog ression
Ġhyp othÃ¨se
Ã¨ ze
ĠJ ardin
Ġcap t
alog ie
Ġpropos er
Ġpar ole
ĠR N
Ġinfluenc Ã©
Ġce ci
Ġatt end
Ãīquipe ments
Ġgu Ã©r
ova quie
se y
ĠmÃ©t aux
Ġcat al
Ġmen Ã©es
ĠantÃ©rie ure
Ġind ustries
Ġmont er
ĠIn di
Ġrestaur ant
ge ant
Ã ¸
il h
Ġmodif ier
Ġbloc s
Ġfun Ã©ra
Ġremar que
Ġinv itÃ©
Ġtra iter
O s
19 66
Ġinaug urÃ©e
ĠD C
Ġgu Ã¨re
Ġmass acre
ti gny
intÃ© resse
ĠAmer ica
Ġbat tant
or ations
Ġch au
ĠSyl v
Ġen j
ĠS om
Ġch auss
Ã©ra trice
oc al
aband on
Ġparfaite ment
Ġfl ui
ĠVal en
ĠBes anÃ§on
M oyen
ĠT ome
ĠdÃ©c ors
Ġli qu
Ġaj out
Ġgra s
ill ets
ĠÅĵ ufs
Ġc ous
Ġhong rois
b r
in ette
ĠCl aire
Ġ8 8
S p
n s
ĠM Ã©n
Ġmass ac
p lan
and er
lÃ© ch
Is raÃ«l
c as
ĠEn f
L oir
ul ar
ĠrÃ© side
ĠN y
ĠMac Ã©d
ĠH ervÃ©
oun t
ĠP ict
ox yde
Ġmo tiv
Ġb Ã©
ĠsÃ©qu ence
Ġla tÃ©
Is le
Ġorigin aires
aisse ur
âĢ Ķ
ĠBo e
g ard
as ie
par tition
Ġquar ts
M I
f us
l ler
ĠVoy age
Ġco effici
196 5
instru ction
Ġsymb oles
ĠB ot
aisse aux
Atlan tiques
D on
ĠB un
Ġcomp ati
ĠprÃ©cÃ©d entes
ĠÃ©lev Ã©s
ĠF ri
ĠprÃ©c Ã©
RÃ© seau
ĠdÃ©ta ils
Ġ187 8
Ġtram way
ĠS oul
ill Ã©s
An ton
Ġreven di
l itÃ©
ĠMar ian
Ġpauvre tÃ©
Ġcardi aque
Ġen gl
enf ants
Ġhan dicap
Ġlar ges
ĠprÃ©cÃ© demment
ĠcrÃ© Ã©es
Ġ7 1
fort s
o a
ins pire
eff ic
EntraÃ® neur
Ġf oule
ĠGrÃ©g oire
exp ansion
erv ille
Ġemb lÃ©
ĠP ad
Ġten sions
Ġreconstru it
ĠrÃ©nov ation
Ġcommenc er
ĠRÃ© alisation
d ar
Ġconsid Ã©rer
Ġ >
Ġen sembles
umi Ã¨res
Ġprovo quer
Ġprom ouvoir
end roit
ĠV ent
che min
Ġcel tique
ll en
Ġoccup ent
Ġprisonn ier
ĠR ach
ĠthÃ© ologie
P er
Ġmar ques
c ulture
Ġass urÃ©
ur ier
ĠÃ© poques
ĠM Ã©rite
Ġam oureux
ĠBu ff
ĠAug ustin
Ġobserv ations
ĠdÃ©c oup
agn ols
Ġabs olue
Ġdesc endant
f re
Ġan tiques
ĠrÃ©p utÃ©
Ġrencont rent
ĠHow ard
Ġparti elle
ĠÃ©c l
Ġmont age
ĠsÃ» r
Ġtrans mis
Ġob lige
arm erie
ĠDre am
Ġab rÃ©
Ġman uf
arch ives
Ã¢ ne
iss on
Ġat tra
Ġent rÃ©
Ġjui f
Ġparten aire
Ġhon oris
B r
al o
ĠprÃ© al
Ġth er
ĠTr ente
ab ore
ĠN a
Ġ8 2
ĠFre e
Ġate lier
M L
Ġgagn Ã©
om orph
t ario
Ġexpli quer
j ette
ĠK ra
ĠGl ob
Ġrest era
Ġm ira
ĠÃīg lises
Ġcyl ind
ĠdÃ©p enses
ĠÃ©t ages
ĠâĢ ¢
Ã©veloppe ment
ĠNeu f
ĠH ollywood
ĠSy mph
Ġtest s
Ã©qu ation
fr Ã¨re
iÃ¨ ce
ĠrÃ©sul te
Ġexac tement
is tiques
mor ph
Ġquit tÃ©
ĠF am
Ġactu elles
Ġmultip li
am itiÃ©
Ġital iens
Ġd ign
Ġrec ense
ĠD urÃ©e
ĠI van
ĠH ubert
Ġbat tre
Ġtrent aine
Ġorganis me
ĠÃ©quival ent
Ġ1 12
Ġper f
194 0
Ġdos sier
s ans
ins piration
Ġcolon iale
rit z
Ġsta bil
Ġb alle
ĠV il
av ril
one y
Ġc erc
ĠP ant
Ġg Ã©rÃ©
fic es
Ġroman tique
ĠPar allÃ¨lement
g ation
Ġc oc
Ġatt ribue
ath ie
C as
Ġs oign
Ġde tte
att ants
Ġreg istre
Ġsupp os
ĠP Ã¢
Ġ7 4
exp lor
ĠmÃ©d ailles
oy ers
196 4
ĠdÃ©mar che
oc le
av aient
ĠprotÃ©g Ã©s
Ġsubs iste
ch ers
ĠCh em
Ġs tim
ĠY am
Ġplate aux
al on
S ource
Ġmo tif
Ġpian iste
U F
c Ã¨s
og Ã©e
ĠAth Ã¨nes
ĠT ol
ĠT ang
ĠrÃ©gion aux
Ġpermet tait
Ġremar quer
at ori
Ġfig ur
ĠO uv
g or
Ġsa x
il aire
Ġf e
195 8
ar on
ĠRoch elle
h ai
ĠH i
od or
Ġlut ter
Ġ187 5
ĠFilm s
Pe intre
ĠrÃ©cup Ã©rer
Ã©ra pe
ĠC oup
V incent
ag ascar
Ġparten ariat
Ġcommen Ã§a
ĠFran cs
tra tion
Ġl ive
ĠL yc
par ti
ĠÃ©l arg
Ġren vers
ĠÃī t
if ique
ĠIn des
Jo hn
ĠB illy
ĠprotÃ©g Ã©e
Ġr endant
Ġ188 2
Ġpal Ã©
A ix
Ġpr Ãªte
on iques
.. ..
Ġaugment er
Ġesti mÃ©
Ġrec ettes
ach a
Ġextra it
Ġt ube
ĠF all
ĠÃ©tab lir
ĠB ah
ion e
Ġpati ents
ĠTou tes
Ġmammif Ã¨res
g ord
atur ge
ĠCal vados
Ġimp ose
ĠE ast
Ġdot Ã©e
Ġrecons titu
Am Ã©ric
Ġstock age
ĠE p
mÃ©t rage
Ġdiv ise
Ġmu tu
ĠgÃ© ographie
ĠdÃ© tr
Ġpra tiqu
entraÃ® nement
Ġm oulins
Ġbi ographie
Ġsame di
Ġinc omp
ĠdÃ©riv Ã©s
vi Ã¨me
ĠXV I
Ġferm Ã©e
Ġcommun ications
ak istan
Ġcour be
ĠrÃ©comp ense
ĠChris tine
Ġ Ï
Ġabs olu
ĠR oute
Ġne w
Ġacc Ã©lÃ©
omb res
ĠQu int
ĠBe at
Ġord onne
Ġp este
at ra
log e
c f
Ġcompr enait
Ġcad res
ĠPÃ©r ou
Ġad ditionn
ĠAll en
qu atre
ĠG rim
tre r
Ã©n a
Ġconf usion
Ġtyp ique
Ġbru it
w ork
tent rion
ĠrÃ©v ol
Ġ( +
ĠR estaur
Ġphot ographe
Ġh onneur
aille ment
Ġmal ade
Ġ188 4
ĠCent er
ra ille
ĠAc ade
ĠWil helm
Ġrefus Ã©
ĠR oll
Ġ7 9
Ġbeau tÃ©
d ing
A ur
Ġn Åĵud
Ġdyn am
ĠCh all
ob l
ĠprÃ©f Ã¨re
ĠAut riche
Ġs Ã©c
ti o
ĠÃ© par
ĠM ann
att le
Ġaffec tÃ©
Ġartis tiques
ĠPi et
Ġf ine
ica tif
ĠbrÃ©sil ien
ym ne
imp ression
Ġnav ale
Ġposi tif
Ġv igne
Ġad ulte
Ġdispar ue
HÃ©ra ult
Car actÃ©ristiques
ti se
Ġb is
Ġdan ois
i ki
Ġra mes
f eld
Ġm ons
ĠD Ã©s
U ti
Ġfich iers
R obert
im es
ut ri
Ġemb ar
Ġchar gÃ©s
ĠgÃ©nÃ©ra tions
Ġas sembl
E ug
Ġaustral ien
b out
p ol
t op
Ã©lÃ© ment
ĠÃ©c ar
ĠPat rimoine
ĠAs h
ĠdÃ©cor ation
ĠAli ce
Ar n
Ġ188 7
ĠÃ©quip Ã©
ĠIn s
Ġbomb ar
Ang oulÃªme
ĠVladi mir
Ġsex uelle
ti tre
ĠH amb
Ġti rs
ensi f
Ġsouverain etÃ©
Ġmine urs
ĠempÃª cher
ydrog Ã¨ne
ĠdÃ©cor Ã©e
Ġpos th
ic ales
ĠrÃ©v ision
z abeth
anim al
g nation
] .
ĠN oire
Ġab sent
Ġcircul aire
Ġparf ait
ĠB ang
ĠN ot
Ġaut ocht
Ġpro positions
ĠS auv
Ġpl as
Ġcon tiennent
ĠD yn
imp act
ĠcoÃ» ts
ĠBÃ¢ le
ĠN iger
ĠBo h
Ġdess us
Ġl ignÃ©e
le z
Ġoccup ant
ath lÃ©tisme
Ġmoy ennes
Ġc erveau
astron omie
urt he
Ġcommand es
ĠSh ow
ĠdÃ©grad Ã©
P I
ĠFin aliste
ĠI rlande
Ġ8 3
ĠTer rit
Ġopp osÃ©
ĠS ark
Ġson de
ĠMar vel
Re venus
196 3
ch ampion
Ġra me
Ġaccomp agne
ĠJ oy
Ġrom aines
au tel
ĠspÃ©ci aux
ĠV erne
im ie
Ġpro s
Ġ6 9
Ġind ire
Ġurb ains
ĠB oc
ĠBe y
ĠM Ã©s
cip ation
Ġacc um
ĠSc Ã©nario
Ġle cteur
Ġmo dule
ak es
Ġdomin ante
ĠN ar
Ġmascul ine
İ les
iÃ¨ mes
Ġ6 00
Ġcontinu ent
ĠLe f
ĠP enn
ĠG or
ĠÃ©tudi Ã©
Ġtransp ortÃ©
Premi er
Ġpo che
Ġott oman
Ġv aisseaux
g re
Ġan arch
ĠL igne
st r
st Ã¨re
ate lier
Ġacc orde
Ġth Ã©m
ĠB oud
Ġadap tÃ©e
Ġimplant Ã©s
Ġl ou
a pe
Ġdestin Ã©es
Ġche veux
Ġpuiss ante
ĠC uba
ig ion
ĠĊĠĊ Ġ
Ġ9 2
Ã©ta le
ate l
Ġc ite
Ġt ort
ĠRac ing
ĠthÃ©or ique
G C
ve z
ath Ã¨que
Ġble ue
Orig ine
tÃ©roÃ¯ de
raph ie
Ġfab rique
Ġ <
ĠC oul
ĠRom ain
EP CI
abit at
Ġpati ent
techn ique
ĠM Ã©di
Ġal p
Ġ186 3
Ġsymp t
ĠS ard
Ġnom in
Ã©tÃ© s
ab ulaire
Ġtiss u
20 22
Ġh eur
Ġfem elles
Ġlog o
Ġ( -
Ã©li min
ĠOc cident
RÃ©c ompenses
Ġacces sibles
Ġmanuscrit s
Ãī douard
Ġ18 66
ĠP ower
Ãīv Ã©nements
Ġcompil ation
Ġd its
ĠS port
it Ã´t
ĠConserv atoire
s or
ĠEn v
ĠÃ §
Ġcom ique
Ġseu il
Ġi ran
ĠP it
ve ille
19 14
TÃ©lÃ© vision
Ġar ist
ĠH art
ĠdÃ©pend ait
ĠtÃ¢ che
B en
C oll
asse ments
ĠdÃ©p ression
lav ie
Ġsculp tures
ĠamÃ©li orer
ĠBeauv ais
Ã©ta pe
ĠdÃ©n ommÃ©
A ctrice
ĠEn suite
ĠF res
P D
Ġtransform er
es e
Ã©tablis sements
ar chevÃªque
Ġr entre
F or
ĠI er
id th
Ġdat ent
Ġ ~
ati vitÃ©
Ġimp lique
Ġintercommun al
ĠL ittle
ang ers
oy ant
Ġf an
Ġex tÃ©rieure
Ġsauv ages
Ġau dio
ĠO rient
ker que
Ġcon duire
Ġdev ise
ĠmÃ©di cal
Ġdange reux
Ġavant age
oz y
ĠWal t
ĠGen re
ox es
ĠdÃ© ci
Ġcontinu itÃ©
Ġretourn er
Ġvernac ulaire
car b
Ġpl ong
adel ph
aill y
Ã¨ nent
Ġc ris
is ant
Ġass iste
A st
ĠÃ©ch oue
Ġh Ã©rÃ©
Ġplac er
Ġwe ek
ĠM oliÃ¨re
i ane
es cal
Ġqu ai
ox ygÃ¨ne
om Ã©
Ġf ans
Ġar r
Ġentrepr end
Ġper c
Ġvol can
Ġgl oire
ĠrÃ© clam
Ġcandid ature
l ets
Ġv Ã©tÃ©
Enf ant
Ġpar aÃ®tre
Ġmunicip alitÃ©s
H Ã´tel
ai der
Ġbr un
Ġpron oncÃ©
l ag
ĠM Ã©ri
tÃ© n
ass oci
ĠZ h
Ġprolonge ment
Ġ185 1
Ġfavoris er
Ġvo Ã»te
ĠL our
Ġcour ante
Ġgre cs
ĠMicros oft
ĠC Åĵur
O P
Ġsocial istes
Ġoc t
Ġ188 3
ĠVirgin ie
Ġnaturelle ment
ĠVer dun
Ġax es
Ġrap ides
Ġenvis age
Ġconstru cteur
ĠÃ©tudi ant
ist res
Ġaut o
Ġind isp
Pro fesseur
ougos lavie
Ġ ondes
Ġg el
li o
Ġfor tifications
Ġam ateurs
oph ile
Ġriv es
ill Ã¨re
ust ri
m ais
et to
ĠS yd
ĠrÃ©s oudre
ĠGui de
Ġnoc tur
ĠÃ© vi
Ġins criptions
Ġ1 000
ĠMad agascar
Ġinc ap
Ġid entitÃ©
Ġent ame
Ġflu vi
Ġdat Ã©
Ġ Ä
Ġdiss olution
ĠLors qu
appr entissage
Bern ard
Ġexp ression
em mes
esp oir
alli ance
Ã©ron autique
D uc
M en
Ġoffic iels
Ġcircon stances
ĠgÃ© omÃ©t
Ġson ore
as sent
Ġdou bl
ot yp
ol ais
ĠR C
ĠH as
Ġ8 00
196 1
ĠY ann
ĠDauph inÃ©
ĠC F
ĠR oth
onn iÃ¨re
nation ale
ĠmÃ©c anis
ĠN ich
ĠSy stÃ¨me
ĠcÃ©rÃ© b
ĠDoc teur
I R
ag ence
ĠT rip
M Ã©di
Ġh ol
B S
ou re
Ġb rou
ĠS at
Ġ2 50
Ġ9 9
Ġprotest ante
Ġpanne aux
Ġf ir
amÃ©ric aine
Ġd il
Ġtransform Ã©e
ĠR ain
Ã©d a
tor ale
org ie
Ġjug Ã©
ĠpossÃ©d ant
w en
ĠdÃ© fic
os aur
In tÃ©rieur
Ġsitu ations
Ġabb Ã©
ĠA ct
ist rict
ĠM ast
ĠF Ãªte
ĠK u
ĠRuss ell
Ġp end
Ġentre tien
ĠdÃ©fini tive
A sc
193 9
Ġappar tements
Ġ186 2
Ġvol c
ira c
Ġf irent
ĠM aÃ®tre
ĠrÃ© actions
Ġins ta
Ġbless ures
Ġch antiers
Ġscand ale
g color
ac cident
Ġn Ã©c
ĠAn im
ĠCl ark
D S
am o
ĠcrÃ© dit
Ġri z
ĠI SO
ĠmÃ©m oires
Ġbass ins
Ġul tra
D Ã´me
ok u
ĠĊĠĊĠĊĠĊ ĠĊĠĊĠĊĠĊ
ĠM ig
ĠRÃ©g iment
ĠG asc
Ġti mbres
Ġpass a
Ġsuff it
Ġofficiel les
E t
b ury
Ġav is
Ġmys tÃ©rie
ĠN ature
ĠR is
Ġchar s
ĠJus tin
Ġ183 1
Ġcor rec
ĠAir lines
ĠdÃ© rive
Ġin sectes
ĠSt one
ĠColumb ia
ĠJ r
Ġ187 2
Ġcentr ales
Ġc enti
ĠRe ine
ĠrÃ©pert ori
Ġclin ique
Ġinv asion
ĠrÃ© Ã©dition
uss itÃ´t
ass ainissement
Juli en
Ġrou tiÃ¨res
Ġcan aux
Ġpol yn
U kraine
Ġf lan
ĠCar cass
ĠV inc
b ul
al om
Ġv Ã©c
ĠD av
Ġexist ence
ĠM em
Ġfich ier
Ġv ues
P Ã©t
Ġpass Ã©e
Ã¨ bre
Ġperm it
ĠC iv
Ġphilosoph ique
Ġorient ales
c et
Ġd ents
Ġpar ach
oÃ¯ de
vi Ã¨ve
ĠdÃ©mission ne
rÃ©h ension
Ġsou ligne
Ġconstru cteurs
Ġaccus Ã©
Ġoub li
ĠRe cher
Ġparticip ants
ES CO
Ġremont er
lic a
Ġven ait
ĠÃ©rig Ã©
effec tu
ĠE lect
Ġ8 7
Ġcompr ennent
act y
Ġsubst ance
S oci
Or ne
Ġbaptis Ã©
ĠK enne
Ġ9 3
Ġ186 5
Ġven ue
Trans port
Ġrom ains
Ġins cription
acc us
ou m
Ġaliment aires
o tique
ulti me
il ib
ĠdÃ© lÃ©gation
Ġpr ud
ĠPo int
k k
ĠÃ©volu er
cesse urs
ĠÃ© duc
ĠS ah
ĠF le
Ġan tic
iel les
Ġbord s
a ac
Ã© tition
ĠD Ã©but
assi que
Ġ {
Ġsac ri
ĠSte ven
Ġ186 1
b en
E F
onne urs
Ġcon d
ĠB urg
og Ã©n
ĠLa f
ĠFer r
ĠJ up
ĠcomÃ©di en
ob jets
Ġcad et
Ġach Ã¨te
p ra
aur Ã©
ĠDr Ã´me
Ġsimp lif
og ue
Ġtomb es
Ġimm ense
Ġfoss iles
Premi Ã¨re
ers bourg
ru g
ing ham
Ġdipl Ã´
ĠJul ie
B l
ĠChar tres
Ġabs orb
Ġfrag ments
ĠBulle tin
Ġl ig
Ġpar viennent
Ġco ff
Ġp ente
Ġj Ã©s
Ġtourn Ã©es
Ġartific ielle
ĠTourn oi
ĠJ un
ĠsÃ©lection nÃ©
m Ã©es
ac um
ĠdÃ©sign ant
ĠÃ©p reuve
Ġorg anes
Ġdeg rÃ©s
ĠFran ck
ĠChe min
A ube
Ġ9 1
Ġche v
ĠmathÃ©m atique
Ã¯ que
tra vail
po int
ĠHistor y
Ġprotoc ole
Ġb ol
Ġorganis Ã©s
Ġcamp us
ĠB rand
re lles
Ne w
ĠE P
ĠD Ã©t
Ġrep ort
pos Ã©e
Ġla tÃ©ra
Ġser ment
Ġprotest ant
ĠB lues
ĠEd mond
Ġmill Ã©n
cu its
Ġfix Ã©
Ġre mb
Ġarriv Ã©
Ġfonctionn aires
ĠgÃ© rer
ĠSp or
lem agne
Ġp p
Ġor gue
ĠU r
ili ation
ĠÃ©c lat
cul aires
Ġqualif ier
Ġn oires
i os
Ġb ic
tis tiques
ĠHav re
Ġroy aumes
el ieu
n ois
ell Ã©n
c rÃ©
Ã ²
Ġbless ure
Ġres semb
Ġprog ress
ok o
duis ant
Ġm ut
ĠI ran
Ġtemp les
Ġmagas in
Ġver be
tr ans
Ġsovi Ã©tiques
rim oni
Ġsugg Ã¨re
ĠmÃ©tropol itaine
Ouv rages
A ragon
L ong
Ġdiff use
rag ons
in actifs
ass an
ik a
adop tion
ĠK ab
Ã¯ de
Ġcrois ade
di es
Ġcl an
orith me
D iv
m ort
Ġp ut
ic us
Ãīt oile
ron e
Ġsec rets
Ġdess ert
ĠMÃ©m oire
Ġfame ux
ĠPict ures
Ġmar itimes
ĠConf Ã©dÃ©ration
Ġvraisembl ablement
Ġsuici de
Ã© nement
ĠreÃ§ oivent
B e
ĠC rois
atis me
P eu
Ġ187 9
ĠLib an
Ġtriom phe
T out
âĢ ¯
ĠCar lo
Ġdev oir
z el
âĢ ī
s ay
195 9
ĠprÃ©fec toral
Ġremp ortant
gn Ã¨s
ĠB ourd
imp ulsion
ĠtÃ©moign age
Ġdeven us
Christ ophe
accomp agne
Ġ8 9
ĠM r
ĠS ang
ĠChristoph er
Ġillus trÃ©
Ġnat ale
i j
uk rain
ĠQui mper
ĠMar sh
ĠMo ore
ro pe
illi r
Ġtra h
an ciens
Ġ8 6
Ġ9 8
Ġatte inte
ĠrÃ©volution naires
Ġsyndic ats
ĠF ame
ĠCh Ã¢ti
ĠKe vin
itter rand
on al
ĠT ER
ĠAnd erson
ĠdÃ©barque ment
ĠC A
ĠrÃ©uss ite
Alli ance
Ġl une
Ġc Ã¨de
ĠB is
ĠPort rait
ĠB ry
ĠD isc
os hi
Ġsup erv
join ts
ĠÃ© ducation
ent on
w ays
c at
Ġam ie
Ġ179 1
Ġp ist
Ġconfig uration
M Ã©
P ort
ou ff
Ch aque
Ġe m
Ġconcern Ã©es
Ġg Ã¨re
Ġacc ro
enc er
Ġprofes sion
ĠPales tine
Ċ ĠĠĠĠĠĠĠĠĠĠĠĠĠĠĠĠ
Ġcri mes
Lang ue
Ġm out
ont an
Ġmarqu ant
ĠcÃ©rÃ© mon
ĠA fric
ter a
cl use
Ġg as
Al b
ĠPhil adelph
ĠrÃ© t
ĠMe urthe
Av ignon
Ġs Ã©min
Ġb a
Ã©quival ent
Ġav ance
ĠO d
Ġjuri diction
ĠTroy es
Env ironnement
Ġeffec tifs
Ñ ģ
Ġfrom age
G ra
Ġreb aptis
" )
ĠLa ff
Ġref uge
ment aire
ĠB omb
Ad ap
aff iche
bo ard
ĠcinÃ© aste
Ġnota ble
ĠF ac
Ġmar oc
Ġfra ppe
la de
ĠspÃ©ci alement
Ġcomb attants
Ġislam ique
mont re
n g
ol in
Ġann on
Ġop us
ĠFrances co
Ġtemp Ãªte
ĠLamb ert
el et
Ġus Ã©es
ĠSar ah
ĠP ois
ĠV id
qu ettes
Ġsucces sifs
Ġconfir mÃ©
Ġr ume
ĠtÃ©moign ent
Ġd ress
Ġmont s
Ġab us
rÃ¨ ze
Ġdist ances
ylv anie
Ġhabit at
Ġtomb eau
195 6
om is
Ġtra d
ĠChamp s
ĠR ig
Ġcor ruption
ĠDeux iÃ¨me
t ot
ĠA C
aur ait
y es
ov o
Ġinc ert
Iv oire
Ġsou d
ĠQu ar
ign Ã©es
Ġconstitu tionnel
Ġpat ern
Ġend omm
ĠAd our
Ġre mettre
Ġplan Ã¨tes
rÃ©g ation
Ġpas sionn
ĠAm sterdam
Ġgui de
Au tre
ĠSt ory
Ġgrande ur
Ã©t ang
Ġcons ole
ass aut
Ġrencont rÃ©
Ġsta bilitÃ©
Ġinflu ences
Ġhtt p
ĠB est
ĠpÃ©ri mÃ¨tre
á ¹
e uropÃ©
ĠC ot
ĠU rb
ra h
ĠC onn
ĠH ach
av ions
Ġproc ureur
ĠS T
ĠP rague
mar ion
ĠtÃ©moign ages
ĠAlex is
ĠP ri
Ġme mb
ĠPhili p
Ġcollec tive
Ã©g ard
ograph es
Ard Ã¨che
ĠSark ozy
ĠMe mbre
ili enne
ĠPÃ© kin
ĠrÃ©un is
Ġcol Ã¨re
ĠFre der
Ġconst ruis
er ont
or ien
ĠtÃ©m oin
tÃ©lÃ© film
ĠK an
Ġb en
Ġcompos ants
ĠGord on
ins cription
Ġinst ant
P lan
oit ou
Ġco opÃ©ra
oly te
k ar
rim erie
Ġplac Ã©s
ĠrÃ© bel
Ġ18 14
Ġprincip autÃ©
n ik
ĠR af
ĠH ot
ul Ã©s
ĠRet our
Ġabond ante
I F
g r
Ġtrans par
ĠBar ry
Ġfeu ille
Ġ179 4
ĠbactÃ© ries
ĠrÃ©serv Ã©
et o
ĠS uc
ss on
Ġord inaire
ĠBoe ing
ĠF ore
Ġf Ã©c
Ġcer tifiÃ©
ĠG Ã¶
ĠBeau mont
E ff
ĉ ĉ
ĠdÃ© tient
tis ation
Ġappar ent
Ġglob ale
ĠS ex
rim er
ghan istan
ĠÂ ł
Ġcheval iers
ille ment
Je ux
Ġinf ir
Ġreten ue
ĠrÃ© cip
ĠÃª tres
Ġ187 7
Y onne
ĠB ros
RÃ© partition
ĠsupÃ©rie urs
ĠJim my
ĠdÃ©plac er
ĠL en
ĠT it
ĠR ugby
ĠCor ps
Ġsouver ains
ĠS ports
enz o
Ġdomes tiques
ĠMacÃ©d oine
O L
at rices
Ġprom en
onc ourt
Chap elle
s ace
est a
h Ã©s
Ġapp ellation
ĠÃ©v Ã¨nements
ĠV o
ad resse
Ã©p ouse
Ġpropos ent
si bilitÃ©
Ã©t o
u ites
cl erc
at Ã©
ĠS ens
ĠI d
ge ance
ĠBulg arie
Ġl an
Mar s
p as
aÃ¯ d
Ġfun Ã©raire
ĠV and
ĠCont rairement
Î ¿
te d
ĠP ent
ass es
ĠÃ©l ue
ĠFlori de
ĠrÃ©g i
ĠPh ilos
Ġenvironnement ale
a Ã©ro
Ñ Ĥ
Ġt Ã©n
Ġb Ã©ton
Ġrep as
atte indre
Ġh Ã©m
ĠMo h
ĠCarcass onne
Ġc ouverte
Ã©lÃ© ments
Ġtourn ois
Ġ187 3
ĠN ad
Ġb ec
ĠV es
ĠW ol
c tive
ĠMan chester
Ġ186 4
Ġterr estres
ĠÃ©c lai
hÃ© li
Ġconver sion
ob il
ais ie
Ġ9 6
Ġ184 6
ch ette
ĠÃ©crit es
Ġchanc elier
v ation
A mer
ĠTh or
Ġpar ad
ĠT able
aut onomie
Ġan nex
Ġmen ant
Ġanim Ã©
ĠGouver nement
D an
Ġdes que
ĠChar lemagne
Ġfais aient
Ġa cides
al di
ati c
Ġphot ographies
Ġvoul oir
ann once
ĠNic ole
Ġatti re
institu t
ill ant
Ġcombin aison
ĠdÃ©n ommÃ©e
ĠdÃ©cid a
Ġviv ants
n elle
Ġemp loie
g rand
Ġlourd s
ar tis
lÃ¨ ne
195 4
Ġordin ateur
ti Ã©
Ġre vers
ĠAu tre
ĠR iver
ĠN elson
ĠĠ ĠĊ
con que
Ġcompo sitions
S au
ĠÃ§ a
ti gn
Ġcompagn on
Ġi tin
Ġvou lu
V il
ĠdÃ©c rire
til itÃ©
ĠTib et
Ġrang s
d Ã©c
z are
ĠSte f
actu alitÃ©
se ction
Ġappar ait
ĠGre at
Ä ±
Ã©ta il
aly tique
Ġalli Ã©
Ġh Ã´pital
ĠInstitu te
ĠJ ar
Ġ ol
ĠcÃ©ra mique
ĠP oul
Ġparten aires
ĠF ond
ĠH om
Ġcol lÃ©g
ĠdÃ©velopp ent
Ġartis ans
C o
á »
Ġprom o
Ġpuiss ants
Ġinspi rÃ©e
Ġtur c
ĠMar tine
ori zon
Ġenc ad
Es prit
G al
h es
is ations
ĠA ussi
ĠRe yn
ui es
Ġp Ã©t
ĠCol in
Ġhyp oth
ur itÃ©
Ġdes ign
ĠD ion
Ġpres by
v ard
ĠIn t
at ar
po ol
Ġrepr ennent
Ġdu t
ĠW ars
Ġesti mÃ©e
Ġb ov
ĠO rig
s wick
ĠconsidÃ©rÃ© es
ĠK ur
ĠThÃ© odore
Ġlour de
ĠC Ã©
Ġmont rant
ĠCah iers
ĠN om
erse y
Ġattribu Ã©e
Ġsembl able
Ġassoci Ã©es
Ġrespec ter
Ã©val uation
PÃ©t ersbourg
ales tin
rat oire
ĠLe urs
od on
Ġentou rÃ©e
Ġbase ball
ĠArn aud
ow e
Ġphysi cien
hou si
ĠS anc
ĠBus h
ĠD uv
Ġsignif ier
Ġdispar aÃ®tre
Doc teur
Ġespagn ols
Ġcrist all
ĠL abor
au b
Ã©m an
ul us
mi d
prÃ© fecture
ĠSh ang
Ãª cher
Ġra t
ĠKenne dy
Ġmar ie
Ġpat tes
Ġdat Ã©e
Ġdirig er
ĠForm at
use ppe
Ġremp ortent
Ġt omes
Ġcompagn ons
organis er
Ġmat rice
ob iles
Ġpoli ciers
Ġph osph
ay er
ĠCar th
Ġcro ire
am as
Ġsuper fic
ous tique
har mon
ĠS itu
Ġqu antique
oli a
ĠComm and
Ġp reuves
onn aise
ĠFr Ã¨res
ou ra
Ġutilis ateurs
Ġtour istes
Ġ187 4
Ġv ig
Ġpolon aise
Ġdiagnos tic
ro v
Ġmon Ã©taire
ĠU p
ĠrÃ©public ains
T T
ĠL er
Ġchap elles
b eau
n ay
omp tion
Ġpl atine
ian o
Ġindisp ens
ĠJup iter
ĠreprÃ©sent Ã©s
ven ant
Ã¢ t
Ġperman ent
ĠM ain
ĠthÃ© olog
ĠdÃ©mis sionn
194 6
ĠTin tin
Ġrempla Ã§ant
ĠCas tille
ĠdÃ©monst ration
at aire
Ġb or
Au jourd
ĠÃ©m ig
Ġcon jug
RÃ© cipiendaire
Ġfra ction
Ġconcep ts
Ġcommunau taires
Ġrav it
ĠB il
Ġdel la
s ax
ĠL ub
at aires
ĠPar t
ĠÃ©c ras
Ġsignif ication
ĠArg entine
ic iel
ĠCh en
Ġr onde
ĠRo ad
Ġpossi bilitÃ©s
Ġar rondissements
Ġpubli er
Ġtent ent
t ris
ĠV ars
ĠrÃ©v Ã©lÃ©
ĠEsp agnols
Ġgros se
ci r
Ã©c rire
hol m
g round
Ġch lor
ĠI an
Ġ185 6
Ġtravaill ant
Ġvit raux
te ction
ĠChampion s
orb onne
ab re
pr its
Ġvra ie
Ġl Ã©
AD N
ob lig
Ġmesure r
Ġcertaine ment
C Ã´te
Ġdu cs
ĠPort o
instru ment
ĠGasc ogne
ĠÃ©v ang
Ġmagas ins
- ,
Ġsal aire
Ġrestaur Ã©e
AS A
Ġcru es
Ġs o
Ġen lev
ac tif
Ġtr il
ĠB rie
ĠD uf
Ġapp uy
Ġdispos ant
Ġsec rÃ¨te
Ġ179 5
ĠMassi f
ou lement
195 7
Ð »
Ġl onge
agn y
cl usion
Ġplu me
Ġcop ie
Ġvas tes
ĠK a
Ġtrouv ant
ĠTim es
Ġm esse
ĠFranÃ§ais e
ĠS ky
ĠA qu
Ġprof il
ou ts
Ġb its
il ia
ĠtÃ©m oins
Ġvolont aire
Ġincar ne
ĠT ot
Ġhas ard
ĠTar bes
Ġd or
oc cupe
Ġplan ches
Ġaccompagn Ã©e
ĠWar ner
Ġconc lu
Ġposses sions
Ġpharm ac
ar tistes
Ġbord Ã©e
Ġson s
ĠV as
ĠdÃ©fense ur
Ġillus t
encont re
ti um
ĠMar co
ĠdÃ©ch ar
Ġvol ley
ĠdÃ©velopp Ã©s
ĠrÃ© habil
Ġtomb er
ĠMo ham
19 30
ĠgÃ© omÃ©trie
Ġ186 8
Ġsort es
Ġh orm
onn ent
Ġchampion ne
ĠSyd ney
I rak
b ell
ĠT en
Ġ( "
ĠSt and
Ġf um
ic ode
igne ments
ĠPer p
h Ã©ri
194 7
ol ing
ĠD all
od ge
Ġs ommes
Ġbu teur
ch an
DÃ©c oupage
et e
ĠV Ã©r
ĠÃ©t endu
abil itÃ©s
mar in
Ġadop tÃ©e
ob us
L M
ĠÃ©p iscop
Ġnum Ã©riques
organis me
ĠP os
an ais
ĠS ak
ti co
Ġt Ãªtes
ĠP age
exp lique
Ġb rass
ĠH ain
Ġlib Ã©raux
Topony me
Ġvendre di
C entre
Ð º
is tÃ©rie
Ġnom mer
Ġbre vet
li es
193 6
I P
Je unesse
ĠSec ret
ĠConc ernant
Ġdiver sif
mi Ã¨re
Ã©t oile
r h
v ol
lus ion
Ġmal ades
ĠMal i
È Ļ
Ġd ictionnaire
ĠrÃ© els
ob a
ĠLion el
Ġcl andes
Ġlog is
Ġexcep tionnel
ĠJord an
ĠM Ã¢
Ġh u
tain ment
appu ie
d ale
Ġcon grÃ©
arrÃª tÃ©
Ġacc Ã¨de
Ġbomb arde
ac tive
end a
ĠrÃ©v Ã©
Ġ183 6
Ġappar tiennent
Ġorg anique
Ġport raits
ĠJon athan
inform ations
Ġ185 5
Ġall ong
ĠGÃ© orgie
Ã§ al
Ġtiss us
ThÃ© Ã¢tre
i ri
ra bles
Ġl or
Ġin verse
Ġco qu
ĠW in
Ġrelig ions
ĠintÃ©g ral
c entre
h istorique
ĠSÃ©n Ã©gal
D ieu
ĠA fin
ĠK ent
Ġhe bdomadaire
ĠAcade my
om Ã¨tre
ro pole
ct us
ĠEn d
Ġfavor ables
ĠSyste m
Ġtechn ico
ĠVal entin
Ġouv rier
ĠÃ©lev Ã©es
effic acitÃ©
Ġs Ã¨che
ĠCom te
Gu ill
Ġsubst ances
ĠprÃ©p are
ĠY v
ĠCond Ã©
y ss
ĠJ es
aut orisation
ch auff
olu me
Ġpropag ande
ĠCom ics
Ġsep tentrion
Az ur
Ġsis micitÃ©
ĠS tr
si x
ĠmÃ©c aniques
ĠArd ennes
Ġas semblÃ©e
Ġvec teur
u tique
Ġlun di
ie z
tic ulture
Ġen rich
ĠLa dy
ord inaire
Ġdi alogue
Ġconserv Ã©e
ĠdÃ©n once
ĠB D
op Ã©e
ĠH ur
ĠtÃ©lÃ© char
Ġmarqu Ã©s
Ġorigin ales
ĠLangue doc
ĠF rom
ouv ille
ati can
Ġman che
Ġmaje ures
ĠFay ard
ĠdÃ©p endance
Ġp oule
ĠM itterrand
Ġs tu
ĠB oris
Ġl in
bre u
ĠL un
UN ESCO
Ġsp ontan
Ġper ception
Nouv elle
r Ã´le
es clavage
Ġconn aissent
Ġmen a
L ac
m os
ĠB yz
195 5
Ġorient al
Ġreten u
ĠCh urch
Ġcour tes
Ġperd ue
ĠLuc as
Ġcam ar
D iff
Ġfonction ne
Ġex pose
commun ications
Ġsusp ension
ĠCh a
Ath Ã¨nes
ĠHab sbourg
Ġessenti el
l ire
id on
ĠCanadi ens
Ġpos er
Ġbat ailles
ĠB ron
ĠH ipp
ĠC ologne
emp are
ĠBarb ara
aÃ¯s me
Ġbri Ã¨vement
ĠCa o
Ess onne
19 20
id ation
ĠsÃ© ance
Ġph yl
Ġsucces sives
isse ur
Personn age
ĠGener al
E uro
ar isation
Ġregroupe ment
ĠM ission
b is
ĠdÃ©c orÃ©
Ġpos tÃ©ritÃ©
he ad
ĠAb d
M aison
ĠR ai
ande ur
R oi
D el
ĠO xford
Ġenvoy Ã©s
Ġpl af
Ġti ennent
Ġconserv Ã©s
ha Ã«l
Ġgouver n
Ġus ages
U D
ĠM are
ĠDe uts
ĠprÃ©c ur
ĠlittÃ©ra lement
Ġmusic ales
ĠdÃ©rou lent
Ġmat ches
ori Ã©tÃ©
ĠsÃ©par Ã©s
ĠC au
Ġqu Ãªte
ass o
l ons
Ġc end
in Ã©s
ĠP rim
Ġclass Ã©es
ĠGar y
oÃ¯ des
ĠL anc
ĠCro atie
Ġconvainc re
ĠPro ductions
ĠMar che
Ġ186 9
Ġbomb e
ic aine
tif ici
ĠCrÃ© ation
us ter
Ġmin ute
195 3
ĠprÃ©pond Ã©rant
Ġ ukrain
re di
Ġfin ir
um inium
rou es
Ġcons ol
ĠR ousseau
C amp
ĠPat rice
Ġprofesse urs
Ġ9 4
Ġsensi bles
Ġv ende
ĠB eck
ĠG amb
Ġeng agement
Ġvol ant
Ġsouvenir s
og le
ĠĊĠĊĠĊĠĊ ĠĊ
ĠÃ©c ran
ĠspÃ©ci alisÃ©s
ĠC ourt
T F
Ġg roup
Ġti b
or iste
b ox
Ġv if
entre prises
el ot
ĠdÃ©p Ã´ts
Ġpor tait
Ġajou tÃ©
ĠJ ersey
Ġajou ter
v ar
ĠT ab
Ġbat teur
aÃ¯ wan
duc teurs
Arch itecture
Ġn erve
ĠH umb
imp oser
ĠmÃ©tal lique
erm Ã©
Ġeffec tivement
ĠWil d
ĠEnter tainment
... ).
Tour isme
Ġ185 9
S I
w orth
in de
ĠdÃ© lic
ĠB it
Ġdix iÃ¨me
y st
Ġcar riÃ¨res
Ġcar refour
Ã©v ent
ĠMon uments
che z
Ġob sc
Ġcon vient
Ġball on
Ġcol omb
aiss ait
Ġabou tit
ĠDe ad
ĠmÃ©ridion ale
ĠR an
Ġquit tent
ĠVill age
heure ux
Ġpro viennent
am an
ĠCh irac
Ġrepr enant
u et
ĠL ug
ĠrÃ©g ulier
w o
Ġad h
Ġab sence
Ġattest Ã©e
Ġperf ection
ern er
inter diction
v alle
mi x
Ġbiblioth Ã¨ques
ĠP le
Ġtrib une
Ġvicom te
u de
ĠK un
A f
ist ote
ĠTh ib
Ġh auteurs
quel ine
Ġpl onge
B rie
heure usement
Ġa ussitÃ´t
ĠN uit
Ġar tic
Ġinter vention
ĠPrin cip
ĠGra ss
Ġtri angle
ĠdÃ©li b
Ġcit oyen
ch Ã¢tel
tÃ© ri
ĠFranc fort
ro vis
ĠT GV
Ġac tiv
Ġ185 4
ĠI ss
Ġhabit ations
ĠD ak
Ġprot otype
Ġ185 2
Ġcommun Ã©ment
Ġbi ologie
ĠSerb ie
ĠPour tant
ĠXV IIe
Art ois
Ġanc Ãªtres
ĠP sych
ĠCam eroun
ĠAlb in
ĠC O
Ġve ulent
Ġtent Ã©
mp es
Ġform Ã©s
ĠJ azz
Ġtrans e
ĠdÃ©couv erts
ĠMin istÃ¨re
osph Ã¨re
el Ã©
Ġdiplom atique
Ġhydra uli
al th
ch in
ff es
less is
Ġriv al
il ie
ĠF ils
Ġstric tement
ĠB ibliographie
onn age
id ou
ge ot
mb ourg
R N
Ġv acc
Ġdiplom ate
inform atique
Ġachev Ã©
ĠecclÃ©si astique
ĠD ave
ĠV ice
Ġappli quÃ©e
Ã ¥
ur ies
Ã¡ s
v u
ĠDie go
ĠrÃ© mun
Ġr oue
ĠAc c
ve ug
Ġrejo ignent
Ġj al
Ġinter dis
ra de
ĠCos ta
ĠpÃ©dagog ique
ut ent
ĠbÃ¢ti es
Ġaccep tÃ©
ĠZ o
Ġrest a
Ġnorm alement
v ic
ar ma
Ġentre ten
Ġsign er
ĠPe dro
Ġminim ale
L ittÃ©rature
tu de
j usqu
en b
och ine
Ġg ise
Ġnational iste
ĠmÃ©dica ments
m ises
ĠG es
che f
ĠrÃ©di ge
and ro
ancienne ment
ĠnÃ©cessaire ment
Ġcommer Ã§
Ġconsac rer
Ã©m ergence
M C
Ġs ulf
Ġm ous
ĠÃ© b
ĠÃ©nerg Ã©tique
F L
Ġsy ll
ĠDun kerque
Ġmar ti
od a
ĠChe val
atis ation
ĠY ougoslavie
Al fred
Ġnatur aliste
ĠV atican
enti ellement
ĠS ad
oc Ã¨ne
ĠmÃ©t all
Ġcro it
ac tiv
ĠN ath
Ġoff rant
Ġafric aine
ĠG ue
Ġdiscip lines
Ġre qu
omm Ã©s
ing es
Ġcontra ts
v aire
Ġpl ay
Ã Ł
ĠL al
ĠC Ã´tes
ph ine
Ġlib Ã©rer
ĠSim one
Ġinten se
archÃ© ologie
Ġa cide
ĠPÃ©ri gord
Ġtrip le
Ġmain tient
Ġinter rog
Ġatte ignent
ĠOt to
cul p
195 1
Ġt Ã©l
don Ã©sie
ĠSh in
Ġm iss
Ġfin ales
Ar thur
ĠCin Ã©ma
AT P
ĠM Ã©dic
ĠgÃ© ologiques
C ri
ĠsÃ©par Ã©
Ġjus tif
ĠGi useppe
Ġdimin uer
ĠFre ud
O scar
k es
ge oise
ari os
ĠdÃ©p asser
H ilaire
ĠÃ©lect roniques
ĠFor ces
ĠMag azine
ĠDÃ© partement
ĠS to
li Ã¨res
ĠĠĠĠ ĠĠĠ
di g
ari um
urr ence
Ġpol Ã©mique
on ienne
Ġs pect
Ġtravers er
ĠG ira
z u
Ġ ira
ĠO f
ĠrÃ©par ties
Ġpar ution
ĠT on
Ġnorm al
Ġf lanc
194 8
Ã¨ ches
Ġmarqu er
Ġaband onnÃ©e
Ġrenouv ellement
Ġbailli age
Ġle x
Ġimm ig
Ġ184 5
anim aux
ĠM ous
Ġcli p
ĠtÃ©lÃ©ph one
Ġlo int
ras te
Ġtermin er
ĠPic ardie
T er
ĠFlam marion
Ġs oin
Album s
ver sement
Ġop pose
ĠÃ©ch antill
M o
Ġarg entin
Ġnot oriÃ©tÃ©
Ang ers
Ġv ignes
ĠdÃ©c ro
ĠdÃ©fin is
Ġsimultan Ã©ment
in ts
Ġarriv er
Sav oie
P os
k ans
Ġsur pr
Ġcin quant
Ġabb aye
Ġappar u
I ss
am er
import antes
cyclop Ã©die
ĠMÃ©tro pole
Ġrest Ã©e
Ġindi quent
Ġpatron yme
ĠingÃ©n ieurs
Ġcomp tent
194 9
Ġeffectu Ã©e
ĠAn at
Ġat mosph
ĠMont s
Ġdimin ue
Ġp Ã¢te
Ġch en
ĠMont age
Ġcontrain te
ĠGon z
Ġposth ume
Ġsph Ã¨re
Ġvari ation
PrÃ© sident
Ġplais ir
z ones
oth s
G B
Ã Ĥge
Ġbouddh isme
he w
ĠAut res
a cier
Ġconsta te
Ġt aill
Ġren dez
Ġind Ã©
Ġsty les
Vict or
D VD
ame d
ĠbÃ©n Ã©dic
ĠCour onne
Ġense ignement
Ġl ion
di ct
av re
Ġent ra
Entre prises
Guill aume
Ċ ĠĊĠĊ
Ġme ub
Ã©rie l
Ġfen Ãªtre
ĠP IB
ins c
ĠPhot ographie
Ġn apolÃ©on
Ġa mph
Ġcou le
Ġbou c
Ġoccident aux
ĠrÃ©d acteur
Ġun s
aff ront
Ġaut onomie
je an
Ġg lu
Ġpo Ã¨tes
ĠmÃ©canis mes
amÃ©li oration
Ġfin ancer
Ã©lev ait
P F
ĠB og
o ke
Ġend Ã©mique
Ġtre mb
Ġar mÃ©
Ã¨ bres
Ġcont es
Ã©m y
Ġfond er
Ġviol ents
Ġtra ject
fic ations
Ġent rÃ©es
ĠrÃ©c olte
tÃ©rieure ment
ĠentraÃ® nÃ©
ĠdÃ©place ments
Ġb lues
pe aux
ĠDou bs
ĠN az
ai me
ine ux
Am our
ĠR ick
ad or
Ġmar x
ĠrÃ©public aine
ĠB rou
and ball
ok a
Ġrela tifs
r ence
Ġag rand
Ġmom ents
o en
Ġs pec
ig o
ich es
ĠRoche fort
Ġr entrÃ©e
ĠÃ©n orme
Ġcit ad
ĠÃ©limin Ã©
Ġencou rag
d ad
ĠprÃ©sid ente
Ã¤ n
ce voir
Ġca che
Ġroman cier
ainque urs
s ite
in ae
Ġrestaur Ã©
Ġhom osex
ĠH aye
ĠprÃ©sent Ã©s
Ġtermin ant
Ġvites ses
Ġbar rages
Ġ( ?
ess ai
Ġfamili al
S M
Ġcom ics
ĠA re
Ġe urent
Ġsenti er
ĠvÃ©rif ier
ĠrÃ©bel lion
Ġpouss Ã©e
ouch ure
R em
lÃ¨ me
Ġmassi fs
Ġp oudre
Ġ[ âĢ¦
ĠBra b
oy Ã©
Ġmin oritÃ©
Em manuel
ĠG R
cl os
ie fs
Ġph are
H abitat
au ban
ĠE le
vis ible
Ġmag ique
Ġparticuli Ã¨res
ac qu
Ġbour se
Ġparlement aires
a ou
ĠN ou
Ġidentif iÃ©
Ġre lier
ĠF M
Ġmil itant
Ġemp lacement
Ġpa tin
PÃ©ri ode
195 2
Ġv ole
ff Ã©r
av Ã¨re
Ġgra veur
ĠÃ©pous a
oy a
sid ents
Ġdomes tique
Ġass istant
ĠMerc ure
ĠhiÃ©r archie
Ġg ang
Ġra b
Ġvari ent
import ants
ur al
yp re
ess or
Ġ185 7
e aux
Ġn ulle
Ã©d ant
Ġfeu illet
al t
Ġren once
Ġ185 8
ĠEli zabeth
am ar
ĠHerb ert
ens on
Ġrec ords
Ġfront al
Ġassis tÃ©
Ġc og
Ġch iens
ĠN ombre
Ġlux e
ĠK l
ĠmaÃ®tres se
Ġadmin ist
Ġcoll abore
Ġchaud s
D ivers
Ø §
Ġd ames
ĠM uss
ĠMont agne
ĠÃ©ch app
In ventaire
ouv rages
Ãī mile
t ol
Ġh yb
193 7
rÃ¨ tement
en eur
Ã©v Ã©nement
Ġvend ue
B run
Ġv ib
ĠN arb
Ġan neaux
og o
Ġle cteurs
akes pe
Ġaff aib
ĠO ld
E au
T C
ĠJe unesse
Ġap ost
ĠrÃ©di gÃ©
v il
Ġin qui
Ġch Ãªne
Ġsil ence
s oci
Ġreli ques
ĠRestaur ation
Ġafric ain
off ensive
Ġobten ue
Ġvac ants
ĠCor rÃ¨ze
rom agn
ĠGra y
ĠVars ovie
Ġplur iel
Ġneu viÃ¨me
en o
Ġs oie
ĠĠĠĠ ĠĠ
Ã©ci le
uel a
ois in
ĠK os
ĠdÃ©c al
Ġquanti tÃ©s
ĠBab yl
ĠHerm ann
ĠFin istÃ¨re
ĠvÃ©gÃ©t aux
Ġvo Ã»
Ġgrav itÃ©
Ġpar lÃ©
ĠtÃ©lÃ©vis Ã©es
D om
Ġv ive
Ġa vi
ĠB ras
Ġprot agon
ĠStu art
Ġcompos ante
Ã©d onie
Ġbon heur
ari us
194 3
ĠM end
ĠsÃ©j ourn
Ġfa ill
p re
ois se
Ġeffec tif
Ġchor Ã©g
S port
ĠH yp
ain ville
rom an
ĠdÃ©cern Ã©
carb ures
Ġp riÃ¨re
ĠÃ İles
ĠR oux
Ã´ pit
h ydrogÃ¨ne
rib ourg
tell ation
Ġsensi bilitÃ©
ĠExp ress
ab el
Ġt ute
ig es
Ġdistin ctes
ĠÃ©vo quant
Ġen tiers
Ġh ivers
rastru cture
ĠÃ©volu ant
Ġsur vie
Ġdimin u
Ġpr ussi
Ġmilli ard
ĠC az
Ġin fin
ol ine
Ġouv riÃ¨re
Ġfusion ne
Ġcircons criptions
Ã´pit aux
au rer
ci es
ĠY velines
Ġse gment
Ġneu tre
Ġp isc
th Ã¨se
Ġindi enne
Ġpropos Ã©e
ass urance
Ġres semble
Ġinc ont
col span
Ġla b
tÃ© b
Ġdou ces
inter prÃ¨te
Ġban ques
Vil aine
ĠPerp ignan
ra ction
ĠlÃ©g endes
gu ay
I d
ol at
Ġcomp rÃ©hension
Ġmar gin
Ġciv iles
Ġjudici aires
ĠrÃ©sist ants
ĠAd olphe
Ġerre urs
Ġf aud
ĠB ran
terr issage
ĠStal ine
ar isme
ĠB org
Ġo re
Ġser veur
193 8
ĠE ff
iss ante
Eug Ã¨ne
t ype
Ġdimin uÃ©
Ġsupprim Ã©
ri des
ĠS antÃ©
ĠCh at
our geois
ĠS tudios
Ġpo Ã©tique
Ġab st
ĠCon fÃ©rence
ĠAlli Ã©s
L ou
Ġr entrer
Ġco teaux
yn amique
rolog ie
m ire
ĠA ventures
ĠlÃ©g umes
Orig ines
Ã§onn erie
Ġt ari
ĠP D
194 2
D Ã©b
or tait
Ġb ag
C ir
l iste
qu iÃ¨me
ter ies
ĠPl aton
Ġliv ret
Ġsouten ue
Ġmentionn Ã©e
Ġroy ales
Ġreti rÃ©
ĠdÃ©c omp
ĠbÃ©nÃ©f icier
Ġconstitu tionnelle
Ġtra jet
ĠSp ace
ĠdÃ©taill Ã©
Ġinv itÃ©s
c ra
j eu
ab a
tis sent
orp tion
ab i
ĠJ enn
tionn aires
ĠCol lec
ĠJ our
ĠB iographie
Ġpas teur
acc al
ĠMÃ©dic is
Ġdessin Ã©es
ĠChÃ¢ti llon
ins ta
Ġmod Ã©rÃ©e
Ġcompos ant
Ġcomp are
tionn ellement
ex port
Ġoppos ant
Ġpsych iat
Ġexc ell
ĠCer cle
Ġsu isses
Ġ18 20
Ar ras
aff ec
Ġenti tÃ©s
ĠC ay
ul ant
ĠJac queline
ta tive
P E
Ġt ro
ex il
Ġnational istes
implant ation
Ġpl uies
ĠJ ava
Ġson d
Ġrev ues
193 2
Ġpro jection
ĠÃ©tÃ© s
Å Ħ
ĠdÃ©c Ã¨de
Ġt Ã©t
Ġimp Ã´ts
Ġlic enci
Ġtron Ã§on
op es
ĠK as
Ġprodu c
Ġpres s
ĠZ one
Ġprob abilitÃ©
ĠP oitou
S T
on te
Ġloc alitÃ©s
ĠFor Ãªt
Ġaltern ative
ĠR y
ĠG rant
ĠN il
ines s
oth er
oÃ¯ s
C ours
Ġre lÃ©gu
tin ction
Ġdic tat
á ¸
ĠP ur
Ġcou rage
Ġexcep tionnelle
ti te
Ġin formation
ĠT ai
Ġch al
O range
ã Ģ
Ã© re
ĠS tudio
Ġh Ã©ro
ĠLud wig
Ġblas on
en ch
Ġb oute
ĠcrÃ© ent
ĠprÃ©sid ents
Ġprogres sive
Ġcompos ent
ĠCent ral
Ġra ff
aill ons
Ġh ipp
Ġ183 2
explo sion
Ġvign oble
F ranÃ§ais
ĠÃ© pr
Ġarm Ã©n
ol ini
Ġfor c
Ġent endre
Ġindi quant
Ġdispos ait
ĠC yr
Olymp ique
ĠA ix
Ġgr Ã¨s
Ġatta chÃ©
f ille
est Ã©
ĠD y
Ġcomp tant
Ġro s
ĠCol or
Ġinter venir
Ġeffectu Ã©es
Ġreb elles
Ġsol lic
Ã©b Ã©
Qu Ã©bec
Ġparall Ã¨les
M or
a tin
ur ait
eu il
Ġtour istiques
H arm
Ġqu o
Ġsauv et
Ġp alestin
ĠMe d
aÃ¯ a
Ĥ ¬
un itÃ©s
di al
Ã©ta ires
w art
Ġimp act
lÃ¨ vent
ĠPer rin
Ġindividu elle
ĠMar t
Ġtravers ant
ĠRich elieu
ĠMas ter
Ġved ette
ĠÃī tudes
ĠconÃ§ ue
b oy
ĠÃ©quip Ã©e
Ġclo che
Ġma quis
Ġauxque lles
Ġc le
Ġb ulg
Ġconf iÃ©e
Ġconv o
Ġent rent
Ġcontinent ale
Ġcroiss ante
Ġtrag Ã©die
ĠMar x
Ġrec ycl
Ġconf es
ĠfrÃ©qu ents
Ã©tu di
Ġc ors
ĠR amb
Ġra ces
ĠA lle
ot ti
Ġd in
ĠPl ou
as ka
ĠB ak
ĠB Ã©z
Ġinf ec
Ġarchite ctes
Ġf al
ĠP lant
ĠF ul
lÃ© ments
Ġop in
ald o
Ġ183 8
ĠmÃ©t rages
ĠmaÃ® tris
el lan
S erv
a chev
h Ã©ritage
is odes
Ã©n ariste
Ġla issent
ĠG Ãªnes
Ġsorti es
Ġindividu el
on ia
is ants
Ġhum an
ĠChe lem
Ġremont ent
Ġchar p
ĠTest ament
c ou
rim Ã©e
Ġprosp Ã©ritÃ©
Ġt Ã©les
ĠValen ciennes
Ġ u
Ġa z
ĠLe p
ĠlÃ©giti m
g ang
Ġan nexe
Ġal phab
ĠMar ais
Ġdesc endance
thi opie
Ġch Åĵurs
ĠQu in
ĠJas on
Ġsl alom
ĠdÃ©s er
ĠP olitique
Ġar ros
ar bres
ure t
Ġliber tÃ©s
Ġtute lle
ĠCor poration
Ġmusic aux
Ġinstitu tion
ĠdÃ©b ou
ĠVÃ©n us
A uc
ĠÃ© me
ĠN og
19 24
Ġf lÃ¨che
ĠC H
ĠRÃ© seau
Ġautoris Ã©
ais er
Ã©t age
ĠAl sace
pp i
Ġ183 7
ĠBat man
E ur
Ġ ÅĴuvres
gn Ã©
193 3
ĠCont re
Ġbot aniste
ĠC i
our is
erm ann
Ġcir cuits
ĠBro ad
ĠBour ges
Oli vier
Ġat ten
Ġcompos Ã©es
Ġconcern Ã©s
ard es
y ro
as me
ĠH il
Ġti mbre
Ġn auf
Ġurb aines
D ate
Ġsol de
An ge
Ġpart agent
Ġautrich ienne
et ts
Ġch aire
Ġmar ge
ĠDe m
air ie
ĠrÃ©guli ers
ĠHam ilton
ĠF id
Ġfut urs
In di
Ġeng age
Ġtraite ments
ĠL us
Ġfin ance
Ġremp arts
Ġencou rage
akespe are
Ġpar l
oll et
Ġperturb ations
Ġla voir
Ġprovo quÃ©
ĠW ater
Ġtou chÃ©
Ġextra its
Ġindig Ã¨nes
m ore
ĠMarsh all
Ġan onyme
19 19
re e
ĠCro ss
back ground
arme ment
ĠHamb ourg
ĠR Ã©v
ĠE C
Ġ180 6
Ġn Ã©s
ri an
Ġp entes
Ã©tab lit
Ġd Ã®
Ã©r alisme
Ġcommand Ã©e
ani um
Ġtranse pt
C oupe
Ġcon te
Ġacc Ã©der
ĠS oud
ĠCatal ogne
ĠS ovi
Ġpl astique
19 21
Ġfourn i
Ġmob iles
an nes
ou tre
lin aire
Ġ184 3
Ġarm oiries
Ġbombar dement
ĠV ari
Ġcl aire
anne au
c orÃ©
ĠF oix
194 1
Ġp and
om y
Ġn ett
Ġg ue
Ġsur pl
Ġbou cle
mÃ©di aires
ĠV enez
ĠS Ã©rie
Ġpl ages
Ġ17 58
olu tions
ĠL Ã©n
Ġav er
Ġpa ci
impos ent
G T
h umi
ĠN ant
Ġf at
Ġprodu ites
Ġloc omo
Ġrela tives
ĠCant al
ĠSyn dicat
B lan
ati ale
Ġdiv orce
de au
ri ble
Ġat omique
ĠrÃ©c onc
ĠOr lÃ©ans
ĠdÃ©t riment
Ġs te
ĠS ois
ĠG oul
Ġtrib un
ĠlÃ©gisl ation
) )
ĠL oz
Ġf ati
ĠI v
ĠAl ger
ĠrÃ©alis ations
arr Ãªte
ĠM ire
pp er
ĠBay onne
as tes
ĠI N
h y
ori o
Ġrelev ant
ĠMi ami
ĠHach ette
ĠR id
Ġcondam nÃ©s
Ġmodif iÃ©e
ĠP ost
Ġar tifici
Ġprom et
ch el
ĠPhiladelph ie
Ġp aire
ĠC aire
ach us
Ġeff ond
Ã« n
ĠR at
Ġro b
193 5
ĠM ond
ĠNav y
Ġs igle
pr on
ob Ã©
Ġress enti
Pro duction
Ġoccident ales
ĠJ ay
Ġspiritu el
Ġachet Ã©
Ġmic ros
Ch anteur
gÃ©n Ã©ral
ĠÃ©quip Ã©s
Ġfondament ale
Ġc ui
Ġcont acts
D E
di ctions
ĠF ire
oci de
alli ques
D Ã©but
en heim
Ġbourgeois ie
Ġv Ãª
ĠW agner
Ġtrans met
ĠTh aÃ¯
Ġhab itÃ©
Ass omption
accal aurÃ©
Ġc ah
Ġreg istres
ĠTÃ©lÃ© vision
Ã©l itÃ©
ĠD own
Ġpne um
ĠT od
ous ie
Ġtou l
Ã©ra c
Ġdisc rimin
ĠdÃ©tr uis
Ġn ar
ĠdÃ©p osÃ©
Ġang le
ĠQue en
Ġachev Ã©e
Ġb iÃ¨re
Ġcor rig
Ġsupport ers
Ġsympt Ã´mes
Ġam or
ĠQ ues
Ġarg iles
Ã©d ent
fin ition
Ġobs ta
ti ces
ĠLa ke
ble au
Ġap erÃ§
Al ger
Ġquar antaine
Ġtex tile
off icier
Ġposi tive
C ent
ĠS Ã©v
ĠR ois
Ġcondam nation
Ġavant ages
Ġretrouv Ã©s
Ġfib res
ĠS aul
Ġb ann
ene urs
ĠBle u
ĠLiber tÃ©
Ġar range
uss on
Ġgra ins
il o
ĠT ah
ĠFin ances
ph al
ĠJer ry
H aut
Ġav enture
Ġâ Ī
ĠSt anis
ĠÃ©t angs
U r
ĠCh ypre
L Ã©on
ĠTe am
Ġd al
ĠM otte
int ention
Ġcoi ff
ĠF ribourg
pp es
ĠW u
ang ent
ĠJapon ais
G ir
N orm
ĠK id
ex traction
Ġmod Ã©
R et
Ġpar tant
Ġoff ice
ĠSh akespeare
ĠirrÃ© gu
Ġgend armerie
Ġhypoth Ã¨ses
Ġlit h
Ġillustra tions
ier ie
Ġne z
Ġserv ait
dic ations
Ġtermin Ã©e
ĠGl obe
t ar
en os
an alys
mi di
Ġp iliers
Ġsa ti
Ġcomp ta
Ġle ver
og Ã¨nes
pr int
Ġemp ire
19 28
Ġp unk
ĠM ys
Ġv aud
Ġh ivern
ĠprÃ© occup
Ġsign Ã©e
sh ire
Ġconf iÃ©
C ultes
Ġvoul ant
Ġbel ges
Ġsouter raine
Ġlun aire
J ourn
ĠsÃ» re
Ġem men
ĠGu it
Ġchamp ignons
ĠdÃ©p our
Al l
ĠMast ers
iv ant
ĠK elly
'' '
ĠnÃ©er landaise
ĠT rou
ĠT own
Ġtrans por
app lique
ke ting
arc tique
S F
oi ce
Ġsoci ologie
Ġpar lent
ĠS ap
19 29
duis ent
ĠrÃ© tro
Ġam Ã¨ne
ĠentraÃ® nant
ĠR Ã©c
ouv rir
Ġpar ts
Ġb riques
Ġm anger
Ġconcern ent
Harm attan
ĠO sc
Ġillus tre
Ġcomp lot
ĠPl ut
Ġ184 2
Ġgard es
ĠGir ard
r iller
Ġg ig
ouv ant
Ġ184 9
Ab baye
I L
ĠK re
Ġes prits
Ġmos quÃ©e
c is
s ance
ĠÃ© th
Ġmin er
ĠVi ol
Ġfu ir
oy e
ĠDos sier
ar abe
Ġti rage
tic itÃ©
ĠX II
Ġpat rimoni
ĠLis bonne
Ġgla ci
Ġpure ment
Ġa veug
Ġfleur is
ĠspÃ©ci alisÃ©es
Ġcoup les
Ġexist ant
g al
Ġexis tÃ©
ĠH Ã´tel
ĠgÃ© ographiques
Ġ185 3
Ġmonn aies
Ġliv rÃ©
T outefois
ĠU s
Ġ184 1
Ġglob alement
di le
Ġbombarde ments
re p
ĠÃ© ro
Ġqu ais
Ġcar ic
Ġintellectu elle
olic isme
ĠB BC
Ġfavor ise
Ġnoc es
ĠÃ©tro ite
Ġter ti
form ations
ĠFerr ari
n asse
ĠP riv
ph Ã©m
alis ant
Me use
Ġs aga
Ã©v ac
Ġappar itions
T ax
Ġs Ã©cur
ĠH end
Ġvie ill
Ġmuni tions
Ġanalys es
us sion
20 23
Ġind o
Ġautocht ones
ĠNath alie
ci um
ĠTou jours
ĠCri tics
Ġdiale cte
Ġtra Ã®
ĠrÃ©c ents
Ġdispos er
si g
ĠR al
ĠnÃ©g atif
: #
d ay
Ġp un
ĠF ur
Ġrou tiers
ĠMaj or
w iller
Ġb aies
19 10
ĠSh er
B ou
Ġpers u
Ġamen Ã©
Sta tistiques
ĠSuz anne
h ad
om i
Ġser be
ĠAd rien
ĠSc ar
install ent
B lanc
Ġex trÃ©m
ĠPau lo
Ġa Ã©roport
Ġg e
Ġpro stitu
ĠJ uv
Ġar d
Ġtrou ble
bo ok
Ġr ond
ĠCh asse
incl ine
Ġeng end
Ġ180 2
Ġidenti ques
ĠMont g
Ġp ant
Ġent our
Ġglob al
S Ã©n
Ġag ences
Ġcont enir
erg ue
ox yd
ĠD ess
C ou
Ġen s
ph Ã¨re
19 25
Qu and
ocal yp
ĠT ed
arrÃª ter
ense ur
aug uration
Ġmine ure
B M
d ote
idÃ© mi
ĠÃīc osse
Ġly onnais
Ġcar rÃ©s
Ġpres tige
ĠCom ment
ĠPlay Station
ĠHein rich
ĠS anti
19 22
ĠPer se
Ġmusulman e
c ents
Ġp is
Coll abor
ir ant
ĠG ermain
Ġcomp atri
ĠPar ker
sid ence
Ġperd ent
ĠinterprÃ© tÃ©e
l ante
ĠB od
Ar mor
ĠÃ©crit ure
193 4
Bel gique
Ġ184 7
Ġremplac Ã©s
Ġcarb urant
ĠTrib unal
Ġtou cher
hÃ© ber
ĠG am
ĠH ann
Ġpa iement
ĠBeau coup
mb ert
Ġrec ul
ĠcrÃ© ditÃ©
ot he
ill ent
ĠP akistan
Ã©m on
ĠnÃ©g lige
Ġpal marÃ¨s
Ġpersonn elles
Ġmor al
Ġcal me
ĠHain aut
19 12
az e
Ġprof ondes
Ġanim Ã©e
Ġan ime
Ãī lys
aill ard
si Ã¨res
Ġtrans it
ĠtÃ¢ ches
Ġcens ure
co ce
Ġrappro cher
F ran
ĠF ren
Ã©ra lement
Ġinter dite
ĠB res
Ġ0 1
ĠAc tes
l ong
ĠG un
Ġbud g
ĠH op
ip zig
ĠF il
ĠEd gar
oÃ¯ que
Ġprivil Ã¨ges
Ġpar rain
ĠS aintes
ad ers
Ġpuis sent
ĠVill ers
m ag
ĠB ug
ins tein
Ġsou mise
ĠMont mor
Ġfon te
oth Ã©rapie
Ġcr Ãªte
I r
Ġn utri
la vi
Ġaccep ter
ĠC elles
ĠD og
Ġe uros
ĠN ASA
ĠrÃ©c ent
oc c
Ġpart agÃ©e
Ġsyn onyme
Arg ent
Ġ iv
Ġb illets
19 26
eng agement
Ġe mm
mois elle
S ul
ĠS arthe
rie lle
Ġconstitu Ã©s
Ġ? ,
ĠP ub
ĠA D
w ich
ay es
Ġcou reurs
Ġprovo quant
ĠAnn ie
ĠK r
Ġexp rime
Ġsouff re
Ġs qu
el ay
193 1
Ġfisc al
Ġimmeub les
Ġfond ations
Ġsub ir
Ġdomin Ã©
Ï Ĥ
Ġ q
en i
it able
id o
ĠAb raham
Ġviol onc
ĠÃ©m o
Ġmi roir
en Ã§on
ĠR ail
Ġres pi
ĠErn st
ĠpÃ©ri odique
gue ux
RE AL
accalaurÃ© at
Ġs ages
ĠprÃ© limin
ras h
Ġsenti ments
ĠcÃ©rÃ©mon ies
H um
ĠL oth
Ġh ellÃ©n
Ġouv ertes
ar Ã©
Ġpar lant
is ent
ĠC C
ce y
ar z
Ġinter mÃ©diaires
Ġquin zaine
g io
rÃ© t
all y
Ġprof iter
Ġju ges
Ġdiv ine
Ġoblig Ã©
ĠChamb Ã©ry
Ġdram aturge
Ã¨ dre
Ġplate forme
M unicip
ĠCar ter
ĠcaractÃ©ris Ã©
Ġimpli quant
ĠÃ©gyp tienne
ĠC ris
Ġsitu ent
Ġparticip ant
Ġv Åĵ
ĠT Ã©m
Ġ183 9
Che z
Parc ours
g ers
w are
Ġco Ã¯n
ĠAnd y
ĠfrÃ©quent ation
ĠdÃ©fic it
Ã© par
ĠTh i
imm igration
ĠV ert
ĠOff ice
ĠD J
Ã©l or
af t
Ġclo ches
Ġh Ã©li
RÃ© alisateur
Ġchois ie
Ġobserv er
ĠAp ol
V ol
Ġ( *
explor ation
k ine
Ġ $
Ġtr onc
Ġpor tion
Ġatte ignant
Ġa idÃ©
ol n
m ons
ĠL ine
ĠL Ãł
Ġvot er
onn iers
Ġra ppe
Ch ris
ĠRo que
ĠJohan nes
H ug
in vention
ch ait
Ġgroupe ments
Ġbi ographique
ĠBe ach
Th omas
Ġch ants
tes te
Ġplan ification
Ġcommand Ã©
ĠGo ogle
isse urs
ĠM Ã©l
ĠK urt
Ġcos tumes
A dam
rou x
int ro
erb ourg
Ġrecru tement
Ġpropos ant
Ġali ments
Ġmess ages
Ġex ten
achus etts
F N
ti mis
Ġj a
Ġch utes
de ur
ĠH ell
ond er
Te chn
ĠC R
Ġoff rent
Ġinc on
ĠBar th
MÃ©di as
ch age
Ġest hÃ©tique
og ramme
ris me
Ġexp uls
ĠdÃ©tru its
Ġ9 7
Ã©rindi ens
r ar
Ġdistribu Ã©
Ġma Ã¯s
Ġsc rip
to inette
ĠprÃ©dÃ© cesseur
S aison
Ġcol lis
Ã©quipe ment
ĠMur ray
N aissances
ĠC och
A ction
Ġf ri
ĠexÃ©c ution
au le
ĠRuss es
Ġenvir onn
Ġd ense
ĠJ ung
ĠlÃ©g itime
it ra
ĠCl assement
ĠSal vad
Ġ183 5
odi um
Ġconform Ã©ment
Ġconfond re
Ġp omme
ad y
Ġmon oc
ĠY our
ĠBoh Ãªme
Ã©ri ens
Ġ 00
me aux
ĠdÃ©p loy
Ġadministra teur
Mon ument
Ġdauph in
a ussi
ĠJ ur
Ġpr ieur
Ġdu es
Ġrou main
ĠÃ©lect ro
Ġpatri arche
Ġpar venir
ĠÃ© tern
ĠM Ã¼
ĠJe u
Ġd ol
ĠM oun
ĠB rit
ĠF erre
Ã©p in
Ġess or
Ġconserv ateurs
Ġtest ament
Ġs ap
ari enne
ĠdÃ©p ens
ĠchrÃ© tiennes
Ġcinquant aine
Î ½
An n
Ġpsych ologique
au m
Ġw idth
Ġbap t
Â ²
19 23
champ s
ĠnorvÃ©g ien
ang o
Ġrou m
ĠBel fort
Ġprati quer
e reurs
ĠM ap
ĠM organ
os ter
ĠÃ©c late
ros se
Ġautre ment
ĠD ate
ĠBo ok
Ġtal ents
N U
ch ron
Ġenti tÃ©
al ia
ĠH ond
ĠMe yer
Ġ184 4
Ġacqu ise
Ġrapproche ment
Ġp oul
ĠH ome
Ġres titu
augment er
Ġartifici alisÃ©s
Ġfa usse
Ġcor n
Ġisol Ã©e
ĠT av
ort ation
Ġal lu
Ġsort ent
L i
ta ve
Ġlibre ment
ĠJuli ette
ĠL iver
Ġjou Ã©e
ĠOr dre
Ġenregistre ments
Roy al
ĠP rou
ph es
tot alitÃ©
Ġpart ent
ĠDire ct
ĠcontrÃ´ lÃ©e
f le
iss a
Ġjourn Ã©es
ĠrÃ©serv oir
Ġphon Ã©tique
ĠdÃ© ter
Ġra tion
Ġautor ise
effectu er
ve il
Ġin time
ĠI rak
Ġlib Ã©rale
Ġalg Ã©rien
ĠM old
av Ã¨nement
Ġfix er
Ġa ust
Ġmin istÃ©rie
L oup
Ġm Ã¨tre
ĠS Ã£o
Ġcon cession
Ġsal ut
Ġhom onyme
A V
Ġball et
ĠFig aro
Ã©ri oritÃ©
ĠRos a
ĠLong ue
b io
ame aux
land s
ĠAm is
ĠMin istre
ĠhÃ´te ls
Ã©ch apper
ĠSch ne
Ġriv alitÃ©
Ġperman ence
Ġsan ction
Ġv aincu
ab lo
ĠAl bum
acc Ã©der
Ġtravers ent
ĠWh it
Ġ å
Ġsupp ose
M ax
Ġp are
Ġv ainqueurs
Ġcompr omis
Ġhospital ier
se p
19 27
ĠRobert o
ĠimmÃ©di ate
aut o
las sement
n ord
intÃ©g rer
Ġv ain
ĠF emme
od rome
X V
Ġrestaur ants
Ġm Ã©tab
Ġch ass
ĠUn icode
H istor
ĠL ens
ĠN oirs
Ã©t al
Ġnaz is
ĠG ames
Ġpro to
Ġconstitu Ã©es
ĠHar ris
m itt
is l
Ġparti tion
bre r
Ġro cher
Ġexpos Ã©s
ĠrÃ©glement ation
Ġchrom os
Amer ican
ĠtÃ©lÃ© communications
pra iries
as o
Ġro be
V i
ĠdÃ©t ourn
ĠDou ble
Ġrend us
u des
ĠÃ© cu
Ġcont ent
erg ure
Ġdivin itÃ©
il an
og l
ĠV olume
Ġ18 21
eng ager
auc un
ĠG rÃ©
Ġob tint
Ad our
Ġcon vers
Ġfor tifiÃ©e
ĠChris ti
Th Ã©rÃ¨se
Ġattent ats
Ġto iles
ĠCon rad
ĠCap it
ĠpÃ©n Ã©t
Bat aille
k u
ancien nes
ĠamÃ©n agÃ©
ĠThaÃ¯ lande
ĠG lor
Ġrou tiÃ¨re
ĠmÃ©t alliques
Ġa ime
Ġb ro
ĠÃ©limin atoires
ĠpÃªche urs
ĠidÃ© al
Ġsolid aritÃ©
Ġgalax ie
Ġc rain
ĠF ourn
ĠG our
fÃ©r ant
adi er
las h
ĠPhilipp ines
ier ra
rig ues
D ire
Ġg Ã¨nes
ĠF ro
ĠDou ai
ĠCN RS
ra ce
el er
empl aire
Ġmultip lication
Ġde bout
ĠM itch
Ġsour is
Ġru ine
Ġal sa
En g
Ġkilom Ã¨tre
ĠlÃ©gisla tif
Ġfabri quer
Ġad hÃ©r
ĠCar aÃ¯
Ġintellectu els
che ur
Ġaff ili
ĠPÃ¢ ques
ill ette
ĠO per
ĠDi ane
Ġcomplex itÃ©
Ġinvent Ã©
Ġg out
ĠD ah
acc ompagn
Ġpl ats
An im
ĠdÃ©lÃ©gu Ã©s
Ġrenv oie
Ġdoig ts
ins titution
Ġmag ie
appar aÃ®t
ĠÃī dition
An th
Ġoff ensive
Ġfonction ner
Ġgrec ques
ĠarrÃª ter
ĠÃ©gyp tien
Ġcom tÃ©s
ĠG ay
ue ux
Ġces sÃ©
Ġsp Ã©c
ĠPe y
ĠIs aac
Ġoc cupation
Ġass ist
Ren Ã©
appro vision
h ire
az ar
ĠlÃ©g endaire
ĠFI FA
Ġconsid Ã©rant
ĠdÃ©v o
ĠMore au
ff er
ĠBar on
Ex emples
ĠPal Ã©
Ġcomment aires
Ġl uc
ĠS alle
Ġg ain
ĠA Ã©roport
ĠprÃ© vision
Ġsignif icatif
lo que
Ġref roid
Ġprofessionn elles
en aires
ĠB ase
ĠMal te
ĠStock holm
'' ,
Ġtab ac
Cal Ã©donie
ar istes
oph on
Ġdev ra
et hn
Ġop tim
Ġca ve
Ġeffectu Ã©s
ĠLar ry
sen al
m ers
ĠC ob
li b
Ġj adis
ĠA ires
ru guay
ĠL ois
ille ur
Ġex amen
Ġass urant
Ġconc entre
Ġtri o
Ġlev Ã©e
F l
is ch
Ġb ul
Ġimp osÃ©
ĠrÃ©gi ments
ĠT rÃ©sor
Ġpri or
Ġm ers
ĠbÃ¢ tie
op rano
ĠE urop
ĠCar te
ĠSte in
Ġf oul
our ir
ac ture
ĠMor in
hor reur
m oi
lin ois
Ġinves tissements
hÃ© on
ĠFe der
ĠDum as
ordin ateur
ob ie
int ensitÃ©
Ġreconn us
ĠrÃ©par tie
ĠrÃ© chauff
Ġmondi aux
e ctions
ĠTur cs
ĠprÃ© m
ĠfrÃ©qu ences
Ġpass Ã©s
ĠNouv elles
Ġjuri diques
us que
ĠCl int
Ġfusion nÃ©
Ġescal ier
B ande
am Ã©n
ĠGir l
Ġethn ique
Sy stÃ¨me
Ġincor por
Ġeng agÃ©s
tta wa
Mari times
ĠrÃ©glement aire
ĠPoli ce
ĠsystÃ©matique ment
ici lement
Ġcomporte ments
Ġbaptis Ã©e
ag Ã¨res
P uis
Î ¹
ach im
Ġquel conque
Ġvag ues
Ġg orges
Ġom n
F ont
Ġh all
ĠV ig
ins urrection
Ã©c lai
Ġvari Ã©s
ĠRob inson
ĠrÃ©un ions
ĠÃ©pous Ã©
Ġm ad
Ġprogres sif
Ġcrist al
B er
Ġsuff rage
Ġsex uel
Ġin tellig
ĠOsc ars
R ich
S E
h op
ĠMig uel
ex amen
Ġali as
exploit ations
D ou
ti bles
le my
ĠT oy
ov ic
Ġconc urrent
Ġinst ance
ĠtÃ©lÃ©char gement
M aire
ri um
Ġ18 25
Ġrend ue
ĠL inc
ĠprÃ© side
ĠdÃ©si gnation
Ġratta chement
Ġott om
ĠS orbonne
ĠP ow
Ġrev Ãª
ol Ã©e
Ġmo bilitÃ©
Ġsou lÃ¨vement
ĠprÃ© coce
ĠArn old
ĠDub lin
ĠRel igion
ĠrÃ©guli Ã¨res
Ġcla vier
f ried
ĠP am
B o
ĠF N
Ġ[âĢ¦ ]
ĠB y
Ġ7 00
Ġdou leur
Ġcir que
Ġsin on
Ġincar nÃ©
Rou ge
ĠCh ac
Ġloc u
Ġf oyers
ab ond
Ġau d
Ġmiss iles
ĠB ard
Ġcompos iteurs
om en
ĠE is
ĠCor ne
Ġdemand ent
olÃ© rance
ĠL ight
ĠF ili
Ġaccord Ã©
on ais
ĠE ver
ob s
Ġdiff icilement
19 00
Ġimp rÃ©
ĠdÃ©grad ation
A B
ĠVal ois
urg ique
ĠTex te
ĠSimp son
ĠP ros
ak u
T R
at tent
Ġman Åĵuvre
Ġsucc Ã©dÃ©
ĠC ours
ĠW im
ĠlÃ©gisla tive
Comp ositeur
ĠFernand o
Ġex tÃ©rieurs
Ġchap ite
Ġlente ment
lis s
Ġrep li
ĠLu igi
ĠmatÃ©rie ls
h ier
ĠâĢ ¦
ian i
Ġl oy
ch s
ĠP lÃ©
ĠF en
19 13
utilis ateur
Ġpsych analyse
ĠrÃ©comp enses
c ast
u or
alais es
Ġ183 4
Ġdemand ant
ĠCh av
Ġses sion
ex emplaires
Ġtrouv Ã©s
ĠMc G
Ġremont ant
ĠcommerÃ§ ants
M i
Ph ilos
Ġsomme il
Ġd ir
us cule
Ġchron ologique
f ranÃ§ais
ĠrÃ© tic
ĠTh om
Ġeng agÃ©e
I X
ad ron
aiss es
ĠmolÃ©c ule
Uti lisation
av ocat
lan e
Ġcor de
Ġred ou
ĠcÃ¢ ble
M ac
t tes
ĠÃ ģ
ĠC alais
Ġfonction naire
ĠBos nie
Ġorthod oxes
Ġlour des
effond rement
Ã© miques
ent r
Ãª ve
ĠĊĠ ĠĊĠ
tern itÃ©
implant Ã©es
re aux
el i
ĠW ork
ĠAra bes
Ġunif orme
ĠEuropÃ© ens
ĠGeoff roy
Z ones
ĠG P
if er
ĠVal Ã©rie
ĠvÃ©rit ables
ĠE ditions
Ġchasse ur
Ġtub er
u Ã©s
z in
Ã©ro ving
oll on
ĠMan h
Ġrach at
ĠD roit
ĠF itz
ing o
ĠDan ube
Ġcalcul s
Ġsou lign
Ġman ne
ĠentraÃ® ner
Ġruis seaux
Ġrefus ent
ĠApp le
et ter
tis seurs
erg ent
Ġassi Ã©g
ĠBerger ac
Ġtraject oire
r ing
ocra tes
ĠR yan
ĠF L
av y
ĠcomÃ©di enne
Ġh Ã©ritage
ante au
ĠIn g
ĠLaw rence
r or
ĠL ast
ib us
Ġapp orter
Ġmondi ales
ĠLin ux
T ous
Ġvol er
=" #
omp son
ĠÃ©ch apper
Ġsurviv ants
ĠO tt
Ġfix Ã©e
Ġfores tier
ĠLe ipzig
ĠTh Ã©rÃ¨se
Ġdistin cts
Ġcu ir
Ġconcurr ents
fes sionn
hÃ©ber gement
an tisme
ĠW is
ĠCo oper
ĠFontaine bleau
Ġmas que
ĠSar re
Ġla v
as i
ĠSe ul
ĠCap itaine
Ġdocument ation
ici enne
ex tra
Ġass urent
ĠBro ok
Ġbyz antine
lÃ¨ tes
Ġent endu
ur Ã©es
Ġb Ã©tail
ĠF an
Ġanim ateur
humi ditÃ©
Ġcon nec
ĠrÃ©p lique
Ġth Ã©rape
Ġgal eries
ĠcollÃ¨ gues
Ġc ig
ĠÃ© te
ĠT omm
Ġh ard
ame au
Ġpseud o
Ġb and
ĠdÃ© lai
ta d
ad uc
Ġcar oling
Ġcr yp
C at
ĠG ris
ĠFrank lin
Op en
Ġnarra teur
ĠdÃ©n ombre
ovi d
Ġpri oritÃ©
en cier
ĠLe clerc
M E
im ages
Ġtransport er
el o
18 71
190 5
p res
Ġchron iques
ĠN an
Ġad met
Ġloc alisation
Ã©cos l
ac a
Ġcan alisation
Ġamb assadeur
Ġa is
Ġpermet tra
off s
in telligence
ĠM ine
Ġob tiennent
Ġno tÃ©
man e
Com te
ĠNorm an
Ġ osc
Ġcar rÃ©e
Ġsign aux
ĠprÃ©f Ã©rÃ©
ĠsÃ©p arer
ĠB Ã©th
ĠG aul
iv a
Ġam oureuse
th ier
ĠsÃ©rie ux
Ġd ragon
qu Ãª
Ġsac rÃ©e
ĠfrÃ©qu entes
ĠsÃ©v Ã¨re
ĠC ard
emp Ãªche
Orient ales
Ġprestig ieux
r ure
Ġc aisse
un ier
Ġtr ous
ĠdÃ©c ap
ĠMo on
Ġph ara
Å ¾
z at
ĠprÃ©c ieux
lov aque
D ess
Ġt rim
Cont rairement
C yr
An t
Ġmort alitÃ©
pe ction
onc Ã©s
ĠRe y
Ġrest ri
iden tification
E rn
Ġs quel
ĠsuÃ©d oise
te ls
Ġhistorique ment
Ġcompar able
Gen re
Ġan at
Ġfond ent
Ġtermin us
AN C
Ġmot o
S te
Personn ages
indi ce
S imon
Ġcommun ales
Ġprati quÃ©
h ir
ons o
S Ã©bastien
Ġg rÃ©g
ĠH ub
ai m
Ġir landaise
g art
ot tes
ĠRe in
ĠBar be
Ġroy aux
r d
ou rage
ĠM all
hi z
Ġcroiss ant
Ob serv
ĠNarb onne
m Ã¨tres
r ui
An dre
c um
Ġa ile
t our
ĠP UF
ĠT omb
Ġoff ert
ck er
ĠChall enge
; "
a igu
Ġcell ulaire
l oc
Ġd ons
ĠS ue
ert y
Ġphilosoph es
Ġc ann
ĠMan oir
Ġtempor aire
Sau veur
Ġb gcolor
Ã´ tre
Ã©p aisseur
Ġjoue use
Ġrel Ã¢
alog ique
Ġoff rir
ĠÃ©qu ilibre
OT AN
c ock
Ġt ric
ĠI gn
lac es
ĠrÃ©pand ue
Ġgross es
Ġg este
ĠB ack
Ġcar bon
Ġint roduction
ĠDÃ© si
ĠbÃ©nÃ©f ice
Ġaux ili
ĠAng ers
Ġa us
uss ie
Ġviol ent
Ġpyrami de
ĠB enn
Ġk h
oot balleur
ĠcaractÃ©ris Ã©e
ĠJuli a
ĠtÃ©l Ã©s
ĠLiver pool
Ġp ent
ĠCl aud
Ġcolon ial
ĠsÃ©par Ã©e
Ġconsta mment
ĠR ER
alis ations
Ã©l ine
L ib
Ġt unis
ĠL itu
ĠB aker
ĠMont auban
ĠVol taire
un y
Ġv os
ĠK iev
Ġren ouveau
Ġrend it
Ġprom ul
ĠÃ©dif iÃ©e
Ġc Ã©der
Ġj unior
Ġan tis
Ġbat tue
190 8
Ġtril ogie
Ġcon ducteur
ĠG las
aul d
y Ã¨re
Ġimag inaire
Ġbr Ã¨ve
Roy aume
Ġin tr
or al
ul u
Ġinst alle
Ġmodern isation
V ienne
Ġ18 10
Ġconn ut
ritann ique
Ġpour cent
Ã© a
Ġpens ent
ĠLÃ© o
ti al
ar tic
ĠSalvad or
ĠNew ton
appar ence
Ġintercommun alitÃ©s
Ġj onction
itu des
od acty
Ġmass es
F ils
ĠS ound
Ġg olf
mis tice
Ġexig ences
ĠMar ion
Ġb accalaurÃ©at
Ġcons onne
amp h
ĠMont fort
ĠHos pital
ital ien
Ġnor dique
ĠrÃ©pand u
Ġordin ateurs
Ġf raÃ®
Ġex tÃ©rieures
Alexand rie
ĠC reuse
tu es
An at
ĠP ris
ĠV illiers
par nasse
comp ositeur
c ro
Ġl ot
Ġquel qu
ap est
Ġfl Ã»te
ĠL oup
iss aire
ĠscÃ©n arios
ĠhÃ©b erge
ĠOli ver
ĠB ologne
Ġsouter rain
ĠspÃ©cifique ment
ĠLis a
ĠFir st
Ġspec tre
is tait
Ġn et
Ġfin issent
ĠSal omon
O h
tiss ant
Ġdi oc
Ã± a
ĠGall ery
Ġren oncer
Ġposs Ã©der
ĠD ro
Ġtoul ous
ĠdÃ©s astre
ĠComm on
g y
est on
ap o
iÃ¨ te
ron ic
og en
Ġac tivement
Ġcla viers
Ġdon jon
ur in
les se
ut o
Ġat omes
ĠAb del
Ġrece v
Ġcoord ination
ĠcongrÃ© gation
l os
ĠL umiÃ¨res
ĠW es
Ġdemand es
ĠMaxim ilien
ĠM ille
az ines
Ġrur ales
Ġenregist rÃ©e
amb a
b org
ĠSard aigne
ĠS che
Ġindi quÃ©
ĠF ron
vi de
ĠGrand es
ad hÃ©sion
vent ure
Ġappar ence
ĠsÃ©par Ã©es
Ġattribu Ã©s
Ġsing ulier
Ġmat uritÃ©
ĠdÃ©pend ent
Ġtou chÃ©e
Ġcompos antes
Ġstru ct
M ade
Ġs tÃ©rÃ©
ĠC ovid
ant enne
Ġ18 12
ĠRo han
Ġconjoin tement
ph ant
Ġbass iste
ĠrÃ©tab lir
s ky
Ġj eter
Ġord onnance
font aine
ĠLinc oln
F R
ĠT rist
Ġra dar
ĠÃ©dif iÃ©
Ġtax es
ĠN em
Ġsou ci
Ġmen Ã©s
ĠPÃ©ri gueux
ĠpÃ¨ler ins
Ġsymph onique
gu Ã©
ĠGri ff
ĠPro t
Ġgraph iques
fin ales
ĠCom tÃ©
L u
Ġin tÃ©rieures
ĠNe vers
ĠâĶ Ķ
Ġreli Ã©e
Ġoppos ants
Ġaqu atiques
au er
Ġcon quis
ate d
ĠSociÃ©tÃ© s
Ġconfir mÃ©e
Ġtur que
D avid
imp Ã´t
ĠdÃ©c om
Ġcr Ã¢ne
ĠBrab ant
Ġsol itaire
Ġcor po
1 20
z et
Ġb erb
Ġs arc
ĠT aÃ¯wan
ĠsÃ© lec
Ġpublique ment
ĠCamp bell
w al
H ipp
ri o
Ġgrot tes
ĠR ie
Ġcr ypt
Ġvi ole
Ġrappel er
ĠÃ©ch elles
ĠlÃ©g ers
ĠSh aw
Ġvis uelle
aune uf
ĠdÃ©ten u
Ġal ter
Ġchap itres
Ġaccue il
Ï ģ
ou ge
Ġf olie
ĠL ic
ĠB uck
ĠGu inÃ©e
Ġv amp
Ã´ ture
ich i
ĠXV Ie
Ġappare mment
v ins
ĠT a
ĠTh ompson
ist ol
ĠPeu geot
Ã©clai rage
tu ellement
ve iller
tu aires
Ġmar Ã©c
Ġpand Ã©mie
L ar
b ad
C lassement
ul aritÃ©
ĠChe f
| }
ĠL it
Ġdisc ussion
Ġf Ã»t
ĠA ustral
Ã©v ÃªchÃ©
Ġmand ats
ĠSatur n
ĠP alis
19 11
Ġbulg are
k ir
arg ile
ĠH at
ĠprÃ© venir
Ġ18 24
Ġpos Ã©
ĠSqu are
otyp es
Ġdro gue
Situ Ã©e
Ġb os
Ġin Ã©g
Ġapp ell
ĠdÃ©mont rer
premi Ã¨re
ti p
ĠSe bas
ĠÃ©d iteurs
ĠRap haÃ«l
Ġcontro verse
Ġd resse
ĠF iche
ĠprocÃ©d Ã©s
Ġtac tique
c iel
st res
Ġag ence
Ġvie il
ern ier
Ġindispens able
ĠLaur ence
ann on
Ġren dement
ĠMat th
ĠAnti lles
Ġst ar
ĠSta te
Ġfau bourg
I lle
ĠS ign
ct orat
urb anisation
ĠÃ©criv it
effec tue
Ġvar ier
Pos tÃ©ritÃ©
rom ain
Ġfestival s
ĠNam ur
A y
Ġin hab
imp Ã©ratrice
Ġatta quer
ĠapprÃ©ci Ã©
Ġasi atique
C N
C atherine
ĠO ise
Ġtrans c
iz iÃ¨me
Ġtransform ations
ĠOb serv
ui er
ĠrÃ©f lÃ©ch
Ġcit Ã©e
ĠConst ance
Ġajou tant
a ques
Ġb oy
ĠR im
Ġop tion
Ġbi ologiques
Ġcalcul er
ĠL ing
Ġno v
Ġdisc ussions
ĠMet al
Ġchant er
Ġp ommes
Ġex ces
mer sion
guer res
v ise
Ġm Åĵurs
ro po
Ġ18 28
az ote
Ġfaill ite
Ġp it
ĠC lem
av el
ĠLÃ©on ard
ĠH orn
19 15
ĠSyl vie
Ġconf luent
op ol
ĠCh erbourg
Ġac cess
Ġdis ant
Ġgar an
Ġsang u
ĠDÃ©t roit
P resse
ĠA im
ae us
Ġtermin ent
Ġextra ordinaire
ĠMoh amed
Ð ²
ĠJ in
ct Ã©e
ĠAr ticle
ĠJu illet
A A
k el
ra ble
Ġor ale
ate ll
Ġcou tume
Ġpresby tÃ¨re
s ac
at he
ĠV ia
Ġcons tellation
ĠLib rairie
Ġral enti
Ġcerc les
ĠVenez uela
ĠFran che
Ara bie
Ġor ange
Ġapp ropri
thÃ© lemy
Ġcath olicisme
ĠprÃ©con isÃ©es
ĠC and
ĠK it
Ġmin Ã©raux
Ġsucces seurs
ĠBra ss
ĠTrin itÃ©
ĠKle in
Ġfer rÃ©e
Ġexpos Ã©es
as ia
ul tures
Ãī tudes
ĠBu enos
ĠWh o
Ġsauvet age
ĠC lair
ta h
Ġinstall ation
Ġm utation
Ġn id
ĠCamb rai
ĠantÃ©rie ures
Ġcend res
Ġentre tient
Ġesp oir
ĠgÃ© ologie
ĠC ine
Ġpro jec
ra ult
uss y
Ġemploy Ã©e
Ġsouff le
tr um
Ġindi quer
Ġfl amb
ex c
ĠAnn ales
auc une
v ine
Ġren seignement
Ġretr ans
Ġcriti quÃ©
Ġatt endant
ĠSte wart
ĠAug ust
Ġoblig ations
Ġray onnements
G illes
Ġla g
ĠA yant
Ġts ar
Ã© checs
ĠMatt hew
ĠM oulins
aill ant
Ġagric ulteurs
Ġpoly technique
G P
ĠB rive
Ġal lÃ©g
rois sement
Ã©di ction
ĠRÃ© forme
ĠMarian ne
S uisse
Ġg es
ĠAr te
k ers
ĠA S
vel t
Ġpisc ine
ĠC S
Ġh Ã©s
Ġsou lig
k an
An gl
ro ck
ĠdÃ© rivÃ©e
ul Ã©es
ĠmÃ© lo
le g
Y ork
li us
ĠmÃ©tropol itain
Ġessenti elle
Ġmanuf act
ĠMarc us
car tes
G A
ar ist
ĠL ov
Ġin tention
Aff aire
ĠH ers
Ġavanc Ã©e
ĠMc K
Ġh er
Ġco que
ess ence
Ġsupp orte
H on
v Ã©n
Ġpr estation
Ġcoup es
Ġvoc abulaire
dem n
ĠL ui
ĠT rophÃ©e
id ent
Ġchim iste
Ġsuffis ante
haus en
Ġcog ni
Ġp Ã´les
ĠS as
ĠT as
ab ou
Ã©p Ã©e
Ġdess erte
Ġanim ale
ĠPa olo
Ã¨ des
ĠC ole
au be
ĠK ol
Ġviol ente
ĠTer ry
Ãīv Ãªque
ĠHar vard
y ch
te uil
ĠrÃ©s ister
ĠrÃ©serv Ã©e
Ġal lusion
00 00
ĠdÃ©b utÃ©
Ġfoss Ã©
ĠV erg
ĠDe vant
Ġ ultime
si ca
19 17
ĠAv ignon
g roupe
Ġdonn Ã©s
ili o
ĠmillÃ©n aire
ĠvÃ©gÃ©t ales
Ġaffir mant
igh ts
Ġtrans mettre
Ġviol ences
ĠGra ham
Ġnavig ateur
Ġdu el
Ġpr ouver
ct o
Ġag ran
Ġinform atiques
Ġcollabor ateurs
ĠAdam s
S an
tin ation
Ġapparten u
ĠRÃ©s umÃ©
ĠÃ¢ gÃ©es
ĠvÃ©rit ablement
Ġsol ides
Ch ronologie
ĠcollÃ¨ ges
b ord
an ches
Ġconf ier
ĠMor bi
ĠV erc
Ã¯ des
ĠCor b
acc Ã©lÃ©
ĠconsÃ©cu tives
Ġb oc
ĠN os
ik h
ĠRec ord
ĠLi u
A fin
est ern
ĠM ovie
Collabor ateur
Ġimm at
ĠprÃ©cÃ©d Ã©
ĠNeu chÃ¢tel
H or
Ġdivin itÃ©s
et tre
ĠY an
ĠPl on
col onel
190 6
ĠMul house
in itÃ©
Ġaff iche
ĠnÃ©g ative
ĠBrig itte
Ġd ose
an ime
ĠP L
ĠMich Ã¨le
Ġress or
Ġimm un
Ġang les
Ġlyc Ã©es
Ġavanc Ã©es
A lex
Ġl Ã¢
ro que
ĠD as
Ġav ons
ĠMÃ© dec
Off icier
Ġcyc les
Ġch air
obl ast
b ule
Ġspiritu elle
ĠvidÃ© os
Ġgrav itation
incl in
ĠT osc
Ġsp ons
hum our
Ġc oton
Ġf aces
ĠH aÃ¯
ĠMax ime
ĠE th
ĠindÃ©pendant es
Ġfir me
H erm
ĠdÃ© pose
uti litÃ©
Ġvie illes
vre ux
Ġtrah ison
Ġplaf ond
ĠD anny
Ġan ge
Ġex tr
Ġex emplaire
ĠCh inois
ec tor
Ġdis sim
Ġs oul
Ġex haus
ĠAn cien
Ġorganis er
Ġitalien nes
ĠopÃ©ra teurs
Ġcos tume
Ġsusc ite
Ġnoctur ne
ĠsÃ©min aire
ti st
Ġapp ortÃ©
Ġconsac rÃ©s
adap ter
Ġmens uel
Acc ueil
Ġsing les
È Ľ
ĠmÃ©n age
ĠSpir ou
ĠY u
Ġag res
ĠFor um
ogn ac
Ġm ondes
Ġfall ait
J oue
ne z
Ġre par
190 7
ĠNeu illy
Ġac cidents
ĠX i
ĠcÃ©lÃ© brer
le u
Ġin vers
Ġpron onciation
ĠdÃ©mont re
G ab
f l
ĠP aix
Ġh aine
Ġconserv Ã©es
emb ouchure
ĠT N
Ã©ra it
Ġcl Ã´ture
Ġnorm and
Ġcentr alisateur
ĠA gnÃ¨s
ik o
ĠG ross
Ġbar onnie
omin al
ag Ã¨re
ach Ã¨ve
ĠrÃ©un ir
ĠDur and
oblig ation
aÃ® tra
ĠBlan cs
Ġfranch ir
s auf
Ġemp ereurs
Ġproc lame
Ġtrouv aient
Ġarm Ã©s
Ġlance ur
b ourne
Ġmar ty
erv ais
ĠFont enay
oul t
Ġtend ances
Ġsoup Ã§
ĠS D
Ġsupp lÃ©
Ġvoy elle
Ġstat u
Ġqualif iÃ©e
B I
Ġs pe
vi ol
Ġsec s
ĠFor est
Ġintro duite
Ġenseign ants
Ġvo tre
Ġrappel ant
Ġm un
190 2
Ġimplant Ã©
ĠMex ico
Ġt ol
Ġat titude
Or chestre
Ġla iti
ĠB lu
ces sions
ign it
Ġtox iques
Ġnerve ux
og a
is ta
Ġnouv ellement
Ġcos m
mb er
ĠrÃ©g ulation
Ġno tions
Ġestim ations
ul at
Ġ15 00
opota mie
us ch
Ġb ref
ĠprÃ©sid Ã©
har monie
Ġfid Ã©litÃ©
ĠdÃ©cis if
aff ich
Ġanim ales
n ais
ĠMar in
Ġprob lÃ©
Ġ[ ...
ĠG ot
Ġorigin el
ĠVict oire
appu yant
tol Ã©m
ĠO S
ĠRe b
ĠdÃ©termin ant
Ġsurn ommÃ©e
ĠcomplÃ© ter
elli p
ĠLour des
ĠT erm
th a
ĠDub ois
Ind ustrie
ar riv
Ã©d it
ĠGi org
ĠBud apest
190 4
Ġimplant Ã©e
d ine
ĠBul l
ĠÃ© checs
pp o
Ġcop ies
Ã©limin ation
ĠMorbi han
l yn
ĠrÃ© organisation
Ġfondament al
adel oupe
u age
ĠV anc
iÃ¨ gne
190 9
F ootballeur
ĠF air
ĠGu Ã©
ĠspÃ©ci alitÃ©
Ġfabric ant
ĠB agn
onne c
Ġemp re
ĠDam as
v ance
Ġaccord Ã©e
Ġp ond
ĠprÃ©al able
Ġforc Ã©ment
ĠManh attan
Ġvertic ale
f aite
ic z
Ġflam and
Ġcroy ances
ĠLaff ont
ĠSanti ago
ĠV erts
Ġat tention
Ġanti cip
Mil itaire
Ġnaz i
v illiers
ĉ Ċ
le ments
Ġex trÃ©mitÃ©
ĠW o
int h
ud son
ĠRÃ©p ublic
ĠdÃ©clar ant
Rep rÃ©sentation
el ine
ass istance
18 70
Ġad joints
ĠDi am
ĠÃ©volu tions
il ote
Ġf lex
im meub
Ġfores tiÃ¨re
ĠdÃ©f i
Ġbapt Ãªme
ĠS Ã©ville
Ã¯ se
Aub in
an os
Ġm Ã©rite
Ġexp ansion
mar ins
ĠMoz art
or be
ch us
ĠR aj
ĠW ith
Ġ18 27
ĠintÃ©g rer
acc ro
Ġmari ages
Ġdessin Ã©
jon ction
Ġadop ter
ĠmÃ©ta morph
Ġrecouv ert
d ha
on iens
Ġmen aces
ÅĤ aw
ajout ent
is a
ĠSymph onie
U l
di x
ĠG T
ĠRoy ale
Ġly rique
Ġcent er
ĠEl li
Ġf iefs
ĠG ru
Ġr us
crit s
IN S
Ġja unes
Ġn er
Ġfin aliste
ĠdÃ©t roit
ĠrÃ©habil itation
Ġs ocle
or ama
ins p
Ġprimi tive
ĠMontmor ency
in aires
ĠdÃ© pe
ob iographie
ĠdÃ©termin Ã©
Ġpleine ment
h erb
ĠB aie
os ta
emp orte
ĠÃ©quipe ment
ĠthÃ©olog ien
ĠdÃ©sign Ã©e
B ilan
z io
Ġe d
Ġtra ductions
ĠDire cteur
Hen ry
Ġabrit ant
u al
Ġdiplom atiques
ĠL ass
ce v
Ġpl ainte
ĠG is
ĠG ol
and ra
Ġsoci o
Ã©lect rique
ĠMod ern
ĠBeat les
l ois
ang ile
j oux
Ġp aÃ¯
ou ches
hab itude
Ġsusp endu
ĠdÃ©f av
Ġbi o
Ġnot ation
Ġflu ctu
ĠpÃ©riph Ã©rie
M es
Ġs am
Ġconf orme
oris er
190 1
re lie
ĠL el
D C
H Ã©lÃ¨ne
Ġc um
Ġdiale ctes
us c
ĠN ak
emp arer
appel ait
Ġcroy ance
ĠdÃ©cis ive
Ġf oc
tic al
ĠCastel n
DÃ©b uts
ĠC E
ĠD ates
Ġdirect rice
ĠH Ã©ra
Ã©ro sion
Ġlit torale
ĠBÃ© atrice
k on
ĠG rig
ĠPar adis
en cl
ĠR un
Ġpro ie
Ġmarqu Ã©es
Ġpor n
Ð¾Ð ²
Ġs print
Ġf oire
ill Ã©es
atta quer
ĠsÃ©lection neur
f aire
ob tention
Ġconf is
ĠbÃ©nÃ©fici ent
ĠM it
ĠPro f
ĠGar nier
chest ra
I tal
ori um
vers aire
ĠNouv el
ath on
Ġbar riÃ¨re
ĠT all
Ġra tio
ĠC af
Ġvis iter
Ġcach Ã©
Ġapproxim ativement
u vi
ĠO st
Ġcanton ales
Ġcal if
le au
Ġregroup Ã©s
189 8
ĠvÃ©c ut
ĠW he
Ġâ Ħ
ĠÃ©lector ales
ĠA M
Ġmon g
Ġcor rection
oue ment
Ġrela te
ĠB out
ĠLa ura
ĠSaint s
Ġc ure
Ã©n iens
nov ation
R Ã©p
Ġv entre
ĠBoy s
Ġjamb es
in auguration
ĠEn t
ari es
Ġ180 7
Ġregroup ait
Ġgran di
Ġportug aise
Ã©r one
ĠW as
ĠfaÃ§ ades
Ġaltern atif
ĠO range
Ġcons istant
ĠCaraÃ¯ bes
ĠS aison
Ġh ind
ut ant
ap an
Ġ18 16
Ġesti ment
Ġimpli quÃ©
ĠsÃ©qu ences
ĠLoz Ã¨re
ra ison
ĠA miens
Ġre mer
ut t
Ġ18 22
ach i
Ġord onnÃ©
Ġ179 8
Ġcher chent
oy age
Ġmin Ã©ral
ĠMath ilde
ĠSylv ain
< /
Ġ oiseau
ĠM ant
ĠP es
id Ã©es
Ġpart ager
Ġoccup Ã©s
Ġcontribu ent
Ġcyc lisme
ĠrÃ©vÃ©l ation
Ġcha peau
ĠK or
ĠDe ath
Ġpres sions
ĠÃ©qu ations
Ġsan itaire
Ġfres ques
im ar
ĠW right
emp Ãªcher
Ġco in
am oto
tin o
Ã©c riv
Ġinter ventions
Ġsoci alisme
Ġcomb inÃ©
ĠmÃ©dica ment
H S
S ub
ĠÃ© ru
op us
Ġvoy ant
ĠT ac
ic ie
cep t
Ġexplo itÃ©
Ġar ra
Ġag it
Ġsubs istent
rÃ© rie
ĠS tudi
Ġfor cÃ©
iÃ¨ rent
Ã©t rie
ia de
eff ort
erre ur
ĠH ommes
Ġrec ouvre
Ġgrande ment
ĠrÃ©sid ents
ĠFac ultÃ©
il is
uti lise
Ġsy l
Ġcour rier
er d
ent end
ĠF av
Ġvers ants
ĠĊĊ ĠĊĠĊĠĊ
F aune
L or
ĠdiffÃ©r entiels
UE FA
ap our
Ã§ u
Ġph yt
Ġpass ait
Ġaband onner
Ġguer riers
H el
ĠSc ot
Ġtab l
Made leine
P rog
is tÃ©
ar isÃ©
ĠO h
ĠÃ©tabli es
Ġtempor airement
Ġaf ro
ĠL ig
ĠM oul
Ġnour rir
ĠcÃ©lÃ©b rÃ©
om al
On tario
ĠdÃ©velopp Ã©es
Ġreli Ã©
ĠDÃ©c ors
ĠchÃ¢te llen
g ate
ĠS lov
erg ers
ĠdÃ©mocra tes
Ã©cosl ovaquie
Ġre lan
ac le
mi a
Ġor ph
In ternet
Ġcer tific
F ranc
Ġp ire
Ġes tiv
Ġser pent
g ger
ĠrÃ©par ation
ĠLu ci
ĠFant asy
Ġaffron te
Lou ise
Ġche vet
Ãīc ologie
Ġfabri quÃ©
Acc Ã¨s
int rigue
Ã©li en
Ġorgan iques
ĠrÃ© si
ad ou
Ġcoup able
ĠNew s
Ris que
ĠTre k
RÃ©s umÃ©
ĠSois sons
l ang
ĠM ang
ĠV ass
ĠCl au
A ul
b u
ĠC I
Ġ180 3
ĠdÃ©te ction
ou i
Ġmus cle
ĠtÃ©lÃ© g
Ġvo tÃ©
Ġcatal an
V oici
ĠW ang
ĠBob by
ĠMarg aret
ĠDern ier
ous er
ĠTour isme
ovi Äĩ
Ex emple
Ġgall ois
ch ange
ĠS M
Ġd ie
Ġv Ã©l
ĠH off
Ġrest ait
ĠpÃ©n al
Ã¤ r
Ġdictat ure
and in
Ġb uste
ĠcrÃ© atures
ĠSt ation
b ro
ut ur
uis ine
min es
ĠdÃ©mont rÃ©
ĠCarth age
ĠB ouv
Ġ3 60
ĠSh ah
T ou
U s
ĠL umiÃ¨re
me ur
ĠR ode
ano ines
ĠLor ient
Ġcoeffici ent
Ġcap tivitÃ©
gn on
Ġcoup er
fer me
ĠS oc
Ã¡ r
Ġautom obiles
Ġs erre
ĠgÃ©n ocide
ĠJo an
ĠCo hen
Ġjud aÃ¯sme
is phÃ¨re
ĠD Ã©b
ak o
Ġmi di
Ġd og
ou illes
v int
ch ot
ĠH ob
Ġac oustique
Ġob Ã©
Ġis olÃ©
Ġroul ant
res sent
ĠSe uls
hydro carbures
ĠdÃ©mÃ©n age
ĠdÃ©p assÃ©
ĠprocÃ©d ures
T able
n ale
ar itÃ©s
ĠG y
ĠTh iers
Ġparticip a
M orph
en ko
ĠM ick
ĠP Ã©l
ĠT ype
ĠÃ©lect romagn
Ġconv aincu
ĠabrÃ© gÃ©
Ã¨ lent
tre use
19 16
Ġemp Ãªche
Ġsup ers
Ġconfir mer
ĠLi bre
Ġoppos Ã©s
ĠVend Ã´me
ĠLÃ©n ine
Ġf alaises
ĠS ara
Ġter rasse
Ãī ditions
ĠdÃ©b ris
ti cien
at titude
ĠB elles
Ãī tab
Ġsembl ables
Ġrect angulaire
G uy
Ex posÃ©e
Ġpanne au
ir d
Ġappr is
ĠsÃ©n ateurs
A ch
ĠC ec
Ġg Ã¨ne
Ġincl use
ĠChal on
S iÃ¨ge
Ġcont raste
lit z
ĠdÃ©fini tif
R adi
ment Ã©
Ġfamili ales
Ġsign ale
Ġten eur
appar ten
Ġtub es
Ġproch aine
Ġmonop ole
Ġapost olique
n os
Ġla me
Ġcrois Ã©s
ĠCo ok
Âł Âł
Ġsymp ath
Ġacad Ã©mique
str ong
ĠFin al
Ġpoly val
ĠShang hai
Ġent housi
ĠrÃ©p utÃ©e
ile x
pec tives
Ġrecens Ã©es
Form ation
ĠP ersonn
Ġ18 29
Ġb ale
ĠSu pp
Ġmys tique
ĠPoin te
ĠLouv ain
ĠBÃ©z iers
cid ence
ĠdÃ© tention
ous es
Ġtra um
Ġmainten ance
ĠS z
Ġouv rir
Ġpar ue
ĠMont reuil
ose velt
ĠBas tia
Ġbon us
ĠPol yn
Ġin achev
ĠLe d
iff res
er tion
In s
ĠGu il
ats u
Ġabou ti
Public ation
ĠaÃ©ro ports
Ġincert aine
ĠK in
S er
u ph
Ġch ou
ois y
Ġretrouv Ã©e
Ġsurmont Ã©
Ġson ores
Ġcoup Ã©
Ġgrav ure
Ġpourcent age
g ro
ĠL aure
ĠW y
min i
Ġappr endre
Ġplac Ã©es
ĠcomplÃ©ment aire
enh ague
ĠK ath
uc ci
ĠÃ©limin er
ĠAlbert o
Ġcherche ur
ĠLitu anie
B ourg
Ã¢ tres
Ġorient Ã©e
ĠMic key
ĠG et
ille m
Ġtant Ã´t
ĠGene viÃ¨ve
ad j
âĢ¦ ),
Mon uments
ĠG av
ott age
ĠSac rÃ©
Ġjo int
Ġc anc
ou a
or able
at terrissage
Ġex acte
aÃ¯ ques
ĠSp ider
W e
d Ã©p
ĠLouis iane
Ġcombus tion
Ġgross esse
ĠHar rison
Ġadap tÃ©s
ĠBour b
Ġamb igu
Ġs atur
Mar cel
Ġla ine
Ġsub ord
Ġcollec tivitÃ©
Ġrenfor cÃ©e
ĠLeon ard
Ġtribun aux
M od
r Ã´
ĠD et
Ġcivil isations
ĠSib Ã©rie
p at
Ġatmosph Ã©rique
ĠL iz
ĠdÃ©pass ant
L im
tres s
ĠRh odes
Ġ180 8
Ġrecue illi
ĠfÃª tÃ©
en on
ĠM S
Ġman iÃ¨res
oth y
ch aussÃ©e
Ġ18 26
ret t
Ġconserv ent
ĠcomplÃ© tÃ©
ĠÃ©lÃ©ment aires
occup er
C ode
Ġ180 4
je ctions
ĠCamb odge
Ġcapt urÃ©
Ġterti aire
r Ã¨rent
Ġc uri
Ġgrave ment
ĠdÃ©ten us
Ġsauve garde
Ãī qu
Ã©quip ier
ĠM oy
Ġchirurg ie
ĠG an
ĠrÃ©sul tant
w i
acc um
Ġchois is
Ġvul g
v ens
ĠS ay
Ġdisp uter
ĠdÃ©fense urs
Ġp ans
ĠlÃ©g ale
ĠRecher che
ort ations
Ġexp ressions
Ġdistin ctions
Ġcombat tant
Ġlabor atoires
ĠMoham med
o ven
Ġa Ã©ronautique
le cteur
oi de
Ġman ager
ĠMel un
m ith
Ġl ob
re ments
ĠO m
omb es
Ġdign itÃ©
Ġmont Ã©
her be
ionn age
Ġdisposi tifs
Ġt ueur
ĠC aval
el se
ĠD aw
ĠK Ã¶
Ġ10 1
ĠnÃ©goci er
Ġmig ration
ĠH Ã©b
ĠrÃ©s ume
Ġp oit
Ġcon ditionn
esp aces
ĠdÃ©c oll
ĠMag ic
Mus Ã©e
G estion
an nexion
ĠrÃ©p Ã©tition
ĠintÃ©g ra
Ġcons ens
Ġqualif iÃ©s
Ġdon ation
burg h
ĠVanc ouver
N az
r Ã¨tes
ĠrÃ© uni
Ġh Ã´pitaux
ĠSe an
Ã©ch antill
as tel
Ġj oie
Ġsupprim er
Ġnaz ie
Ġrach Ã¨te
ĠColl ins
Ġw ww
ĠrÃ©Ã©d itÃ©
ar um
ot er
ici ers
ĠCru z
Ġimmeub le
Ġjumel Ã©e
o lement
Ġjug Ã©e
Ġrense ignements
g ouver
Ġdi alogues
ĠIn iti
Ġbomb es
la us
ess a
Ġsta des
Ġchante urs
Ġaffront er
Ġpro se
ĠDe f
C H
Ġc ade
ran ces
att ribution
Aut our
Ġajout Ã©e
Ġjus tifier
H ong
Ġar bor
eur re
ĠEd die
Mal o
ĠÃ©p id
ĠAm az
Ġfi bre
Ġfar ine
v ingt
ĠN oc
aur a
Ġbal les
Ġphilosoph iques
y Ã¨res
lex e
Ġvis ites
oud ite
Ġorigin aux
Ġign or
ĠTerrit oire
ĠP lu
iv res
Ġnota ire
ĠspÃ©ci fic
aj outer
ĠGuy ane
Ġprati quÃ©e
Ġcaval iers
Ġobten us
ĠprotÃ©g Ã©es
ĠhÃ©ri tiers
al it
Ġty ran
dÃ©m ocrate
l en
ĠrÃ©alis ateurs
Ġras sembl
v y
Ġtr u
Ã©t orique
ĠbÃ©nÃ© fices
feu ille
s tein
Ġfaibles se
Ġdistingu ent
ĠemblÃ© matique
R P
Ġp aires
Ġfix es
Ġflui de
ĠMÃ©s opotamie
ĠSoud an
ĠD istrict
ĠT urb
Ġre jette
Ġafric ains
Ġre z
Ġincap able
Ã °
ex tinction
rin a
ĠFer tÃ©
190 3
Ċ ĠĠĠĠĠĠĠĠĠĠĠĠ
ĠA x
ĠTh at
Par allÃ¨lement
ocra tique
Ġpropos Ã©s
F lor
S Ã¨vres
di vis
ĠG w
Ġcommand erie
Ġtran qu
Ġalphab Ã©tique
Ġf iÃ¨vre
Ġdiscip les
Ġvec teurs
R ay
exp liquer
Ġaustral ienne
ĠcohÃ©r ence
ab ar
Ġdis cu
Ġbas k
ĠOr ganis
ĠNic ol
z ar
Ġl os
Ġdirig Ã©s
ĠP Ã©n
ass a
uti ques
Ġap ogÃ©e
ĠdiffÃ©r enci
semb lement
ĠComp iÃ¨gne
Ġchan oine
Ġcondam ne
Ġinstru ctions
issi ppi
Ġf oie
ab olition
Ã©ra bles
ĠhiÃ©r arch
Ġinc ur
ĠS Ã©curitÃ©
hÃ© roÃ¯
Ġaur ont
Ac tivitÃ©
Ġconv oi
Ġchinois es
ĠProvin ce
Ġbat aillons
Me mbres
ĠPiet ro
Ġv otes
ĠB oss
Ġpos Ã©e
Ġgagn ant
ĠhÃ© lic
Ġpar oi
ĠEn semble
Ġense ignant
Adap tation
Blan che
Ġre table
En t
ĠprÃ©v us
av ar
Ġconf ection
Ġfav ori
Ġramen er
ĠTrist an
ĠP s
ĠF emmes
Ġdou bles
odi ques
ĠÃ© phÃ©m
ĠR ost
Ġr ites
Ġ18 17
ĠcrÃ© a
ĠprÃ©d ateurs
? ?
asc ension
ĠHar vey
Ġinv enteur
Ġmus cles
Ġinstall Ã©es
Ġib n
ĠS of
Ġsal aires
Ġblan ch
ĠPas teur
ĠÃ©vo quÃ©
Ġrume urs
Ġprolong Ã©e
mar ine
ĠVille f
ĠCh in
Ġtra ction
ĠdÃ©ter mine
ĠPar ty
ĠIn dien
ĠsÃ© ances
ĠPaul ine
179 3
Ġappli quÃ©
ĠWolf gang
Ġcris es
s che
Ġt amb
our nement
uis seau
iÃ¨ ne
L o
ĠF ol
ĠT rain
Ã©n at
oi des
Ġvall on
Ġpoursuiv i
ĠS ic
Ã©n on
Ã©l arg
ĠtÃ©lÃ©vis Ã©
osaur us
ĠR w
onn u
Ã©m as
Log ement
Ġmainten u
ill is
Ġtra duire
ĠprÃª ts
ĠBla ke
ĠRal ph
Q ue
in dique
ĠB eth
ĠR us
ĠAu di
Ġinstall er
Ġ18 19
Ġdemand a
Ġstatut s
ĠQue ens
ĠamÃ©n agements
re en
Ġt ables
ĠF A
ĠF at
gl y
ĠPl aine
Ġaugment Ã©e
Ġinves ti
} }
si c
A le
j our
ĠN in
ĠN oy
ĠdÃ©f unt
Ġenregist rÃ©s
ĠHon orÃ©
ĠC are
Ġappar ue
ĠextrÃ©m itÃ©s
om er
ĠÃ© mer
ĠChar te
mÃ© tique
ĠÃ©lect rons
ĠBret on
ex cell
Ġ17 80
Ġvari Ã©es
Ġcent enaire
Ġconst ant
og on
Ġmar keting
Ġexp Ã©ditions
Ġach eter
Ġt assements
ĠÃ© puis
li ques
lÃ© on
Ġvi etnam
Ã¨g ue
Ġparall Ã¨lement
end ront
Ġsuiv is
ĠlÃ©g ion
ed s
Ġfisc ale
Ġmag azines
ĠdÃ©sign Ã©s
c oupe
n ommÃ©
Ã© te
ro e
Ġconf luence
Ġbord Ã©
Ġempris onnÃ©
Ġaccum ulÃ©
ro Ã«n
ĠP ok
um an
Ã©g alement
Ġor n
Ġexerc er
ĠlaÃ¯ c
H ommages
Ġd op
ĠT oute
iv ores
vec in
Ġappar tement
ĠmÃ©di atique
Ġchirurg ien
ĠP rat
Ã©n Ã©g
Ġdiscip le
Ġnauf rage
Ġs Ã©m
Ġf as
Ġinc luent
Ġmemb rane
ins ki
Ġcour onnÃ©
p on
ĠS ax
Ġbas Ã©s
ĠmÃ©c ont
Ġperd us
Ã©th ode
ĠintÃ©ress ant
ĠSh o
lev ision
ĠHe art
189 9
ĠD ut
ĠGu adeloupe
ĠrÃ©c lame
n iste
ĠS ony
ĠJ ours
Ġdi ab
Ġfil iÃ¨re
orth ographe
ĠdÃ©clen che
ĠWay ne
Ġ ot
ĠT ong
av en
ate au
Ch ante
w itz
ar ent
ra il
ĠC ry
anim itÃ©
ĠcomplÃ©ment aires
he bdomadaire
Ġd orÃ©
it age
Ġv int
ĠA ction
Ġar om
Ġfin landais
oph onie
Ġdomin Ã©e
Ġtelle ment
Ġdiss ous
ĠL enn
acc ue
Ġpul mon
Ġgas con
vÃ©n ient
ĠH and
Ġprote cteur
Con texte
Ġavanc Ã©
ĠProvin ces
Ġassembl Ã©es
ĠRo osevelt
att ente
Ġcontinent al
Ġc amb
Ġla ser
ĠP ons
Ġgrav ures
Ġremont Ã©e
Aug ustin
Conse iller
Ġgraph ie
Ġp acte
Ġdi able
Ġt oi
Ġpl ates
ac tique
lant a
ĠdÃ©cl ara
ĠCop enhague
Ġgratu itement
hard t
Ġarb it
Morph ologie
Ġm oul
Ġt om
han a
ar ticles
Ġpar adis
op tique
ta x
ĠH oh
ĠBeau ce
ĠLib ye
ar ques
Ġf ug
Ġin uti
Ġsol aires
ÃŃ o
ĠMartin ique
ĠFou c
Ġd am
Ġsol enn
Ġpira tes
aur oux
Ã¼ b
Ġalg Ã©b
Ġcor rÃ©
ĠGi ac
ĠItal iens
de p
ĠT itan
ĠCon stru
Ġbal nÃ©
Ġber ceau
ĠFren ch
ĠP lessis
Ġtra gique
mÃ© lie
s elon
ong o
Ġmarqu ent
ĠdÃ©ta ille
ac ter
ap s
Ġsou met
Ġanglais es
ĠMold avie
ĠP ia
ĠH istorique
exp rime
ĠTch Ã©coslovaquie
Ġanc Ãªtre
Ã©to iles
Ġa ig
Ã©r ou
Aut om
Ġorg ane
Ġlinguis tiques
ĠP yth
ta tif
ĠTrans ports
agog ue
Ġisol Ã©es
Ġdirec tives
z es
rÃ© tien
ĠC Ã©cile
ri ra
Ġex ception
Ġ18 13
rou per
ĠMass achusetts
ĠEc onom
ĠrÃ©vÃ© ler
ĠColor ado
Ġrelev Ã©
or c
ĠEnv iron
ak s
ĠSer ies
Ġfus il
le d
ĠPrin temps
Ġrest aurer
ĠdÃ©fin ies
Ġperc ussions
ĠDall as
T ourn
ĠrÃ© acteur
ĠrÃ©g ence
b ien
Ġdans es
Ġfor fait
ĠVie ille
H yd
ag rÃ©
Ġcon j
âĢĻ Â«
ex Ã©cu
ĠBan k
tt gart
approvision nement
Ġann uelles
Ġinter actions
ieuse ment
ĠC art
Ġatta quÃ©
ĠÃ©lÃ© g
Ġmit raille
Sc Ã©nariste
Ġs ables
Ġla urÃ©at
ys se
ĠComm erce
ĠstratÃ©g iques
ĠB iz
ĠO k
Ġcommun isme
ĠÃ©p ic
ĠCar r
ĠNÃ© olithique
Ġmissionn aire
ĠS ut
Ġb ibliographie
ĠH yd
ins pecteur
Ġins urg
Ġ! ,
Ġparis iens
St ar
Gr Ã¢ce
Ġcollec tifs
ĠLim ousin
ĠTch ad
Arm Ã©nie
Ġpharmac ie
Ġb rique
ĠE mb
ĠprÃ© fÃ©rence
ĠRos si
ĠÃ©vi demment
Ã ½
ti us
Ġau then
ĠM oss
ĠB eu
ĠCh ang
Ġpropos Ã©es
ĠWal lace
Ġira k
S ou
ĠdÃ©c entr
Ġ13 0
Ġmodif ie
orb ite
ĠVau cluse
Ġpropag ation
ĠdiplÃ´ mÃ©
P rÃ©sentation
Ã Ĺ
ĠrÃ©g imes
Ġpor c
ĠTrans port
ĠlÃ©gitim itÃ©
isl ature
m art
ĠM Ã¨re
ĠV a
Ġex cl
ĠY ang
ĠAss oci
o on
Ġr ite
Ġpat rie
ĠU R
Ġreven dications
Ġnav ette
ĠUnivers al
ĠBol iv
Ġoub lier
ĠĊĊ ĠĊĠĊ
Ġrest ru
Ġsupp orter
Ġcro ate
Ġconserv ant
ĠEv ans
ĠÃ©criv aine
ou rag
te lier
Ġsur p
Ġpr onom
Ġro chers
Ġdisp ens
ĠHar old
ĠrÃ©un issant
aug h
D D
h of
Ġproc Ã¨de
effec tif
Ġens ole
Ġais Ã©ment
Ġp iv
ĠL ittÃ©rature
Ġh andball
ru it
Ġal co
Ġapp lic
ĠinÃ©d it
Ġm Ã©roving
du les
ĠMar ius
ĠSp Ã©ci
dor f
Ġparticu le
enc Ã©
Ġlog istique
Ġpoursu ivent
Ġamb iti
Ġconven tions
C P
an Ã©
qu ants
ĠC ote
Ġch aux
uis son
Ġins pire
Po Ã¨te
Ġl umin
au tÃ©s
Ġlumine ux
Ġm anteau
al p
Ġ179 9
Ġpeup lement
Ġgl yc
189 7
ĠJo achim
Ġpass Ã©es
ĠBo oks
ĠBab y
Ġb ob
ĠIn see
ĠConc ours
ĠDig ital
ãĢ Ģ
ĠF onds
Ex position
Ġth Ã¨ses
Ġdiffus er
N ation
R T
Ġc Ã©p
as is
ĠB ox
ern ois
Ġrep roche
Ġprot Ã¨ge
ĠBal kans
Ġgaranti r
ath lon
Ġpor teur
di ale
Ġh it
ul ateur
ĠComb at
u Ã©es
Ġin hib
Ġvolc anique
et on
ĠcrÃ© ations
ĠU kraine
Ġtransf Ã©rÃ©e
Ġintercommun aux
Ġcomment aire
Ġpouss Ã©
Ġchauff age
Enf ance
Ġgrand it
enn Ã©
iti en
ĠRon ald
Sul pice
c q
c onc
Ġd ors
gl er
te il
ĠW end
Ġmonast Ã¨res
st one
adi a
V ari
Ġnom ment
ĠVan nes
ropri Ã©tÃ©
Ġla s
Ġm etteur
Ġch anoines
Ġ18 23
Ġserv it
Ġentrepr is
ĠChÃ¢te auneuf
Deux iÃ¨me
ĠHou ston
Ġadh Ã¨re
b it
Ġcomp t
autom obile
Ġradi os
Ġp ag
Ġm iel
ĠP Ã©t
ĠB ib
Ġpa cif
Ġmauv aises
Ġconduis ant
ĠAuc un
is sions
Ã´ n
ĠpÃ©n it
agu ay
ĠF ille
ĠAd olf
Ġcontribu er
ĠpÃ©riph Ã©rique
Ġrec teur
Ġposi tionn
ĠR ATP
alis ent
uc li
ĠSe ction
Ġten ait
Ġstra t
Ġprovisoire ment
ĠC ic
onn erre
Ġcomp ression
ĠRo cher
w ards
Ġexp erts
tig ation
V ainqueur
ĠcomplÃ¨ tes
ĠfunÃ©ra ires
ri co
op ath
assi fication
ĠPenn s
ĠMÃ¢ con
Ġm Ã»
let on
Ġtermin al
r est
Ġconc rÃ©
Ġjeu di
ĠvÃ©g Ã©tale
Ġorient ation
ĠdÃ©bar rass
3 00
Ġcon nexion
Ġdis per
Ġdel ta
Ġenvis agÃ©
ait re
aÃ® ne
Ġinv o
Ġnu ages
ĠpÃ¢ tur
Ġpair s
Ġb ur
Ġan neau
app li
mar s
Ġinvasion s
ĠStanis las
Ġnation alisme
ĠSt ars
ĠEm ma
Ġgratu it
ag rand
ĠLa on
Ġst Ã¨le
Ġtyp iquement
ĠbÃ¢ t
AmÃ©ric ain
m l
ĠG ond
Ġexp lication
Ġviv ait
ĠB M
Ã©g ide
ĠNe il
Ġnot Ã©e
Ġprimi tif
Ġravit aillement
Ġde ttes
ĠP elle
ĠÃ©g alitÃ©
Ġ9 00
Ġqu an
ic aux
ĠCh ild
Ġcomp agne
Ġparticip ations
intÃ© ress
ĠL ys
Ã©d Ã©s
Ġser gent
Ġrespons abilitÃ©s
ĠisraÃ©li en
Ġpoit rine
N euve
Ġress ource
Ġroche ux
ĠGira ud
ĠF ound
Ġprop ulsion
Ġpass es
ĠZe us
ĠP ac
Ġsucc Ã¨dent
export ation
Ã©vac uation
el ais
Ġg orge
ad versaire
Ġexploit Ã©e
Ġcontribu tions
Ġrappe ur
1 15
Ġs ilex
Ġ18 11
Ġvolont airement
FranÃ§ais e
ĠTomm y
ch ine
ĠdÃ©p ortation
ĠTur ner
PrÃ© histoire
s yn
Ã© la
en rich
ĠM oi
ĠP un
ĠK enn
Ġdonn ait
Ġmor ales
ĠTe levision
Ġfant asy
Ġstand ards
Ġcommuni quer
Ġcollis ion
Ġl and
ĠK ou
Ġinv ite
Ġlut h
ĠcollÃ©g iale
Ã©t rique
Ġplant ations
Ġpubli a
ĠIn diens
Ġper se
Ġsucc Ã©der
Ġconcern Ã©e
ĠÃ©tro itement
h m
Ġt ranche
ĠF ritz
Ġpo ign
ĠLu ke
ĠWal ker
ĠPi Ã©mont
Ġpi Ã©t
Ġign ore
ĠP CF
Ġex ercice
Ġsc ission
ĠintÃ©g rale
gra ve
loy d
e arch
Ġc reux
us er
ĠP R
h at
ra di
ĠV Q
ĠAl f
Ġcou tumes
Ġcouv rir
ess ais
ĠSol id
Ġmobil isation
n isme
o si
Ġco Ã©quipier
ĠThÃ© od
k ina
Ġv iti
Ġpl ane
op las
ĠO ur
yg iÃ¨ne
ĠprÃ© texte
ĠK ap
18 85
ĠAr mÃ©e
Ġgroupe ment
Ġmerc enaires
v illa
ĠrÃ© elles
ĠMor ris
ĠMac ron
189 5
Ġn appe
Ġfor tifiÃ©
ĠAt lan
Ġcommande ur
Ġfrapp Ã©
afric ain
v us
th ers
Ġw il
ĠdÃ©termin ation
Ġpri me
Ġre mor
esp agnol
ĠĠĠĠĠĠĠĠ ĠĠĠ
ĠTer res
Ġsacri fice
U T
ie ures
ĠrÃ©g ler
Ġlang ages
Ġcaus Ã©
ĠSchne ider
al in
Ġal lÃ©
Ġcompos er
Ġn oix
ouv Ã©
Ġform ules
Ġdiss oute
Ġgaul oise
Ġa cier
Ġm Ã©g
Ġpl astiques
Ġor nÃ©
ĠPro che
Com Ã©die
ĠT ig
Ġvoy elles
ĠFleur y
Ġser p
p ont
Ġfores tiers
ou ard
ar ab
ette ment
Ġsub division
ĠfunÃ©ra illes
Ġa min
ĠÃ ĩ
Ġpoli ciÃ¨re
ĠHe ures
lam m
Ġcond ens
ĠM ing
Ġre vi
illi on
Ġorient Ã©
ĠaÃ® nÃ©e
Ġd us
ine au
ĠgÃ©n Ã©tiques
w s
ĠLa mp
Ã´ nes
Ġtemp ore
em m
ĠarrÃª ts
ĠecclÃ©si astiques
an que
ĠS ierra
Ġal tÃ©
Ġ17 75
ĠreprÃ©sent ait
Ġdev raient
Ġrur aux
ĠintÃ© rim
Ġchronique ur
ĠGrass et
A igle
Ġt rÃ©
ĠR ow
olog ical
co de
th on
ĠMiss issippi
Ġan ges
Ġter rible
um Ã©ro
Ġsupp osÃ©
Ġwall onne
Ġ æ
ar ro
ĠI P
ad Ã©
Ġfig urant
Ġdesc endre
Ġsculp tÃ©
Ġpartis an
T ex
ĠP ablo
Ġconstitu ante
Comm andeur
Ġbut te
ĠnÃ©cess itant
Ġmyth ique
ĠIb n
ar ti
ĠIn ventaire
189 3
ĠâĶľ âĶĢ
Ġcui rass
orm Ã©ment
Åĵ ufs
Ġtomb ent
h aÃ¯
Ġmon arch
tÃ© rix
Ġren aissance
audi Ã¨re
R o
Ġd ragons
ĠB ald
Ã©t endre
gn ac
Ġsor tis
Ġbar ons
Ġoccup er
Ġcultiv Ã©es
ĠAndre a
Ġcitad elle
Ġcamp ing
Ġ[... ]
Ã©p uration
Ġul tÃ©rieurement
ĠF R
Ġconf Ã©d
arg ues
ĠÃ¢ gÃ©s
ĠindÃ©pend amment
Ġextr Ãªmes
V illes
ur us
ert h
ia o
Ġdire ctions
Ġobserv Ã©es
Che f
Ġch asser
ĠMar Ã©chal
Ġsav ants
Ġgig antes
ĠPalis sy
l ots
emp run
Ġmul titude
onn iÃ¨res
Ġ18 18
Ġsou mettre
Ġsurv Ã©cu
ĠmolÃ©c ulaire
Ġmissionn aires
ĠprÃ©limin aire
amp leur
Ġsens ation
189 1
rey fus
ĠAlli ance
Ã© tisme
Ġh ex
ow a
Ġk ar
Ã©ph al
ĠlÃ©g al
Ġindividu els
DÃ© finition
c tives
Ġab stra
Ġpromen ade
Ġch ances
Ġan alytique
Ġcontin ents
om ys
ĠB B
ĠG olfe
Ġtrav Ã©es
ĊĊ ĠĊ
ĠIn v
ak ov
G N
Ġf ile
ĠE arth
Ġesp oirs
ĠinÃ©d its
hÃ©m isphÃ¨re
ĠrÃ©cep teurs
. "
C R
c elles
ĠD ennis
ĠG ob
ĠTh ess
ot ation
ĠRou b
ĠdÃ©pend ances
Ġprolong ation
ĠNiger ia
ĠA tta
ĠÃ©t range
Ġsusp end
ĠlatÃ© rales
ĠM Ã¼n
ĠP rad
ĠAb el
Ġuti les
Ġhos tile
B on
Ġb it
yr us
Ġpomp iers
M ag
Ġs Ã¨ches
ĠV oix
ern ay
Ġprovinci ale
ĠP resse
os p
Ġpionn ier
ĠprÃ©cur seur
U P
ĠM Ã©z
ĠAh med
ĠNet work
Ġabat tu
ĠnÃ©c ropole
Ù Ħ
ĠL ux
Ġhab ite
ĠWar ren
Ġriches ses
Ġmex icain
ĠF ait
ic ains
Ġ180 9
ĠArm strong
ĠMitch ell
en bach
Ġp ig
am Ã©
Ġaccompagn Ã©s
an Ã©e
Ã¨ be
ĠV Ã©z
ong es
ĠMont mar
Ġporte urs
ĠAc adÃ©mie
ĠmÃ©dic ales
18 89
alle mande
ĠgÃ©omÃ©t rique
om ans
Ġpl umes
ĠV aux
Ã©n ique
Ġsa vant
Ġsex uelles
L E
Ġen velop
Ġin tÃ©rieurs
ab orer
ĠH amp
cher ie
Ġmarqu ante
Ġfac ilitÃ©
ocalyp se
V A
ick s
ĠStat es
escal ier
ĠG end
ĠV oie
Ġtrans cription
ĠCont es
Ġhydrauli que
J ames
Ã© um
ĠJ ourd
ubli Ã©
18 48
arn ais
Ġamb assade
Ġsan ctions
ĠC IA
ch io
ens uit
ette urs
Ġexplic itement
ĠjÃ©s uite
H ameaux
Ġn uls
Ġh Ã©rite
Ġan nexes
ĠU SA
Ġinc arn
ĠmÃ©di an
eth oven
Ġadap tations
ĠalÃ© atoire
Ġreconstru ire
Ġnour rit
osa ures
O d
O ur
par fois
Ġmin iÃ¨re
Ġdonn era
Ġparf um
ĠLet tre
Sec onde
ĠEss ai
ch is
ĠÃ© man
oc ats
ĠconÃ§ oit
u ir
Ġs cep
ar ith
ĠM ise
ouv ert
Ġass ocie
Ġconf Ã©dÃ©ration
DÃ©c orations
ĠdÃ©termin Ã©e
ur anium
ro irs
ĠM onc
Ġmar Ã©e
Ġmon arque
a Ã«l
y ll
Ġd orm
ĠM org
Ġann uellement
Ġaut orisÃ©e
Ġbre v
V ill
p ays
ph on
Ġ12 5
ĠBas ket
Ġang lic
Ġrenforce ment
an um
Ġhtt ps
og er
Ġres sembl
Ġvoyage ur
Ġsty lis
ĠL ock
ĠdÃ©p ortÃ©s
Ġco fond
ĠVinc ennes
ĠL ili
ĠÃ©c os
ĠPub lish
que z
ĠPh Ã©n
Ġdess ine
Ġidentif ier
Ġconduis ent
V ar
Ġc umul
ĠC ow
Ġ17 50
Ã©cur ie
h in
Ġf ret
ĠCh ante
ĠmÃ©t rique
Ġreg rouper
Ġcapit alisme
ĠarrÃªt Ã©e
S tru
os o
Ġrest Ã©s
Ġcu ite
ĠRas semblement
ĠF ly
par ole
Ġdis ait
Ġmod Ã©rÃ©
ĠVe gas
ĠvÃ©tÃ© rin
ĠStand ard
Ġl ent
exp rimer
Ġdesserv ant
ĠPortug ais
ĠbÃ©n Ã©v
ĠStef an
ass Ã©e
-- --
ĠLe c
Ġoccasion nels
Situ Ã©
ĠFis cher
G rande
ĠS P
ĠP tolÃ©m
Ġqualif ications
ĠrÃ©un ies
ĠÅĵ il
organ ise
hÃ©ri tier
Ġpropor tions
ĠimmÃ©di at
oppos er
Ġasc ension
Ġrachet Ã©
Ġp ige
Ã©ch appe
189 4
ĠBlo od
Ġgenti lÃ©
ri pp
Ġv el
ĠP oste
Ġg ib
we alth
An ciens
Ġspecta culaire
ĠS oy
Ġlanc ent
ar u
est uaire
ov ine
Ġconsul tation
ĠconÃ§ us
opÃ©ra teur
ĠBag dad
Ġcont ourn
Ġcl os
ĠMont parnasse
atta quant
en burg
un animitÃ©
ĠS ag
ĠD ir
olog istes
Ġcontre forts
Trois iÃ¨me
Ġcamar ades
Ġpro cesseur
Ġtour b
Is abelle
Ġgard Ã©
ĠthÃ©m atique
Ġn iÃ¨ce
ĠA mi
ĠF ield
ĠN athan
um age
tel la
ĠConc erto
Ã ¬
ĠD au
Ġdiff Ã¨re
ĠrÃ©alis ant
ber ge
ĠWe i
ĠVer sion
Ġproch ain
N ote
n ard
y lÃ©
Ġp ompe
ĠN ow
ument aire
Ġpro cession
Ġexp ress
Ġcor re
Brun swick
it as
Ġexp Ã©di
ĠNe b
Ġplan che
ĠSh ad
ĠDes cartes
Ġvois inage
intÃ©g ralitÃ©
ĠrÃ©cup Ã¨re
Ġattent at
t d
ĠC P
ĠC out
Ġin cident
ĠK ings
ĠdÃ©c roche
Ã©li ard
Gu erre
Ġrepro duire
Rel ief
Ġp ension
Ġprovin cial
189 0
Ġexc Ã¨s
Ġlocu teurs
ĠMatth ieu
Ċ ĠĊĠ
Ġch aude
ĠK ans
ĠPic ard
Ġaccus ations
in sectes
ĠC M
Ġtrouv Ã©e
ĠRw anda
Ġm Ã¨nent
vi Ã¨re
Ġcal cium
Ġfrag ment
ĠQuat riÃ¨me
Z PS
ĠR uth
Ġclasse ments
ĠG aud
Ġno tice
ĠAr rondissements
ys tÃ©
ĠgÃ© ants
ĠMal aisie
ĠCas tres
Ġimpos er
tÃ©b rÃ©s
ra te
ÃŃ s
ĠStu ttgart
Ġn atif
el ins
Ġval orisation
Ġdoubl age
ch at
ĠPe ople
Ġrecher cher
ĠCin quiÃ¨me
ĠRT L
ĠchÃ¢tellen ie
ĠLe x
Ġapp ui
iss ance
Ġk g
ĠrÃ©c urr
ĠmÃ©di oc
tÃ©roÃ¯ des
Ġtyp iques
ĠBur n
ĠBig orre
ĠexpÃ©riment ale
Ġv enger
Ġcanadi ens
ĠAut om
observ atoire
f ran
i or
Ġd ys
Ġman ches
Ġdur ent
189 6
ĠT at
pe tit
amb assadeur
Ġess aie
ĠPas sion
al uminium
ĠD ag
op olis
ĠV ier
ine ment
adi en
Ġfeuillet on
iv iers
ĠLyc Ã©e
si gne
di mbourg
ĠMe g
Ġcuis son
S am
Ġla p
Ġfrag ile
ĠtÃ©les cope
Norm andie
ĠS ouvenir
ic ourt
ĠOr chestra
Ġpap iers
Ġfus Ã©e
ill an
ĠK ate
Ġform ellement
Ã¢ti ment
Ġgerm aniques
Ġfant Ã´me
Ġtap is
Z SC
on Ã§ant
An alyse
aret te
re k
ĠL ann
Ã´ tres
ĠrÃ©c urrent
ĠcÃ©lÃ©b ration
Ġeffic acitÃ©
Ġheure ux
ĠO ver
Ġsupprim Ã©e
Ġar cs
ĠDe an
rim Ã©
ĠB ade
Ãī g
ĠMac k
on ville
ĠÂ °
Ġrep Ã¨re
Ġrapp ortÃ©
rÃ©s ence
ox y
ĠAb b
en as
ĠA BC
ĠD ax
Ġh isp
ĠJ unior
st Ã¨res
Ġremp ortÃ©e
ĠTh ou
Ġviolonc elle
Ġen quÃªtes
Ġann oncent
Ġass ister
Am Ã©nagement
rÃ© tion
Ġn as
Ġpo ils
ĠPh illi
ĠBourg et
Ġfaud ra
ĠM aire
oz a
ĠGi uli
ĠSta dium
ĠamÃ©li or
Naz aire
C Åĵur
Ġl andes
ĠLang ues
Ġrefus a
lar ation
Ġb oxe
Ġacc use
Ġenv oyer
Ġconserv atoire
Ġfourn issent
s ouris
ĠFland res
Ġdig es
ĠBaud ouin
noc ent
Ġmar ier
Ġman agement
Ġcroise ment
Soci Ã©tÃ©
ĠAr s
Ġlicenci Ã©
ĠÃ©cu yer
c re
ons es
rie u
rÃ©s ailles
termin ation
Ġspecta teur
Ġtopony mes
Ġgra in
Ġrat tra
Ġpr estations
ĠrÃ©g ent
ĠCol onel
Ġlut tes
Ġfondament aux
Ġvec tor
Ġrense ignÃ©e
ĠH itch
erm at
Ġ17 88
amb assade
Ġcul tes
Ġhyp er
ĠL ost
ĠP erre
ac Ã©
Ġporte use
Ġconsomm ateurs
Ġmagistra t
â Ī
en tis
ĠW ell
ĠdÃ©c ol
Ġsupp orts
zon a
Dan iel
ur iers
ĠH ul
ĠinterprÃ© tations
ĠS ti
Ġplong Ã©e
Ġre viennent
Ġcon sent
Ġ3 50
ch im
as on
ru ck
Ġag ro
ars en
lit tÃ©ra
Ġdeme urent
Ġenseigne ments
Ġargu ments
ai a
ĠMon ique
ĠCent ury
Ġter rass
Ġann oncÃ©e
ĠÃ©c art
Ġcouv erts
Diff Ã©r
ĠH esse
oli o
Ġvol et
ĠintÃ©g rÃ©s
ĠprotÃ© ine
M and
lis sements
Ar les
Ġst rict
189 2
g ow
j Ãł
om n
ĠA B
gu in
att end
oz oÃ¯que
ĠnÃ©g lig
Ġradic aux
Ġrecens Ã©e
Ġperp endi
pe urs
Ã©ri f
Ġplan if
ĠdÃ©ta chement
ĠDen ise
Ġcorrec tement
ĠC ie
ss is
Ġmont agn
Ġcas erne
ting s
Ġouvert ures
ĠhÃ©ri tiÃ¨re
Ġintellectu el
oen ix
lu de
Ġmer veille
Ġant enne
O mer
ĠS oph
ĠD Ã¼
arg o
Ġeffec tive
Ġmens uelles
ĠcommÃ©mor ative
ĠrÃ©si du
U SA
ar est
La zare
lig ht
ĠÃ¢ me
ĠCat alogue
Ġsurv ivre
Ã©ti tions
ĠCit roÃ«n
Ġmons tre
rÃ©t ariat
E lles
ĠS we
Ġmar ines
enc ourt
1 10
ag ramme
ĠCh ou
ach t
Ġtomb Ã©
Ġjur iste
ĠTw o
Ġjamb e
Ġmeub les
Ġsurpl omb
Ġcrain te
Ġch ol
Ġsa oudite
Ã¼ h
ĠTra vail
Ġautomatique ment
ĠsÃ©di mentaires
Auc un
w ing
Ġt ante
Ġin ventaire
Ġdocument aires
Ġf osse
Ġvi aduc
Ġs ieur
ag iste
ĠB ath
ĠT Ã©
ig ues
Ġbat teries
Ġindi ces
ĠAnd ers
Ġcul mine
Ġstru ctur
ĠsÃ»re tÃ©
au tion
Ġins iste
ĠSp in
Ã©tu dier
enf er
Ġsac rif
Ġrav age
ĠB h
Ġca cher
Con f
ert on
Ġconf Ã¨re
Ġproc Ã©der
gra de
Ġv ives
ĠdÃ© formation
ung en
ĠC rist
ĠR az
arch i
Ġbomb ard
Ġvert us
ia e
ĠĊĊ ĠĊĠĊĠĊĠĊ
Ġliv rer
ĠBeau lieu
ĠMach ine
Ġs ouv
ol ph
ge on
Ġex emp
rie ux
ĠrÃ©sid ent
Ġautom ne
T it
ĠG uise
Ġex am
18 81
erg y
ĠVi etnam
Ġmanne quin
Ġh aies
ĠMar ÃŃa
ĠSil ver
Ġore illes
ta teur
Ġoccup ants
ĠÎ ±
Ġautoris Ã©s
á º
Ġh Ã´tes
Ġsu zer
ĠComm inges
ĠprÃ©d omin
An vers
Ã©di a
env oyer
Ġattribu er
Ġexc lu
ĠWall onie
Ġf rot
riv ant
uni ors
D omin
e ut
Ġb oss
ert z
Ġdispar us
Ġcondam nÃ©e
Ġintercommun alitÃ©
ĠmÃ©dic aux
Ġhong roise
Ġreman iÃ©e
c tement
Ġaband on
ĠLe o
mil ie
Ġcommis sions
ĠR abb
ĠR uisseau
Ã¢ tin
Ġmar ches
Ġtri angulaire
Princip aux
ĠO g
Ã©t endant
Ġmu et
Ġrassemb lement
ĠPot ter
k as
Ġsauv Ã©
ĠS und
mou th
m ait
Ġ ut
re ll
Ġb orne
Ġti ge
Ġimp ression
aud it
ĠinfÃ©r ieures
ĠEm my
Ġf oncÃ©
Ġenvoy Ã©e
ĠEurop a
ci ale
ĠThe atre
Ġpil otage
Ġcontinu Ã©
ĠconsÃ©cu tifs
Ġcompatri ote
ut en
ap olis
ĠB Ã©r
ill ois
ad in
ouver tement
attent at
L A
ĠP ul
ap erÃ§
la ment
Ġpat ois
ĠJuli us
ĠGusta v
Ġb oire
oul d
ĠprÃ©c iser
Ġprotagon istes
G ene
Ġt olÃ©rance
Ġglob e
Ġatti rÃ©
ĠdÃ©criv ant
ocy tes
Ġter roir
Ġinter pr
Ġ17 70
ĠantÃ©rie ur
Ġsouhait ent
Ġenj eux
ĠJenn ifer
Ġd oy
omm er
Ġgui d
Ġemprun tÃ©
Ġs odium
ĠS ource
pp en
ĠAn ciens
inter section
ĠCos tumes
Ġb ain
ĠG enti
Ã¯ t
out ch
ĠMÃ¼ ller
ĠV u
ĠrÃ©alis me
pi ers
Ġsupp oser
Ġespagn oles
n ac
in ier
Ġh y
ĠU rs
Ġab orde
Ġatt rib
ĠGouver neur
Ġ ouvertement
ot ope
ĠN as
ĠN iÃ¨vre
ten ay
Ġess ence
inc ar
Ġtrop icale
Ġath lÃ¨tes
ĠÃ©lo ignÃ©
Ġviti cole
m atie
ĠL loyd
ĠP rop
ic ulture
um ont
ĠreprÃ©sent Ã©es
Ġprend ra
Ġconfront ation
G au
Ã© ennes
in ale
j ord
ĠM Ã©ta
ci que
Le ur
Ġble us
Ġradic ale
R Ã©volution
Ġun is
ĠC ors
Ġapp ort
Ġrep rÃ©sailles
ĠrÃ©s olu
Al ph
Ġtor ture
Ġ ond
at z
ĠK ris
Ã©c l
Ġ180 5
Ab bÃ©
H erb
ĠM our
ĠM ind
ĠB aptiste
os telle
and o
rime ur
Ġconcl ure
al ter
Ġcher chant
Ġvoc able
Ind ochine
Ġnomin ations
Ġrecycl age
ĠM airie
ĠrÃ© acteurs
ori cien
Ġvic aire
ĠMah omet
Ġappell ations
Ġinhab itu
D roit
p entier
Ġc asse
om ac
Ġv ierge
Ġju ives
Ġpublic itaire
ĠPomp idou
M ad
T emp
Ġra f
Ġseigneur ies
Ġnorm ande
jac cio
h orizon
Ġ erm
ais ant
Ġenregistre ment
Ġn ig
Ġv enti
ĠB j
vi o
ond o
ĠSe g
Ġsus cit
Ġbouc lier
Ġn aÃ®tre
ĠW erner
ĠBe ethoven
Ġcra tÃ¨re
Ġenregistre r
Ġion isants
Ġch am
Ġcontre b
Ġrh Ã©torique
m ai
Ġanarch iste
ĠVÃ©r onique
encl ature
G ouver
Å Ľ
ĠBe d
Ġcla vecin
ĠPan ama
ĠM H
ĠrÃ© aliste
ta m
Ġcol lier
ĠdÃ©v as
ĠÃ©vo quent
Ġentour ant
ĠApol lo
Ġva che
Ġrefus ant
ĠsÃ©p ulture
ĠD ug
Ġacqu it
ĠÃ©me utes
d onnÃ©es
Ġcontre partie
Ġb alis
ĠF lo
Ġsur rÃ©
ĠAl ber
Ġremp lir
esp ionnage
ĠOr chestre
Anti oche
Ġgaran tie
ent a
Ġn uis
Ġmort es
ume ur
ĠconsidÃ©ra it
on age
Ġri re
Ġfont aines
Ġautonom es
audi ence
Ġrefroid issement
ĠGiorg io
or ps
ĠN ie
Ġtemp Ã©rÃ©
Ġ179 6
ĠprÃ©cÃ©d ant
ĠSi di
ĠbÃ©nÃ©fici Ã©
Div ision
ol it
p an
og h
ĠAl g
ĠJo Ã«l
uy er
Ġprim or
ĠKe ith
ĠantÃ©rie urs
ĠÃ©pid Ã©mie
tu eux
ĠspÃ©ci mens
ĠMi y
Loc alitÃ©
Ġritu el
Ġn y
ot Ã©e
ann er
ĠAt las
Ġfle uves
Ġdesque ls
O xford
z one
Ġt ailles
Ġsoci ologue
ĠCy cl
Ġbrill ant
F ond
Ġc ardin
ĠC rimÃ©e
18 80
ĠdÃ©f endu
Ġ ellip
app rÃ©
ĠÃ©t roit
G l
O t
ĠK ad
Ġpres qu
ĠmÃ©th od
ĠexÃ©cu tÃ©s
Ãª n
ĠV ign
rou ille
ĠChÃ¢ lons
ou ti
ĠL ange
ĠG ode
ell iste
Ġ14 0
Ġvi ticulture
ĠdÃ©cl ine
ĠDu puis
Ġinspi rÃ©s
arr estation
1 17
ol aire
Ġcontempor aines
tiqu ette
Ġoppos Ã©e
Ġminer ai
Ġin tes
ĠAn vers
Ġeffic aces
Ġs oph
ĠU E
ĠBal zac
ĠBabyl one
il at
vi Äĩ
ĠAn ciennes
ern aire
Ġt rÃ©s
ĠCar pent
Ġemp ois
Ġmod alitÃ©s
Ġgramm aire
Ã¢tin ais
' m
ar tier
Ġpl Ã¢tre
ĠW inter
ĠAn nÃ©es
iss er
Ġeff ort
Esp Ã¨ce
Ġliv rÃ©e
ju in
thi op
ĠdÃ©tec ter
ouss es
lÃ¨ve ments
ĠprÃ©par Ã©
ĠInt roduction
ĠSovi Ã©tiques
ĠÃ© min
ĠT ess
ĠJ ak
ist ral
Ġcan ne
ĠCor nel
Ġcer titude
ĠprÃ©dÃ© cesseurs
Serv ices
R och
S tra
v olution
mi dt
Ġrac c
ĠRud olf
ĠRach el
ĠP all
ig ie
ĠAir bus
Ġmine ures
ĠBur ton
Ġradi oph
Ã©tudi ants
Ġdiv or
Ġsub issent
Ġjaponais es
an Ã§ant
ĠC ase
Ġcl oÃ®
ili ce
aill Ã©e
Ġautoris ation
Ġmenac Ã©
J ust
ĠÃ© vid
ĠM ati
oc ar
La ch
Ġor nement
be ville
Ġinaug ure
18 30
int o
ĠPa pe
ĠperÃ§ u
ĠemblÃ© matiques
d le
as p
ĠM orte
Ġb illet
Ġcon ne
Ġbibli que
Ġrec r
Ġprom esse
ĠCommon wealth
U C
h ymne
on ies
18 86
Ã©l as
Ġexist antes
Ġ( -)
Ġac tives
Ġam ende
ĠÃ©p idÃ©mi
ĠdÃ©tru ites
Ġvainc re
ĠV ide
ass ins
ĠTerre ur
ĠRes earch
ĠSpr ing
ĠC ort
oc a
oris Ã©
Ġrestre int
F ootball
ĠSe attle
ĠSing apour
ĠEnf ants
N av
c ot
ag erie
ĠdÃ©t ente
zz i
ĠPatri cia
l itude
Ġcon cevoir
ĠPar th
Ġcour bes
Ġman uel
Ġappel er
Ġfoss Ã©s
ĠKaz akh
ĠCer f
Ġpar lÃ©e
Ġform ats
E p
ĠK ub
ĠfÃ©min ines
Ġexerc Ã©
Ġargu ment
ĠP rÃ¨s
Ġti rÃ©s
Ġsynth Ã©ti
arist ocratie
S ing
Ġc ib
18 83
ate m
Ġsex ualitÃ©
Î »
Ġcar ross
Ġgr ise
ĠMe dia
Ġdra peaux
ĠdÃ©rou lement
Is lande
ĠPeti ts
Ġm yc
ĠB aye
18 88
Ġaut obi
Ġcr Ã¨me
Ben oÃ®t
amb ert
pl ay
ĠZh ang
o tiques
itz er
f ar
Ġ osse
ĠW iki
18 00
Ġag glom
ĠMag h
Ġregroup Ã©es
Ġconsens us
H Ã´pital
Ã ¿
it ure
Ġpro ies
Ġh Ã©rit
ĠÃ©l ites
Ġfin es
lo o
Ġag ir
Ã©rant o
ĠsymÃ©t rie
Ġcompati ble
ĠP lo
ĠCh ronique
ĠCop p
Ġf asse
ĠM iles
Ġlev Ã©
ĠD ru
ĠD Ã©veloppement
18 78
od g
oth Ã©e
ĠprÃ©v ues
Ġvirtu elle
c ieux
Ġle uc
ab at
ĠMe aux
zz o
ĠMes nil
abs orption
ĠV idÃ©
Ġsup Ã©rioritÃ©
Ġsyn chron
ĠexpÃ©riment al
ĠBÃ©th une
h ong
Ġhum oristique
ĠSeu le
ĠServ ices
Ġrejet Ã©
ĠS erre
Ġscol aritÃ©
ĠGram my
ĠâĶľ âĶĢ>
Ġpor che
ĠBen e
Ġpeup lÃ©
ĠBl aise
Ġcrit Ã¨re
Her z
c ard
Ġ icon
onn ette
ad s
Ġcont amin
ing rad
ich te
Ġop port
Ã« lle
Ġclient Ã¨le
F e
Ġcont am
Ġviv aient
Ġexplo sion
Ġs tÃ©
Ġmos aÃ¯que
iden tifier
d ites
Ġcent rÃ©
Ġ179 7
Ġh Ã©ritÃ©
inc ourt
ro ll
ĠT ap
Ã©r ants
Ġfam ine
Chante use
ord onnance
Ġro ses
ĠGau tier
ĠLut her
ĠRode z
oc o
ign ait
ĠÃ©g ard
env oi
Ġ ours
ĠS oft
ĠF aure
Ġsou tiennent
ĠZ el
ĠMÃ©ri mÃ©e
MÃ© dec
artis anat
d itaire
18 82
lan ca
Ġreven dique
Ġexhaus tive
f el
ĠexÃ©c uter
Ġbarb ares
m u
ĠT ax
ĠJ uste
Ġfer mentation
Ġen quÃª
ĠC auc
ĠM ale
Ġcrois Ã©e
ĠBro thers
T itre
Ġs tress
si me
oph age
eb vre
Ġmy stÃ¨re
ĠÅ ł
Ġrecommand ations
p al
ĠM P
ĠA mar
ĠCh anson
ati er
Ġph arma
jec tive
Ġiniti ales
ĠBon if
Ġimmob ilier
cto bre
c ott
me mbre
os Ã©e
ĠGard en
ĠTosc ane
G S
ĠG oth
ang Ã©e
ĠY osh
Ġinf ra
oni um
Ġpoly ch
pin al
ie w
Ġdiv erg
ĠWe ber
ĠrÃª ves
Ġcous ine
b urn
ur te
ĠKen ya
c anton
in fini
ĠA less
Ã©c ologie
Ġami tiÃ©
ĠPolyn Ã©sie
ag ine
Ġcomp tÃ©
ĠBern ad
Ġreli Ã©s
ou ze
Ġad mira
Ġconf id
Ġregroup ent
ĠChÃ¢te auroux
alg orithme
qu ins
ĠG ott
ĠdÃ©c Ã©dÃ©e
Ġremar quÃ©
ĠLor enzo
ĠdÃ©clen chement
ĠElect ric
C ond
il ation
ĠA ge
ad oles
ĠdÃ©f ilÃ©
ĠC res
erb aÃ¯d
ĠdÃ©couv rent
Ġprati quant
Ġsouhait ait
Ġexist ants
ĠhÃ©rÃ© ditaire
Ġchapite aux
on ance
18 76
Ġtrans vers
Ġalli Ã©es
Ġly mph
ĠS R
ĠJ orge
ĠH old
Ġ17 87
ok i
ĠHill s
ĠC ros
Ġb Ã©bÃ©
mi de
Ġman Åĵuvres
tr al
ĠPh oenix
Ġcommerci alisation
ĠdÃ©clar ations
Ġdispos Ã©s
18 67
Ġman ge
agu a
Ġidentif iÃ©s
ĠSA GE
qu itÃ©
ĠÃ©volu ent
Qu atre
Ã© tis
pi de
ĠBru ges
Ġfame use
Ġpionn iers
b et
ĠInter nationale
Ġhom ogÃ¨ne
Ġlor rain
Ġinterdis ant
ĠA OC
ib al
Ġparc elles
ĠAm Ã©rindiens
ĠrÃ©un issent
ĠGre y
ĠprÃª ter
ĠCop a
Ð¸ Ñ
Ġb inaire
ĠD amp
ss Ã©e
ĠprÃ©t endant
Ġcoeffici ents
U M
let t
Ġethn iques
h Ã´te
Î µ
ĠAl titudes
Ġcas que
ĠPro jet
Ġcapit aux
Ġcaval ier
ĠV alley
ud a
Ġren forts
ĠbÃ¢ti r
Ġexplo ite
Ġfranch it
18 84
Ġcompar Ã©e
Ġaction naires
ĠMass on
ĠBus iness
Ġtap iss
erbaÃ¯d jan
Ġs log
se igneur
Ġâ Ĥ¬
Ġcompar Ã©
Ġfabric ants
Ġmyth es
an ien
ĠTh er
ĠPro ject
Conse il
Ã©pid optÃ¨re
Ġminor itÃ©s
Ġcas e
Ġgalax ies
ĠAr my
Ġpil ier
Ġfonctionn elle
l ux
enf uit
Ġcombus tible
Ġmout ons
b ri
Ġc iment
Ġdev in
ĠFer ry
Ġ ×
Ġm iti
ĠrÃ©f Ã¨re
yrÃ© nÃ©
ĠhÃ© breu
f ra
Ġch ats
ot hÃ©
Ġent raine
Ġdou zaine
v ette
Ġpermet trait
ĠBar ber
ĠBou ches
ĠÃ©tudi ante
Ġsenti r
Ġatti rer
ĠCast ro
ĠO cÃ©
ĠRoy aumes
Ġquelque fois
ĠfrÃ©quent Ã©
ĠZ ag
Ġinv ente
ĠsÃ©par ent
ĠAch ille
ĠPant hÃ©on
ĠA sc
arch ive
Ġaltern ance
Ġpouss er
Ġdes crip
ĠÃ© chÃ©
ais ance
Ã©g ovine
ĠCor an
mar k
ht t
Ġexcep tions
ĠM ini
ĠH Ã©ro
ĠdÃ©c rois
ĠrÃ©p onses
Ġrel at
ab lanca
ĠinfÃ©r ieurs
Ġtremb lement
ic om
rÃ©s ilienne
Ġangl ophones
Ġpa use
Ġtox ique
b ol
ĠL oy
Ġad mi
ĠrÃ©alis ent
ras es
Ġsymb olis
ĠNik ol
Ġtoulous ain
Ġspati ales
l ue
ĠG NU
ĠGar cia
Ġmonument ale
Gu inÃ©e
ĠV ien
Ġtra me
riv Ã©
Ġjou ait
Cl oud
Don ald
Ġbov ins
ĠnÃ©glige able
ĠX box
ĠDans e
Ġtrouv a
Ġiniti ative
ĠMat ch
ĠmarÃ©c age
Ġcor ne
Ġsenti ers
r ille
Ï Ħ
Ġ1 200
Ġre lÃ¨vent
ĠD ance
Ġexc ellent
ĠintÃ©gra lement
i ait
m aire
Ġat lantique
ĠdÃ©m oli
Ġseptentrion ale
ĠP ira
ĠCh and
Ġexp ortations
Esp ace
Ġment ale
m ic
Ġs tip
ut te
app liquer
ĠsÃ©par ant
in os
ĠAn cienne
Ġk an
Ġadoles cents
ĠVillef ranche
Ġj oy
am or
Ġ? )
ĠPtolÃ©m Ã©e
Ġg lor
ĠR up
Ġliv raison
Ġvend ues
Ġaffir mÃ©
ĠÃ©quip age
ĠrÃ©chauff ement
as sembl
ĠD res
Ġimp rovis
Ġnour r
Ġconc entrer
ĠNe v
Ġextra terr
F M
ĠCol mar
Lors qu
Ġtoit ure
ĠTro ie
Su per
k al
Ġle aders
ĠPar ad
Ġrec ette
Ġret omb
Ġmen acÃ©e
Ġrel ance
Ġamb itions
ĠnÅĵud s
Ġil l
cons criptions
Cl assification
ĠrÃ©t ros
Ġam Ã©nagement
B elle
Ġqu alit
Ġinc in
Ġpor tÃ©s
ĠGal ilÃ©e
ĠHug h
ĠMur at
ĠS Åĵurs
ac ces
ĠCol bert
Ġpers Ã©cu
Ġta ches
Ġrecense ments
C am
d ra
ch arg
ĠprÃ©v oy
Ġimpos ant
j in
ĠM onn
Ġtu y
1 13
I mm
ĠG iv
ĠE ls
od Ã©
Ã©ta ble
ant a
ĠÃī qu
agn on
ĠVal ais
Ġastron omique
Observ atoire
Ġd Ã´me
Ġbou tique
Ġcit ation
Ġrenfor cÃ©
Ġillust rÃ©e
ĠGlas gow
m aison
Ġtra itant
Ġ16 00
Ġbrill ante
c art
ĠM aÃ®
ĠSh ar
ĠdÃ©cid er
hyd ra
LÃ©g er
ĠlatÃ© ral
ĠM RC
ĠR angers
Ġ10 5
Ġreconn ues
Ġnu age
Ġrede vient
r ins
u ff
Ġg land
ad al
Ġtra ducteur
ĠÃ©p ais
Ġdispar aissent
ĠÃ©qu estre
auc ourt
ĠrÃ©compens Ã©
p ass
ar gu
am is
Ġor chest
su le
ĠSh Åį
ĠDie ppe
S or
Ã©ra teur
Ġmar ionn
ĠÃī lu
ĠÃ©c rans
ĠMa o
histor iques
Ġcharp ente
Ġinsurg Ã©s
Ġs ket
ĠN ig
Ġphot ographique
Ġfac to
Ġc ire
ĠP ors
Ġlib Ã©rÃ©e
Ġguer rier
Ġquoti diens
ĠConc ert
Ġdange reuse
C S
m onde
Ġcas cade
Ġpens ait
Ġrassemb ler
impos ant
Ġtardive ment
Ãī thiopie
ĠprÃ©c Ã¨de
Ġgouvernement ale
Ġtrop icales
Is lam
ĠRac ine
Ġartific iel
Princip ales
Ġwall on
Ġen tiÃ¨res
Ġdeven ues
Ġcultiv Ã©
Ġmartyr s
ĠtÃ©lÃ©s pecta
ĠAr istote
ĠFreder ick
C M
N A
ĠM ob
se x
ta il
iss aient
Ġth riller
er ia
Ġla ve
Ġ17 60
ĠÃ©p aisse
Ġbat tent
Ġox yd
m aux
Ġb eurre
Ġtou relle
Ġbanc s
Ġs age
ĠD reux
Ġviv ante
Pe tit
ĠPla teau
Ġp uni
aj oute
antin s
erci ces
onn aire
ex erc
ĠMont es
ĠRen ard
ĠDÃ©c ouverte
ĠcomÃ©di ens
Ġchoc olat
ĠJane iro
M a
ĠG ap
Ġat mosphÃ¨re
Ġgouver neurs
Ġvict orie
ĠMor van
Ġni che
Ġnu its
F onction
is y
Ġt ang
Ġg Ã©rÃ©e
ĠW W
tr ont
Ġinc ons
Ġfais ceau
ĠSp iel
Ġpot entiellement
CrÃ© ation
Ġin duit
ĠY uan
ĠrÃ©v Ã¨lent
inf lation
Ġtor r
ĠB amb
Ġre lever
18 15
ĠcrÃ© ature
Ġconten us
ĠrÃ©flex ions
ĠpÃ©riph Ã©riques
ĠfÃ©od al
Ġsages se
M Ãªme
id el
arg ue
Ã©lect ronique
ĠFab rice
ĠbÃ©nÃ©fici ant
ĠC ome
Ã©t ymologie
Ġsign ent
Ġvis uels
Ġtu iles
log ue
ĠHun ter
Ġtar dif
ĠL il
ct or
Al enÃ§on
pi ra
Ġbask etteur
Ġorn ith
di ce
di ennes
ĠW it
Ġdirec ts
Ġexist er
Ġ ÅĴ
Ġh ip
ois on
Ġsa chant
ĠW ald
In t
Ġpublic itaires
ĠRobert s
Ġadap tÃ©es
ĠB ris
Ġch antÃ©
rit es
ĠTh is
ĠPer ry
ĠMur phy
Ġtopony mique
Ġaccus Ã©s
ĠBir d
Ġ17 78
Ġreconn aiss
ĠfÃ©d Ã©rales
ĠBrook lyn
in novation
ĠP Ã©tain
ĠF lash
Ġgu illo
col m
ĠMontmar tre
ent h
18 77
Ġinter diction
if orme
ĠÃ©ch ou
Ġobserv ateurs
Ġrac cour
ĠdÃ©cla rer
Ġsatis fait
Ġvertic al
ĠDak ar
ĠdÃ©coll age
S k
Ġf oires
ĠT ir
Esp aces
Ġfabri quÃ©s
ĠChau mont
ro ge
ĠH abit
Ġ3 16
ĠTou raine
ĠRod olphe
ch ap
ĠM orn
ag li
tu el
Ġmaxim al
Ġliber taire
ĠCir cuit
Ġabsolu ment
ĠCh roniques
Ġti rant
ĠSec rÃ©taire
ĠDel ta
Ġvende urs
L ond
de x
ĠR aff
ble don
Ġ17 83
ĠCol ette
ĠdÃ©s accord
ĠAf ghanistan
at um
ĠP rÃ©sentation
Ġh ou
ĠH omme
ind a
ĠMais ons
Ġpoly m
Ġsuffis ant
Ġsoign er
Herz Ã©govine
k os
Ġra il
1 14
f il
Ġman i
Ou en
ĠenchaÃ® ne
Ġa dep
ar mistice
Ġdisp utÃ©e
Ġcertific at
ri ka
ĠB ai
isc ons
Oc Ã©an
pos te
ĠDum ont
Ġarr Ãªte
U L
Ġg ave
ad jectif
Ġper tin
Aux erre
ĠmÃ©taph ysique
Ġp y
ans ons
Ã©l y
Ġalg Ã©rienne
Ġmix tes
ĠSpe cial
ĠC assi
ĠH ors
Ġ17 00
ĠprÃ©f Ã¨rent
ĠChem ins
I m
it ri
ve au
ĠK ill
ĠÃ©ch appe
ĠSal v
Ġattribu Ã©es
ĠÃ©vent uelle
ĠamÃ©n agÃ©e
Rom ans
Ġhol landais
Af ghanistan
Ret our
an ia
Ġc reuse
Ã¨ tent
ĠS tern
ĠAl lan
d j
ĠT ouss
Est aing
Ġappli quer
ĠvoÃ» tes
Ġtra duits
ex clusion
ĠMer ce
Ġaffir ment
ĠBec ker
ĠthÃ©m atiques
ĠBit che
Ã©li bat
sionn aire
Ġmagn itude
Ġroum aine
ĠUn der
Ġgra du
berg er
ĠFont en
Ġaliment ation
ĠKir k
Ġconclusion s
f et
Ġm Ã©gal
ĠMo Ã¯se
ĠBuc arest
ĠlatÃ©ra le
B ri
Ġcomp ortait
ass au
co d
ĠOn tario
ĠSon ic
Cor se
Ġamph ib
ĠE rik
ĠdÃ©p lo
ĠDi able
sc Ã©nario
Ġrefus er
Ġmerc redi
Ġsatisf aire
ĠRoll ing
Ġp ile
Ã©n anie
ick el
Ġcommerci alisÃ©
At t
ĠprÃ©serv ation
n oy
Å Ł
Ġl omb
tÃ© si
Ġaffec te
ĠBill board
hÃ© ran
Ġten us
Ġeng agements
Ġcultiv Ã©e
Prin ce
Ġproduc tivitÃ©
L ieu
Ġla titude
ran ie
ĠH us
INS EE
ĠBoliv ie
Ġsuzer ain
ol id
ĠH T
ĠSh i
ĠCour se
Ġriv er
om s
Ġf Åĵ
ĠK ant
Ġbois sons
Ġsemb ler
Ġpri ori
ĠmÃ¢ ch
ĠA er
Ã©th ique
ĠPenns ylvanie
ĠÃ Ĩ
ograph y
Ġfil tre
18 79
hÃ© ros
Ġrecens Ã©
ou illet
si fication
Ġb ab
enn a
enn etÃ©
Ġcouv rent
ĠMer cier
umb er
Ġaigu Ã«
Ġliqu ides
l ers
Ġa ides
ĠA P
Ġpays an
ĠcÃ´ tiÃ¨res
ĠdÃ©clar Ã©e
Ġgrav Ã©
stan bul
ĠM ouss
ĠP N
ĠP is
Ġjug Ã©s
Ġprivil Ã¨ge
ĠA ven
ĠN ol
vel and
Ġpuiss antes
ĠFab re
S ciences
r ouss
v Ã©e
ĠH ern
ĠprÃ© cep
ĠdÃ©n iv
PrÃ© nom
Ġtit ulaires
Ġmerc ure
rug by
Ġvector iel
ur u
Ġdi agon
Ġz inc
ites se
Ġouv rant
Lor raine
ĠG est
ĠĠĠĠ Ġ
Ġconf ort
ry th
Ġexprim Ã©
ĠcoopÃ©ra tive
ĠdÃ© tÃ©ri
Ġobten ant
Ġmac Ã©d
aband onner
ĠMong olie
Ġa sp
ĠC Ã©line
ĠprÃ© dic
ĠdÃ©velopp ant
ĠMer lin
Log iciel
LÃ©g ende
Ġra ids
ang erie
Ġins pecteur
ĠLÃ©g ende
Oh io
Ġp ict
Ġbas Ã©es
Ã¼ ck
ĠLin k
insta uration
Ġgue ules
Ã©la Ã¯de
1 16
Ġs id
ĠD S
ĠG ad
Ġsub sp
Ġgratu ite
Ġterror isme
ĠchÃ¢ ssis
P ic
á ĥ
Ġt umul
ol isme
ĠS G
Ġmot te
aci onal
ĠWest ern
fon ction
A llemand
v ues
ol us
ĠF iat
ĠF aso
Ġmod estes
rom es
ĠHer o
Ġfonctionn alitÃ©s
ĠSchw arz
Ġ( =
ĠCl uny
ĠXV III
Ġcav itÃ©
ĠdÃ©plac Ã©
ĠHipp olyte
onc Ã©es
Pro ducteur
ĠKe y
Ġcenti mÃ¨tres
ĠF oss
ĠCh oice
Ġferm er
Ġrig ueur
ĠÃ©nerg ies
Ġmut ations
W illiam
ĠL ions
ĠP ir
Ġtopony mie
Ġrepos ant
ĠHum an
am ie
inter valle
ĠGal lica
ain si
ĠWal k
Ġcryp te
Ġacc rue
Ġcert es
ĠMich igan
ĠdÃ©termin Ã©es
Ġriv aux
ĠmystÃ©rie ux
ĠC ul
Ġver d
Ġritu els
ĠClint on
ĠC is
tr ent
ĠPar me
rig ation
ĠrÃ©alis atrice
ore ille
Ġarriv ant
Ġdanse use
ĠChurch ill
ĠN g
Ġor nÃ©e
ven nes
ĠCl ara
ĠcÃ´ tiÃ¨re
ĠÃ©qu ilib
ĠisraÃ©li enne
hÃ©roÃ¯ ne
ĠS O
Ġch aussÃ©e
Ġmar di
Ġcan onique
Ġvis u
Ã¨g ne
Ġfai m
s ou
Ð ´
à ¥
tin Ã©
En se
Ġti ra
Ġatte ints
ĠmatÃ©rie lle
Champ agne
Ġpous sent
atell ite
ĠT ell
Ġsur vient
Ġcour onnement
ĠprÃ©c ises
gu y
Ġcontest Ã©e
A I
18 75
ĠprÃ©sid entiel
Ġpoin tes
Ġcommen Ã§ant
Ġlocomo tives
h all
Ġan ec
im ir
Ġcou n
Saint s
Ġnour ris
Ġparent Ã©
B our
ond ins
Ġcour antes
Ġdiffus Ã©s
Ġpap illon
Ġcam ion
ingÃ©n ieurs
ĠÃ©dit Ã©e
Ġproclam ation
ĠSpar te
ĠHitch cock
o Ã«
Ġ( ...)
Ãī ta
ges tion
Ġatta quent
ustri alisation
Ġp Ã¨res
Ġsur veiller
ĠSus an
Ġsuperfic ielle
ab rÃ©
iff el
ĠrÃ©fug ie
ĠMore l
Ġacad Ã©mi
Ġfres que
Ġottom ane
ĠWim bledon
co se
empl oy
Ġprovo quent
Ġbret ons
e le
i y
ĠE b
Ġâ Ļ
Ġindi ce
ĠGra ce
bor ough
Ġtre mp
et he
Ġt endre
Ġh Ã©r
inter national
ĠTemp liers
ti os
ĠWe ek
Ġratta che
ĠP od
Ġb ains
Ġj ac
Ġlimit ation
Ġto il
Ġmagn ifique
ĠSup erman
Riv iÃ¨re
ĠS ai
ĠMar ty
orm is
cl in
Ġva ches
hum ain
Ag en
ĠrÃ©cip roque
l ans
v or
ph alie
Ġdi oxyde
ver y
ĠintÃ©g rant
Ġaqu atique
Ġaveug le
s ouvent
ĠC GT
ĠE lisabeth
Ã©d ois
Ġryth mique
Ġcens Ã©
ĠSl ovaquie
Ġl ond
ĠL ob
ĠrÃ©cup Ã©ration
F ort
sid ente
Ġoc cul
Ġent rain
Ġrecon ver
ĠStra uss
diff usion
Ġag gra
ĠBl ond
ĠbÃ¢ tis
ol ore
Ġme urent
Ġpersonn ellement
Ġemp i
Ġvari ant
Ġrecens Ã©s
Ġpharm ace
aine ment
ĠMe h
ĠstratÃ©g ies
ĠgrÃ© co
Ġflan cs
Ġwil aya
uis s
Ġapp ortent
Ġper cÃ©e
ĠCam us
av ille
Ġmis sile
Ġten ues
azz o
Ġdoig t
p ap
Ġt aure
Ġpar odie
ĠrÃ© duits
op ter
ĠprÃ© historique
Ġ- -
Ġas tÃ©roÃ¯de
Ġengl ob
Ġpatin age
Ġt onne
Ġdi ac
ĠNeu ville
Ġb rÃ©silienne
Ġro c
rick et
Ġcrimin elle
comm une
m ati
om ery
lig a
Ġgen ou
Ġvass aux
Municip alitÃ©
V P
l ock
li ch
ĠrÃ© utilis
ĠMar tel
oli ve
Ġautor outes
ĠintÃ©ress Ã©
Ġmatern el
Ġsalari Ã©
ĠBud get
W est
Ã¨ bes
ch aft
Ġin ta
ĠN es
Ġbi joux
ĠVal Ã©ry
Ġsubstitu tion
Ġopin ions
Philos ophe
D Ã©veloppement
ĠC ai
Ġfond a
ĠVir g
ĠconsidÃ©ra bles
ĠLog ement
etz sche
Ġillustra teur
Ġconqu Ã©rir
Ġcah ier
ĠD id
ĠE du
ass el
ori enne
old s
oppos ent
Ġbor nes
Ġfal aise
c os
ĠJ al
oth Ã¨que
Ġfondament ales
Ġp Ã©nÃ©
ar ine
18 87
ĠOn line
crip t
Ġlatin s
ĠfÃ©min iste
ĠGÃ©n ie
Ġtend ent
ĠCh es
Ġtr Ãªve
Ġfac ultÃ©s
Ġinond ables
ĠS E
ĠG la
ĠN ash
ĠdÃ©par ts
Ġmis Ã¨re
Ġdomin ent
ta cÃ©
I b
Ġs ombres
Ġle Ã§ons
ont ologie
organis mes
Ġcommuni quÃ©
Ġterror istes
ĠHard y
ĠT ill
ĠdÃ©taill Ã©s
Ġarriv Ã©s
ĠcloÃ® tre
ĠG erman
ĠT et
Ã©g orie
Ġindic ateurs
ĠLÃ©v y
H am
Ġv ies
ĠO pp
ĠFer me
Ġreb elle
Ġl uxemb
ĠdÃ©n ominations
ĠKun st
Ġn aissances
ĠD ies
ta dt
Ġma f
ton ie
Ġrejet er
ĠRÃ©public ains
Pl ante
Ġneut ralitÃ©
Ġgenti l
F i
n elles
ĠgÃ© op
Ġorganis ent
... ),
ĠBour se
ĠdÃ©crit s
Ġpron oncÃ©e
Ġmorte lle
ĠDar win
Ġcrimin el
Ġgise ments
ĠC FA
ĠK erg
ĠGro en
ĠcollÃ¨ gue
L R
i pe
Ġa lig
ĠC ub
um ann
Ġven geance
Ġjug er
Ġrecue ils
Ġconqu Ãªtes
Ġf act
Ġt ester
ĠG erb
18 51
off iciers
Ġisol Ã©s
ĠprivilÃ©g iÃ©
Ġangl ophone
ĠGau thier
Ġastron ome
rob ation
Ġ12 8
Ġexpli quant
T rÃ¨s
in ne
oug Ã¨res
No tre
ĠfÃ©c ond
F ondation
Ġf Ã¼r
ĠV og
Ãī lisabeth
Ġti rÃ©e
Ġlongue urs
For Ãªt
qu o
Ġv ertes
Ġdeux iÃ¨mes
Ã©p isodes
Ġadministra tions
ĠmÃ©di cin
Ġcart ulaire
illus tre
ĠdÃ©p la
ĠRaf ael
L yon
Ġh onneurs
he d
Ã» ts
Ġrab bin
pron oncÃ©
Ġscrip t
v as
Ġc ibles
ĠC aill
Ġreg ret
Ġphot ographiques
Ġpor tÃ©es
ĠÃ©dit ori
Ġpaci fique
ĠD at
ĠE N
Ġconcern Ã©
Ġcab ine
Ġg h
Ġex cent
18 60
Ġdos siers
ĠMade moiselle
ĠboÃ® tes
ĠrÃ©cep teur
v ions
ĠP ens
ĠdÃ©f auts
Ġw estern
ĠdÃ©pos Ã©e
l au
Ġg endre
ĠA ul
mi en
Ġcad as
Ġnum Ã©r
enf uir
Ġmur ailles
Inter national
empl ois
Ġcrist aux
exÃ©cu tif
Ġsou lev
ĠBel ges
Ġinst ances
ĠÃ©qu ation
ĠMarch and
Journ aliste
ĠH ir
ru d
ĠMar chÃ©
Ġcad ette
ĠĠĠĠĠĠĠĠ ĠĠ
inf ection
ĠOtt omans
else a
ĠCauc ase
i aux
18 63
ĠPrin cesse
vid us
ĠGlob es
Ġprogress iste
Ġc aisses
ul li
ĠJ ah
ĠV erm
ct on
Ġbois son
Ġmarti aux
Ġluc ra
ĠP om
Ãī ric
ex in
ĠnÃ©g ociation
ĠFab ien
c elle
bre t
ov re
Ġco teau
ĠdÃ©cor atifs
ĠConst ant
T M
ĠD ante
ĠCam eron
ĠÎ ²
Ġvass al
ä ¸
Ġc ut
ĠT au
Ġcol span
inter face
ĠaÃ©ri ens
amÃ©ric ains
Ġdiam ant
ĠPay ot
ĠdÃ©char ges
rou gh
Ġprote ctorat
ĠÃ©chantill ons
g ren
ter dam
Ġses sions
ĠdÃ©f aill
Ġsub ventions
ĠKans as
c ente
ĠA ma
Ã©m en
Ġad jac
Brie uc
ĠrelÃ©gu Ã©
V illage
c ti
u ke
ph in
ĠprÃ© ven
entre pr
ĠAl t
Ġviol entes
ĠGren ade
ĠVik ings
ĠFore z
ĠH alle
Ġutilis ait
Ġaudi ovis
Ġpis ci
Rich ard
ĠFound ation
k rit
ĠM its
ĠD ic
ĠH az
Ġtu ant
ĠWh at
ĠGab rielle
Sec teurs
Ġsis mique
ĠpÃ©nÃ© trer
ui ra
enc re
ĠIs ra
ĠDup ont
prin cip
Ġagran di
ib ert
Ġref lÃ¨te
ĠAuc une
ĠSuc cession
Ġre lÃ©gation
ĠMal heureusement
Ġbourg u
t rices
Ġn an
Ġsu g
ĠprÃ©sid entielles
Ġ10 2
Ġpolitique ment
Ġparc ourt
ĠdÃ©crit es
Ġafric aines
c amp
ou an
ĠL td
Ġdis ent
Ġcro ss
Ġsymbol ise
ĠgrÃ©g orien
l ait
An toinette
Ġloc ation
Ġmons ieur
ĠMoun tain
ĠN R
ĠH em
ologique ment
ĠÃ©t al
Ã©mi tisme
Histor ien
n ow
ĠR all
op ard
Ġfor ge
ĠW onder
aff ron
Ãīlys Ã©es
T outes
Ġc rÃª
Ġf aille
ĠN au
18 74
Ġ17 76
ĠLu cius
ĠthÃ©or iques
Ġs tre
Ġrep tiles
Ġprof itant
Ġpers Ã©c
Ġperd ant
Ġalg orith
Anne cy
Ġclin iques
ĠMuss olini
5 00
c m
Ġ1 19
ĠH D
Ġsou mission
ĠPublic ations
Ã Ī
Ġfut ures
usse in
Am sterdam
erv al
ĠCl ay
Ġcommand Ã©s
Ġbil ingue
Ġparticul aritÃ©s
ĠI ron
Ġinter dits
179 2
Ġcoul oir
Ġf oudre
Ġpour ront
ot to
co vie
ind er
ĠMal colm
ĠcinÃ©mat ographiques
C ompagn
ct uration
uc ky
GÃ©n Ã©r
G i
it rice
ĠA sp
Ġpo chette
Ġrepro duit
mins ter
Ġp li
er landais
lim ine
Ñ ĥ
Ġou t
lip se
apparten ance
B ert
ĠSe a
ĠKn ight
ĠthÃ©Ã¢ tres
r ard
Ġ ions
ĠW oman
ath a
ĠPet e
Ġacqu Ã©rir
Ġchauss ures
R ap
Ġd oyen
Ġp esti
Ġprodu ctrice
Ġcontinu a
Ġnoy aux
c ut
Ã© tie
en et
ti k
ri ennes
ab us
ill usion
enne c
ĠW omen
ĠPrÃ© v
Ġaffron tements
Ġun itaire
Ġn aÃ¯
ĠG ymn
ov itch
ĠBel grade
ĠM ois
Ġra id
Ġchar me
char ge
ĠRap port
ĠrÃ©nov Ã©
Ġexplor ateur
ĠtÃ©lÃ©specta teurs
ar ing
rou ge
ĠAr chi
ĠBr une
Ġloup s
ur as
lÃ¨ ches
Ġplais ance
Ġtou chant
Ġcol loque
Ġrec ouverte
od o
ĠdÃ©f enses
Ġsub divis
ĠBur kina
ĠcontrÃ´ lÃ©
ĠArg ent
ĠPaci fic
ĠRouss illon
is m
am s
ab o
ĠCh rys
ĠMich elle
Ġsurven ue
ĠtÃ©lÃ©ph onique
Ġgymn astique
Ġrepos ent
Ġpodium s
Ġclandes tin
ĠOise aux
in con
ĠV aug
inter action
Ġun i
Ġpar ap
ĠZ hou
ĠDÃ©c laration
hu a
N ominations
ĠD avi
ex t
oph iles
ob tient
Ġsp in
ĠSid ney
Ġpist olet
ĠUE FA
z za
18 69
Ġad hÃ©
oub li
ĠBroad way
Ġp s
di rent
Ġreconn aissent
inc er
Ġanim ations
Ġcandid ate
ĠCorn ou
Ġparas ites
ĠSpor ting
C alifornie
ĠW er
ĠBeau fort
ĠÃ©tablis sant
Ġmodern itÃ©
Ġrall ye
Ġcylind res
ĠVes oul
ĠCorne ille
Ġviole mment
H ol
L aye
Ġcons onnes
ĠÃ©v ite
ĠThÃ© ophile
Ġgla cier
ĠSau mur
M ex
id um
tis ta
ĠGu Ã©rin
Ġoccasion s
ĠbrÃ» lÃ©
ĠG ang
ĠpiÃ¨ ge
Ġcollabor ateur
Ġmassac res
Ġrebaptis Ã©
Ã©re mment
ĠNog ent
Ġ og
Ġp Ã¨se
ĠG rou
nes ota
Ġti ges
usta che
Ġchron ologie
ĠlimitÃ© es
y mes
ri rent
os tÃ©
ard on
ern oise
uc c
ting en
ĠComp te
ĠLot us
ĠsÃ©di ments
U ruguay
as por
ĠrÃ© ci
Ġe uro
tu elle
ot ox
Ġtrouv Ã©es
Cir conscriptions
Hong rie
ĠsÃ©m antique
Ġ ic
Ġs ar
in ki
Ġre mix
tin Ã©raire
Ġvillage ois
ĠRh Ã©nanie
Ġinond ation
Ġrecomm ande
Ġmanuf acture
ĠC aliforn
ĠD ong
ĠprÃ© lev
Ġ17 63
Ġcha os
ĠchÃ¢ ta
ĠWel ls
F Ã©lix
ou chement
ĠM aure
ĠAn ge
18 40
Ġpos tÃ©rieure
Ġsign Ã©s
land o
ĠrÃ©ussi r
Ġconfront Ã©
es el
Ġb Ã»
ab st
ĠN ab
ure mberg
18 14
Ġatte intes
Ġproven Ã§al
Ġretrouv Ã©es
Ġexprim er
Ġpav illons
ĠProg ramme
ĠsymÃ©t rique
h ac
is i
in dic
Ġguit ares
occup ant
h art
ĠÃī tude
Ġver ra
ĠGar c
Champion nats
Ġaust ro
Alph onse
s ie
Ġt roph
ĠD est
Ġroman es
C a
Ġp aque
ĠM ats
ag ais
Ġcomm uta
ĠI mm
ĠQu entin
ĠStudi es
is che
li fication
ĠR iche
ubli ques
be y
Ġiniti Ã©
immeub le
ĠC L
Ġh arc
oc citan
Ġcap tur
ĠmÃ© pris
ĠcomÃ©di es
Ġcle f
k t
ur ne
ĠH ig
Ġautor ou
Ġsais ir
uch on
Ġmagistra ts
it ales
ĠprÃ© val
Ġsing es
ider ot
Ġnat ation
Ġs oprano
as ties
ĠG auche
ens en
ill ie
ock et
pl oit
Ġsex uels
indi vidus
ĠJack ie
Ã©si en
Ġdestru ctions
ĠFourn ier
ĠR ah
ell in
179 4
ĠLie utenant
Ġbulle tin
Ġtuber cul
C amb
Ġg a
li ps
ĠH erman
Ġtr ompe
ĠJud ith
p ied
Ġmar cher
Ġcal ife
Ġenregist rÃ©es
Ġsab re
zÃ© landais
ĠOper a
ĠB eng
ĠR ip
18 65
Ġrec ond
ĠFam ily
ĠDisc ours
Ern est
Ġestiv ale
ĠL ow
ĠB attle
og rammes
urs t
ĠH ector
ĠK iss
ĠreÃ§ ue
Ġmultip le
F estival
ĠM out
ĠB ande
Ġmin ier
ĠrÃ©tab lissement
Ġsurmont Ã©e
corÃ© en
n al
ĠT uil
pr ud
ĠJe unes
Ġform elle
ler oi
ĠocÃ© an
Ġhonor aire
ĠdÃ©com position
ĠCh or
if ormes
lus tra
Ġorigin ellement
Ġmanip ulation
in iÃ¨re
Ġal pha
Ġ10 3
ĠDisney land
Ġesc ad
ĠCle veland
V allÃ©e
ĠP f
ag one
Ġcor se
Ġindi ens
Ġimpos Ã©e
ĠCr Ã¨te
ĠÃ©tend ues
Ġjustif ie
ĠB oyer
Ġlar ves
ĠGl enn
appel Ã©
Ġconver ti
opro tÃ©
Ċ ĠĊĠĊĠĊ
Ġc ister
Ġin demn
od ynamique
ĠAl p
ĠPic asso
ĠTru mp
Ġcapture r
Un ies
18 68
Ġcontre r
inter rog
Ġratta chÃ©es
Ġhos pit
aliment aire
Ġproph Ã¨te
n iÃ¨res
un ification
Ġex amin
ĠÃ©c ou
Ġrapp ellent
Ġdistin cte
Ġrac isme
ĠamÃ©li oration
R oger
que ville
ĠP rie
18 61
ĠIn donÃ©sie
Ġconsul tÃ©e
ĠsÃ©p ultures
ĠGaul ois
A G
ent hal
Ã©c rase
imp rimerie
all o
ĠSah ara
Ã© tesse
Ġsc ope
Ġappar ente
12 5
hi pp
Ġanim Ã©s
vin ce
igh ter
L ab
k ong
Ġcal vaire
Ġgar diens
isc ard
ĠGas pard
Ġestim ant
ĠcÃ©ra miques
D P
d ate
ĠP Ã©pin
ĠT olk
Ã©c anique
ĠSe dan
Ġsub mersion
ham mad
Ġsan itaires
ĠDauph in
afric aine
H ubert
Ġs ic
ĠT yr
ĠnÃ© olithique
ĠCond or
sig nes
Lach aise
om at
oc l
ĠSe ga
h ans
ĠJ ust
ĠO x
Ġcin Ã©tique
rÃ©s is
Ġinnov ations
Ġpulmon aire
in ge
ĠV ingt
ĠbÃ¢ ton
Ob jet
ĠGib son
L AN
y cle
Ġb ad
ĠĊ ĠĠ
Ġfranc isc
ĠArch itecture
Ġalp ine
X avier
k at
ra p
ta xe
aill ot
ke ley
180 1
ĠCath Ã©drale
y y
Ġc ort
ĠAg ain
Ġagrand ie
ĠF BI
ĠK el
ĠRoy an
rat oires
ti lis
ĠL uf
st ance
ĠlÃ©g Ã¨res
Ġfer ait
Ġmen tions
aff luent
ĠdÃ©sign ent
ĠopÃ©ra teur
ĠBois s
ĠdÃ©criv ent
Ġiran ien
ĠDuv al
abond ance
un di
ch imie
erb y
Ġtempor aires
ĠCollec tif
Ġpatrimoni al
Ġes qu
Ġfonde ment
Champion nat
Ġrecommand Ã©
Ġasi atiques
ol iv
Ġv ases
ĠP seud
ĠdÃ© dic
ĠA venue
ĠrÃ© quis
Ġin vention
Ġoc cit
ĠÃ©t ang
ĠCap tain
os sile
Ġcircul er
ĠPers es
Ġc Ã©libat
ĠV ous
Ġremp orta
Ġmarqu ise
ĠÃ©ch o
Ġant ennes
Ġalli Ã©e
ĠPol onais
Ġram Ã¨ne
ĠM ix
if t
Ġve ine
tex tes
ĠAndre as
Sy mb
J us
ĠL up
Ġtra duite
Ġcl arin
ug uen
Ġpot entiels
Ġappli quÃ©es
Ġfrom ages
M ic
au tiques
ĠB rid
ĠÃ©v Ã¨nement
ĠÃ©p Ã©e
Ġbien heureux
respond ance
ĠDern iÃ¨re
Ġfolk lor
d res
is prud
Ġau tel
ĠH istoires
Ġser veurs
att us
ĠCal vin
Ġchemin Ã©e
ĠSuper coupe
Ġenvironnement al
occ urrence
urte mberg
Ġmar ron
ĠÃī quipe
tra c
els inki
ĠBe ver
Ġcanadi ennes
Ġmultipli ent
Ġmaroc ain
e a
Ġmin uit
ĠAlexand ra
Ġquo ique
V oix
ĠB orn
Ġnom mÃ©es
Ġ17 77
lor on
ĠRog ers
Ġaccueill ent
ĠN OT
ĠSt ur
Car lo
ĠdÃ©g uis
Ġconv ergence
an ciers
Ġav oisin
ĠX IIe
ĠCon an
ĠNi etzsche
ĠMagn us
Ġdesque lles
z bourg
es a
ĠN GC
im al
Ġsp i
Ġpatron age
ĠjÃ©s uites
Ġhorm is
Ġiv oi
j ar
ĠCh ronologie
ĠcrÃ© dits
Il linois
ĠMagh reb
m are
Ġ iron
Ġa que
Ġdes criptions
Ġfrapp er
Ġl its
Ġj ung
Ġcar ton
Au ch
esp ierre
w y
ĠDes ign
ser vice
Ġprosp Ã¨re
ag isse
ĠCh elsea
all on
ĠarchÃ© ologues
Ġfluvi al
J u
ĠT Ãªte
t rop
ĠS Ã©l
ĠF Ã©
ĠV or
Ġver b
inter communalitÃ©
ĠDom aine
ĠlaÃ¯ que
Ġsyll ab
ĠP ast
Ġfor um
Ã©v y
Ã©tend ue
ban ais
el age
ĠP ern
ĠR ico
ap a
18 73
Ġrecon quÃªte
Ġun es
Ġpar king
Ġpol aire
Ġgerm an
Ġstric te
ĠNich olas
E mb
18 50
Mar guerite
idÃ© ologie
ĠconsÃ©c ration
ĠthÃ©Ã¢ trale
Ġboute ille
A mi
Ġcompens ation
ĠSlov Ã©nie
u che
Ġt an
cl ub
ĠChÃ¢te let
Ġrappel Ã©
affir me
Ġlumine use
T ype
Ġt at
el low
Ġinter urb
ĠprÃ©sent ait
ĠHe ad
Ġrev int
ĠCas ablanca
tim ore
ĠSerg ue
G old
ĠS ole
ĠP ret
ĠH ut
ins ertion
Ġad mire
Ġven aient
in ville
om or
ĠB rag
ĠÃ©c ologiques
to wn
Ġfa usses
B ill
c z
ĠF lÃ¨che
ĠT ron
Ġph rases
Ġemb ry
Ġsignal er
ĠC Ã©les
ĠM ec
Ġsav oy
mbl ay
Ġproclam Ã©
ĠBun des
ĠBoud dha
Ġcoff ret
ĠD rou
ĠD reyfus
ĠÃ©conom iste
Hum anitÃ©
c ad
Ġ1 11
ĠS ug
ĠH es
Ġfor tif
ĠK Åį
ingÃ©n ierie
h aw
ĠL ance
Ġse g
ĠPro fesseur
ĠAg en
Ġpron oncer
Ġemprun te
n an
ĠA ki
ĠdÃ©m olition
Ġvis uel
Ġmas ter
Ġflam ande
Ġrepouss er
ĠCote aux
er ces
onn y
Ġremp li
Ġautor oute
Ġphysique ment
Ġdisper sion
1 18
S Ã©ries
T erre
Ġt am
ĠO ber
ĠMe ur
aff e
Ġhum aniste
Ġpein ts
Ph ot
ĠNorm ands
ĠHer cule
Ġba ign
ĠPhilos ophie
Ġ17 84
Ġretra ce
Ġposi tifs
Joue urs
4 00
us Ã©e
Ġar ron
Ġjou x
AR N
ĠsÃ©j ourne
Ġreman iÃ©
Ġchau des
ra f
ĠP rime
18 72
17 89
Ġver bes
Ġcent rÃ©e
Ġessenti els
Ġaccueill ant
ĠCarn ot
ia que
Ġbi om
inst ant
Ġpens Ã©es
Ġcardin aux
[...]
